{
  "version": "1.0",
  "truncation": null,
  "padding": null,
  "added_tokens": [
    {
      "id": 0,
      "content": "[PAD]",
      "single_word": false,
      "lstrip": false,
      "rstrip": false,
      "normalized": false,
      "special": true
    },
    {
      "id": 1,
      "content": "[UNK]",
      "single_word": false,
      "lstrip": false,
      "rstrip": false,
      "normalized": false,
      "special": true
    },
    {
      "id": 2,
      "content": "[CLS]",
      "single_word": false,
      "lstrip": false,
      "rstrip": false,
      "normalized": false,
      "special": true
    },
    {
      "id": 3,
      "content": "[SEP]",
      "single_word": false,
      "lstrip": false,
      "rstrip": false,
      "normalized": false,
      "special": true
    },
    {
      "id": 4,
      "content": "[MASK]",
      "single_word": false,
      "lstrip": false,
      "rstrip": false,
      "normalized": false,
      "special": true
    }
  ],
  "normalizer": {
    "type": "BertNormalizer",
    "clean_text": true,
    "handle_chinese_chars": true,
    "strip_accents": null,
    "lowercase": true
  },
  "pre_tokenizer": {
    "type": "BertPreTokenizer"
  },
  "post_processor": {
    "type": "TemplateProcessing",
    "single": [
      {
        "SpecialToken": {
          "id": "[CLS]",
          "type_id": 0
        }
      },
      {
        "Sequence": {
          "id": "A",
          "type_id": 0
        }
      },
      {
        "SpecialToken": {
          "id": "[SEP]",
          "type_id": 0
        }
      }
    ],
    "pair": [
      {
        "SpecialToken": {
          "id": "[CLS]",
          "type_id": 0
        }
      },
      {
        "Sequence": {
          "id": "A",
          "type_id": 0
        }
      },
      {
        "SpecialToken": {
          "id": "[SEP]",
          "type_id": 0
        }
      },
      {
        "Sequence": {
          "id": "B",
          "type_id": 1
        }
      },
      {
        "SpecialToken": {
          "id": "[SEP]",
          "type_id": 1
        }
      }
    ],
    "special_tokens": {
      "[CLS]": {
        "id": "[CLS]",
        "ids": [
          2
        ],
        "tokens": [
          "[CLS]"
        ]
      },
      "[SEP]": {
        "id": "[SEP]",
        "ids": [
          3
        ],
        "tokens": [
          "[SEP]"
        ]
      }
    }
  },
  "decoder": {
    "type": "WordPiece",
    "prefix": "##",
    "cleanup": true
  },
  "model": {
    "type": "WordPiece",
    "unk_token": "[UNK]",
    "continuing_subword_prefix": "##",
    "max_input_chars_per_word": 100,
    "vocab": {
      "[PAD]": 0,
      "[UNK]": 1,
      "[CLS]": 2,
      "[SEP]": 3,
      "[MASK]": 4,
      "!": 5,
      "\"": 6,
      "&": 7,
      "'": 8,
      "*": 9,
      "+": 10,
      ",": 11,
      "-": 12,
      ".": 13,
      ":": 14,
      ">": 15,
      "?": 16,
      "a": 17,
      "b": 18,
      "c": 19,
      "d": 20,
      "e": 21,
      "f": 22,
      "g": 23,
      "h": 24,
      "i": 25,
      "j": 26,
      "k": 27,
      "l": 28,
      "m": 29,
      "n": 30,
      "o": 31,
      "p": 32,
      "q": 33,
      "r": 34,
      "s": 35,
      "t": 36,
      "u": 37,
      "v": 38,
      "w": 39,
      "x": 40,
      "y": 41,
      "z": 42,
      "§": 43,
      "²": 44,
      "ø": 45,
      "ʻ": 46,
      "—": 47,
      "…": 48,
      "₂": 49,
      "七": 50,
      "五": 51,
      "八": 52,
      "##f": 53,
      "##e": 54,
      "##r": 55,
      "##i": 56,
      "##n": 57,
      "##g": 58,
      "##s": 59,
      "##w": 60,
      "##a": 61,
      "##y": 62,
      "##u": 63,
      "##m": 64,
      "##o": 65,
      "##t": 66,
      "##h": 67,
      "##j": 68,
      "##d": 69,
      "##l": 70,
      "##x": 71,
      "##c": 72,
      "##q": 73,
      "##v": 74,
      "##b": 75,
      "##z": 76,
      "##p": 77,
      "##k": 78,
      "##ø": 79,
      "##²": 80,
      "##ʻ": 81,
      "##₂": 82,
      "th": 83,
      "the": 84,
      "##at": 85,
      "##er": 86,
      "##in": 87,
      "##on": 88,
      "##en": 89,
      "##ou": 90,
      "##nd": 91,
      "##es": 92,
      "that": 93,
      "##ing": 94,
      "##or": 95,
      "##ed": 96,
      "to": 97,
      "##it": 98,
      "in": 99,
      "##is": 100,
      "##re": 101,
      "##al": 102,
      "##ion": 103,
      "of": 104,
      "##as": 105,
      "and": 106,
      "##an": 107,
      "##ar": 108,
      "##ent": 109,
      "##ic": 110,
      "wh": 111,
      "re": 112,
      "##om": 113,
      "be": 114,
      "##ve": 115,
      "##ct": 116,
      "##ly": 117,
      "##le": 118,
      "##ot": 119,
      "##se": 120,
      "##ut": 121,
      "it": 122,
      "you": 123,
      "we": 124,
      "##ll": 125,
      "ha": 126,
      "##id": 127,
      "##st": 128,
      "##et": 129,
      "pr": 130,
      "on": 131,
      "##ow": 132,
      "is": 133,
      "##ld": 134,
      "##ay": 135,
      "for": 136,
      "##ation": 137,
      "was": 138,
      "st": 139,
      "##ce": 140,
      "this": 141,
      "##ur": 142,
      "con": 143,
      "##im": 144,
      "not": 145,
      "##ment": 146,
      "cou": 147,
      "##ig": 148,
      "##ver": 149,
      "have": 150,
      "an": 151,
      "##ir": 152,
      "do": 153,
      "they": 154,
      "pro": 155,
      "he": 156,
      "so": 157,
      "de": 158,
      "##ith": 159,
      "there": 160,
      "com": 161,
      "##ere": 162,
      "##est": 163,
      "with": 164,
      "##ate": 165,
      "##ess": 166,
      "##her": 167,
      "##if": 168,
      "as": 169,
      "##pp": 170,
      "se": 171,
      "go": 172,
      "##ould": 173,
      "what": 174,
      "##ch": 175,
      "but": 176,
      "##ol": 177,
      "su": 178,
      "##ant": 179,
      "ab": 180,
      "##il": 181,
      "ex": 182,
      "at": 183,
      "##ter": 184,
      "##am": 185,
      "sh": 186,
      "##ge": 187,
      "##ally": 188,
      "##au": 189,
      "##ke": 190,
      "##ad": 191,
      "##ive": 192,
      "##act": 193,
      "ne": 194,
      "##ain": 195,
      "##ity": 196,
      "ju": 197,
      "##out": 198,
      "##ht": 199,
      "would": 200,
      "##rt": 201,
      "##and": 202,
      "if": 203,
      "##ul": 204,
      "##ers": 205,
      "##op": 206,
      "##ort": 207,
      "tr": 208,
      "dis": 209,
      "##ill": 210,
      "som": 211,
      "fr": 212,
      "##tr": 213,
      "##ink": 214,
      "##art": 215,
      "or": 216,
      "##ause": 217,
      "##ab": 218,
      "me": 219,
      "cas": 220,
      "court": 221,
      "bec": 222,
      "all": 223,
      "think": 224,
      "##os": 225,
      "can": 226,
      "##ight": 227,
      "ch": 228,
      "##ect": 229,
      "about": 230,
      "are": 231,
      "al": 232,
      "tw": 233,
      "##ac": 234,
      "##mp": 235,
      "because": 236,
      "##od": 237,
      "say": 238,
      "##iv": 239,
      "##end": 240,
      "##ence": 241,
      "ev": 242,
      "ag": 243,
      "lo": 244,
      "kn": 245,
      "from": 246,
      "##ore": 247,
      "##ie": 248,
      "##ard": 249,
      "##ose": 250,
      "case": 251,
      "##us": 252,
      "cl": 253,
      "##ies": 254,
      "##king": 255,
      "by": 256,
      "##ich": 257,
      "did": 258,
      "don": 259,
      "no": 260,
      "some": 261,
      "one": 262,
      "##un": 263,
      "had": 264,
      "##ous": 265,
      "know": 266,
      "##ty": 267,
      "just": 268,
      "##ial": 269,
      "any": 270,
      "ad": 271,
      "which": 272,
      "en": 273,
      "##ther": 274,
      "ar": 275,
      "qu": 276,
      "app": 277,
      "ma": 278,
      "res": 279,
      "##hing": 280,
      "out": 281,
      "le": 282,
      "##fer": 283,
      "were": 284,
      "sp": 285,
      "has": 286,
      "##ue": 287,
      "und": 288,
      "wor": 289,
      "##ict": 290,
      "act": 291,
      "##ree": 292,
      "when": 293,
      "comp": 294,
      "two": 295,
      "under": 296,
      "li": 297,
      "your": 298,
      "other": 299,
      "##ions": 300,
      "##ime": 301,
      "sa": 302,
      "part": 303,
      "##um": 304,
      "un": 305,
      "##oug": 306,
      "pl": 307,
      "##qu": 308,
      "get": 309,
      "rec": 310,
      "comm": 311,
      "our": 312,
      "##ok": 313,
      "fact": 314,
      "##ice": 315,
      "##ind": 316,
      "ta": 317,
      "##ib": 318,
      "##ist": 319,
      "been": 320,
      "those": 321,
      "##ff": 322,
      "##all": 323,
      "their": 324,
      "who": 325,
      "po": 326,
      "##te": 327,
      "##ud": 328,
      "then": 329,
      "up": 330,
      "time": 331,
      "per": 332,
      "##int": 333,
      "##per": 334,
      "##ated": 335,
      "these": 336,
      "like": 337,
      "##ack": 338,
      "pe": 339,
      "my": 340,
      "##ition": 341,
      "##able": 342,
      "##ip": 343,
      "##age": 344,
      "##ure": 345,
      "##one": 346,
      "imp": 347,
      "##ear": 348,
      "##ide": 349,
      "here": 350,
      "going": 351,
      "br": 352,
      "how": 353,
      "will": 354,
      "##ings": 355,
      "could": 356,
      "##ine": 357,
      "##ire": 358,
      "##em": 359,
      "##ople": 360,
      "ver": 361,
      "people": 362,
      "am": 363,
      "ac": 364,
      "##ations": 365,
      "int": 366,
      "said": 367,
      "##ance": 368,
      "##gu": 369,
      "##aw": 370,
      "##gr": 371,
      "state": 372,
      "them": 373,
      "she": 374,
      "off": 375,
      "def": 376,
      "where": 377,
      "##ord": 378,
      "##ether": 379,
      "##ec": 380,
      "##ough": 381,
      "##ame": 382,
      "dec": 383,
      "##th": 384,
      "inc": 385,
      "coun": 386,
      "quest": 387,
      "##iz": 388,
      "does": 389,
      "fou": 390,
      "##so": 391,
      "##uct": 392,
      "very": 393,
      "point": 394,
      "cr": 395,
      "dif": 396,
      "iss": 397,
      "now": 398,
      "than": 399,
      "##ans": 400,
      "##ary": 401,
      "well": 402,
      "##cess": 403,
      "look": 404,
      "te": 405,
      "##very": 406,
      "more": 407,
      "jud": 408,
      "##ber": 409,
      "right": 410,
      "need": 411,
      "##idence": 412,
      "us": 413,
      "cons": 414,
      "want": 415,
      "inter": 416,
      "ind": 417,
      "his": 418,
      "##erm": 419,
      "##ments": 420,
      "##ap": 421,
      "##for": 422,
      "##und": 423,
      "over": 424,
      "pre": 425,
      "co": 426,
      "evidence": 427,
      "##ond": 428,
      "work": 429,
      "really": 430,
      "bas": 431,
      "also": 432,
      "law": 433,
      "##ong": 434,
      "##el": 435,
      "way": 436,
      "year": 437,
      "stat": 438,
      "differ": 439,
      "##ific": 440,
      "gr": 441,
      "man": 442,
      "##ason": 443,
      "whether": 444,
      "##ast": 445,
      "make": 446,
      "##lic": 447,
      "rep": 448,
      "ve": 449,
      "disc": 450,
      "may": 451,
      "##vern": 452,
      "bel": 453,
      "govern": 454,
      "##ag": 455,
      "back": 456,
      "contr": 457,
      "##itt": 458,
      "question": 459,
      "every": 460,
      "even": 461,
      "distr": 462,
      "##ix": 463,
      "reason": 464,
      "##ied": 465,
      "somet": 466,
      "##ual": 467,
      "again": 468,
      "prov": 469,
      "exp": 470,
      "##ical": 471,
      "fir": 472,
      "into": 473,
      "##aim": 474,
      "##red": 475,
      "requ": 476,
      "##lo": 477,
      "##enc": 478,
      "sub": 479,
      "##ens": 480,
      "see": 481,
      "should": 482,
      "##fore": 483,
      "##ute": 484,
      "argu": 485,
      "three": 486,
      "claim": 487,
      "add": 488,
      "##ility": 489,
      "inv": 490,
      "mo": 491,
      "##sel": 492,
      "government": 493,
      "##tain": 494,
      "only": 495,
      "##form": 496,
      "sec": 497,
      "##pt": 498,
      "##ust": 499,
      "tal": 500,
      "##ousand": 501,
      "thousand": 502,
      "five": 503,
      "prob": 504,
      "##ach": 505,
      "record": 506,
      "resp": 507,
      "didn": 508,
      "##ade": 509,
      "reg": 510,
      "test": 511,
      "##ually": 512,
      "ser": 513,
      "district": 514,
      "pres": 515,
      "##are": 516,
      "dr": 517,
      "different": 518,
      "pol": 519,
      "first": 520,
      "things": 521,
      "##ace": 522,
      "pos": 523,
      "##ject": 524,
      "spec": 525,
      "##reat": 526,
      "something": 527,
      "##pport": 528,
      "##ory": 529,
      "issue": 530,
      "##ven": 531,
      "##iss": 532,
      "##ents": 533,
      "##ail": 534,
      "why": 535,
      "##eral": 536,
      "##ign": 537,
      "six": 538,
      "pers": 539,
      "##wn": 540,
      "##own": 541,
      "happ": 542,
      "##ro": 543,
      "rel": 544,
      "##enty": 545,
      "ob": 546,
      "##ision": 547,
      "##ors": 548,
      "before": 549,
      "##ass": 550,
      "##ting": 551,
      "af": 552,
      "judge": 553,
      "cle": 554,
      "new": 555,
      "##ild": 556,
      "thr": 557,
      "fe": 558,
      "##ound": 559,
      "##icul": 560,
      "##unity": 561,
      "conc": 562,
      "##vel": 563,
      "fo": 564,
      "##ep": 565,
      "##een": 566,
      "mat": 567,
      "belie": 568,
      "her": 569,
      "str": 570,
      "##ody": 571,
      "bo": 572,
      "thir": 573,
      "##ub": 574,
      "dep": 575,
      "bet": 576,
      "made": 577,
      "him": 578,
      "person": 579,
      "det": 580,
      "take": 581,
      "##ction": 582,
      "##ense": 583,
      "stand": 584,
      "actually": 585,
      "##ars": 586,
      "##ious": 587,
      "doesn": 588,
      "find": 589,
      "after": 590,
      "clear": 591,
      "put": 592,
      "being": 593,
      "##ving": 594,
      "through": 595,
      "underst": 596,
      "##uc": 597,
      "says": 598,
      "gu": 599,
      "##ome": 600,
      "##ient": 601,
      "cer": 602,
      "ord": 603,
      "doll": 604,
      "##ved": 605,
      "come": 606,
      "term": 607,
      "lot": 608,
      "##oun": 609,
      "acc": 610,
      "rem": 611,
      "##anc": 612,
      "cont": 613,
      "cor": 614,
      "hund": 615,
      "hundred": 616,
      "##ited": 617,
      "##thing": 618,
      "##lud": 619,
      "##str": 620,
      "##ress": 621,
      "sch": 622,
      "##our": 623,
      "same": 624,
      "jur": 625,
      "inform": 626,
      "##lem": 627,
      "##ks": 628,
      "##ise": 629,
      "##cu": 630,
      "num": 631,
      "agree": 632,
      "##ution": 633,
      "##ite": 634,
      "##og": 635,
      "ass": 636,
      "##way": 637,
      "emp": 638,
      "twenty": 639,
      "offic": 640,
      "##ities": 641,
      "import": 642,
      "show": 643,
      "chan": 644,
      "argument": 645,
      "try": 646,
      "##ative": 647,
      "mean": 648,
      "got": 649,
      "##ful": 650,
      "##ish": 651,
      "believe": 652,
      "let": 653,
      "##iew": 654,
      "##ning": 655,
      "jo": 656,
      "leg": 657,
      "understand": 658,
      "defend": 659,
      "##ublic": 660,
      "ro": 661,
      "happen": 662,
      "##ider": 663,
      "##loy": 664,
      "ele": 665,
      "four": 666,
      "##ible": 667,
      "mu": 668,
      "years": 669,
      "##body": 670,
      "sim": 671,
      "good": 672,
      "##ase": 673,
      "pay": 674,
      "much": 675,
      "##igh": 676,
      "##other": 677,
      "specific": 678,
      "cond": 679,
      "cases": 680,
      "day": 681,
      "op": 682,
      "important": 683,
      "##ult": 684,
      "down": 685,
      "##ple": 686,
      "certain": 687,
      "##its": 688,
      "##xt": 689,
      "saying": 690,
      "pur": 691,
      "par": 692,
      "mar": 693,
      "kind": 694,
      "information": 695,
      "##ily": 696,
      "eff": 697,
      "proper": 698,
      "##ked": 699,
      "dollars": 700,
      "gen": 701,
      "decision": 702,
      "employ": 703,
      "thing": 704,
      "call": 705,
      "##ile": 706,
      "cir": 707,
      "##ief": 708,
      "##ward": 709,
      "problem": 710,
      "fif": 711,
      "many": 712,
      "progr": 713,
      "eight": 714,
      "defendant": 715,
      "##ount": 716,
      "att": 717,
      "##oth": 718,
      "##ating": 719,
      "sc": 720,
      "serv": 721,
      "id": 722,
      "public": 723,
      "trans": 724,
      "bu": 725,
      "consider": 726,
      "##ought": 727,
      "##ons": 728,
      "##aint": 729,
      "process": 730,
      "bus": 731,
      "trial": 732,
      "second": 733,
      "never": 734,
      "##cent": 735,
      "##air": 736,
      "fin": 737,
      "contract": 738,
      "fed": 739,
      "##ea": 740,
      "order": 741,
      "number": 742,
      "giv": 743,
      "doing": 744,
      "support": 745,
      "##ia": 746,
      "##ret": 747,
      "##ys": 748,
      "##cept": 749,
      "##day": 750,
      "own": 751,
      "wr": 752,
      "particul": 753,
      "plan": 754,
      "ins": 755,
      "##ention": 756,
      "mem": 757,
      "##led": 758,
      "particular": 759,
      "exam": 760,
      "ph": 761,
      "des": 762,
      "federal": 763,
      "use": 764,
      "##orn": 765,
      "##eric": 766,
      "##ues": 767,
      "##ident": 768,
      "sy": 769,
      "percent": 770,
      "found": 771,
      "bill": 772,
      "##ool": 773,
      "dire": 774,
      "interest": 775,
      "set": 776,
      "mon": 777,
      "##ene": 778,
      "##oney": 779,
      "min": 780,
      "##ony": 781,
      "##ater": 782,
      "program": 783,
      "hon": 784,
      "based": 785,
      "##av": 786,
      "hel": 787,
      "hear": 788,
      "##mm": 789,
      "determ": 790,
      "school": 791,
      "help": 792,
      "money": 793,
      "med": 794,
      "might": 795,
      "allow": 796,
      "polic": 797,
      "##iate": 798,
      "includ": 799,
      "##osed": 800,
      "col": 801,
      "##oc": 802,
      "sit": 803,
      "sent": 804,
      "matter": 805,
      "americ": 806,
      "##ween": 807,
      "still": 808,
      "read": 809,
      "between": 810,
      "ent": 811,
      "##oss": 812,
      "long": 813,
      "##arm": 814,
      "##rect": 815,
      "##ically": 816,
      "start": 817,
      "##iness": 818,
      "yes": 819,
      "ke": 820,
      "tax": 821,
      "exper": 822,
      "##ness": 823,
      "jury": 824,
      "fund": 825,
      "##iol": 826,
      "stud": 827,
      "give": 828,
      "##ior": 829,
      "both": 830,
      "##leg": 831,
      "another": 832,
      "##oking": 833,
      "done": 834,
      "mot": 835,
      "##struct": 836,
      "tell": 837,
      "adm": 838,
      "sign": 839,
      "most": 840,
      "##ially": 841,
      "##hip": 842,
      "##ern": 843,
      "meet": 844,
      "standard": 845,
      "statute": 846,
      "address": 847,
      "##ivid": 848,
      "business": 849,
      "char": 850,
      "##stem": 851,
      "##gress": 852,
      "##ittle": 853,
      "little": 854,
      "##vers": 855,
      "invest": 856,
      "##ified": 857,
      "##ency": 858,
      "##self": 859,
      "##ission": 860,
      "car": 861,
      "##stit": 862,
      "system": 863,
      "compl": 864,
      "thirty": 865,
      "direct": 866,
      "anything": 867,
      "aff": 868,
      "##view": 869,
      "testim": 870,
      "##ates": 871,
      "##ont": 872,
      "##ational": 873,
      "aut": 874,
      "present": 875,
      "community": 876,
      "testimony": 877,
      "looking": 878,
      "requir": 879,
      "child": 880,
      "correct": 881,
      "seven": 882,
      "viol": 883,
      "today": 884,
      "##yp": 885,
      "individ": 886,
      "##ices": 887,
      "conf": 888,
      "contin": 889,
      "care": 890,
      "##ote": 891,
      "##res": 892,
      "board": 893,
      "seem": 894,
      "congress": 895,
      "lim": 896,
      "place": 897,
      "##urn": 898,
      "##ination": 899,
      "last": 900,
      "thank": 901,
      "##bers": 902,
      "talking": 903,
      "##be": 904,
      "trying": 905,
      "##ank": 906,
      "##uss": 907,
      "city": 908,
      "##ided": 909,
      "without": 910,
      "##ug": 911,
      "##kes": 912,
      "individual": 913,
      "##ouse": 914,
      "bene": 915,
      "prot": 916,
      "report": 917,
      "high": 918,
      "prod": 919,
      "commit": 920,
      "benef": 921,
      "great": 922,
      "##ety": 923,
      "sm": 924,
      "poss": 925,
      "states": 926,
      "job": 927,
      "ll": 928,
      "situ": 929,
      "fam": 930,
      "##ify": 931,
      "mill": 932,
      "##try": 933,
      "regul": 934,
      "ten": 935,
      "position": 936,
      "honor": 937,
      "brief": 938,
      "el": 939,
      "depart": 940,
      "policy": 941,
      "##ability": 942,
      "able": 943,
      "##eal": 944,
      "wasn": 945,
      "##ry": 946,
      "cost": 947,
      "##uring": 948,
      "compan": 949,
      "##par": 950,
      "##ize": 951,
      "##ably": 952,
      "discuss": 953,
      "end": 954,
      "##imes": 955,
      "##rop": 956,
      "real": 957,
      "##rem": 958,
      "es": 959,
      "require": 960,
      "##ced": 961,
      "##ges": 962,
      "month": 963,
      "##velop": 964,
      "nothing": 965,
      "##ick": 966,
      "its": 967,
      "having": 968,
      "counsel": 969,
      "concern": 970,
      "against": 971,
      "within": 972,
      "opport": 973,
      "loc": 974,
      "##teen": 975,
      "issues": 976,
      "##iction": 977,
      "ext": 978,
      "##ized": 979,
      "sure": 980,
      "##alth": 981,
      "develop": 982,
      "respect": 983,
      "protect": 984,
      "terms": 985,
      "##gest": 986,
      "invol": 987,
      "pat": 988,
      "simp": 989,
      "colle": 990,
      "agreement": 991,
      "maybe": 992,
      "certainly": 993,
      "##ady": 994,
      "ho": 995,
      "cour": 996,
      "##urr": 997,
      "ra": 998,
      "##igation": 999,
      "facts": 1000,
      "##ances": 1001,
      "given": 1002,
      "deal": 1003,
      "sort": 1004,
      "review": 1005,
      "build": 1006,
      "purp": 1007,
      "##get": 1008,
      "hearing": 1009,
      "inst": 1010,
      "imm": 1011,
      "property": 1012,
      "town": 1013,
      "appro": 1014,
      "health": 1015,
      "addition": 1016,
      "typ": 1017,
      "country": 1018,
      "supp": 1019,
      "such": 1020,
      "##ket": 1021,
      "house": 1022,
      "##ffic": 1023,
      "##itted": 1024,
      "came": 1025,
      "exact": 1026,
      "lan": 1027,
      "est": 1028,
      "##ule": 1029,
      "simply": 1030,
      "alleg": 1031,
      "##mpt": 1032,
      "circ": 1033,
      "change": 1034,
      "##ages": 1035,
      "##cr": 1036,
      "form": 1037,
      "happened": 1038,
      "claims": 1039,
      "comple": 1040,
      "ret": 1041,
      "##imin": 1042,
      "situation": 1043,
      "##reme": 1044,
      "##ower": 1045,
      "##hor": 1046,
      "department": 1047,
      "##ceed": 1048,
      "making": 1049,
      "##ged": 1050,
      "##ee": 1051,
      "##resent": 1052,
      "appeal": 1053,
      "home": 1054,
      "hand": 1055,
      "##ife": 1056,
      "amend": 1057,
      "##imate": 1058,
      "##ave": 1059,
      "regard": 1060,
      "talk": 1061,
      "course": 1062,
      "oc": 1063,
      "class": 1064,
      "##ger": 1065,
      "##ently": 1066,
      "word": 1067,
      "##con": 1068,
      "dem": 1069,
      "##vious": 1070,
      "##tee": 1071,
      "project": 1072,
      "around": 1073,
      "fifty": 1074,
      "##sw": 1075,
      "reasonable": 1076,
      "cap": 1077,
      "went": 1078,
      "ple": 1079,
      "##li": 1080,
      "cred": 1081,
      "rece": 1082,
      "provide": 1083,
      "answ": 1084,
      "##llow": 1085,
      "ed": 1086,
      "level": 1087,
      "author": 1088,
      "docu": 1089,
      "val": 1090,
      "##lish": 1091,
      "effect": 1092,
      "##ibility": 1093,
      "officer": 1094,
      "thought": 1095,
      "langu": 1096,
      "nine": 1097,
      "next": 1098,
      "##ather": 1099,
      "action": 1100,
      "incre": 1101,
      "##ts": 1102,
      "conv": 1103,
      "example": 1104,
      "##les": 1105,
      "##ope": 1106,
      "opportunity": 1107,
      "necess": 1108,
      "language": 1109,
      "questions": 1110,
      "each": 1111,
      "expl": 1112,
      "disp": 1113,
      "##ever": 1114,
      "##less": 1115,
      "getting": 1116,
      "##istr": 1117,
      "sev": 1118,
      "##erg": 1119,
      "general": 1120,
      "circum": 1121,
      "must": 1122,
      "red": 1123,
      "oper": 1124,
      "judg": 1125,
      "million": 1126,
      "motion": 1127,
      "##ft": 1128,
      "##pect": 1129,
      "amount": 1130,
      "##ves": 1131,
      "open": 1132,
      "defense": 1133,
      "##isl": 1134,
      "rest": 1135,
      "conduct": 1136,
      "##ood": 1137,
      "service": 1138,
      "legisl": 1139,
      "prop": 1140,
      "circumst": 1141,
      "ask": 1142,
      "during": 1143,
      "anal": 1144,
      "united": 1145,
      "basis": 1146,
      "working": 1147,
      "adv": 1148,
      "##ready": 1149,
      "already": 1150,
      "police": 1151,
      "committee": 1152,
      "prior": 1153,
      "##ines": 1154,
      "perm": 1155,
      "keep": 1156,
      "av": 1157,
      "members": 1158,
      "used": 1159,
      "represent": 1160,
      "##orne": 1161,
      "fil": 1162,
      "bring": 1163,
      "enough": 1164,
      "side": 1165,
      "least": 1166,
      "result": 1167,
      "refer": 1168,
      "answer": 1169,
      "someone": 1170,
      "pass": 1171,
      "##itness": 1172,
      "inj": 1173,
      "rule": 1174,
      "sug": 1175,
      "##ined": 1176,
      "fac": 1177,
      "better": 1178,
      "##arr": 1179,
      "##sec": 1180,
      "complaint": 1181,
      "##ropr": 1182,
      "##stitution": 1183,
      "apply": 1184,
      "attorne": 1185,
      "occ": 1186,
      "fl": 1187,
      "pa": 1188,
      "##ised": 1189,
      "wee": 1190,
      "judgment": 1191,
      "forty": 1192,
      "##ature": 1193,
      "equ": 1194,
      "commission": 1195,
      "proceed": 1196,
      "wa": 1197,
      "abs": 1198,
      "follow": 1199,
      "##struction": 1200,
      "##gan": 1201,
      "##urd": 1202,
      "rele": 1203,
      "opin": 1204,
      "##allen": 1205,
      "##ither": 1206,
      "wanted": 1207,
      "seems": 1208,
      "applic": 1209,
      "clearly": 1210,
      "exactly": 1211,
      "suggest": 1212,
      "isn": 1213,
      "##ures": 1214,
      "##lement": 1215,
      "##ways": 1216,
      "cal": 1217,
      "##ience": 1218,
      "ref": 1219,
      "witness": 1220,
      "object": 1221,
      "spea": 1222,
      "##lus": 1223,
      "##olog": 1224,
      "fail": 1225,
      "sup": 1226,
      "subst": 1227,
      "challen": 1228,
      "big": 1229,
      "forward": 1230,
      "asked": 1231,
      "somebody": 1232,
      "pet": 1233,
      "##ives": 1234,
      "insur": 1235,
      "cre": 1236,
      "exist": 1237,
      "priv": 1238,
      "conte": 1239,
      "##ull": 1240,
      "whole": 1241,
      "##ived": 1242,
      "tog": 1243,
      "product": 1244,
      "##omm": 1245,
      "eng": 1246,
      "together": 1247,
      "##ell": 1248,
      "rul": 1249,
      "##cus": 1250,
      "##lt": 1251,
      "##gin": 1252,
      "required": 1253,
      "too": 1254,
      "##utes": 1255,
      "##til": 1256,
      "best": 1257,
      "company": 1258,
      "statement": 1259,
      "##ital": 1260,
      "supreme": 1261,
      "commun": 1262,
      "hist": 1263,
      "bank": 1264,
      "##iod": 1265,
      "market": 1266,
      "specifically": 1267,
      "cover": 1268,
      "non": 1269,
      "list": 1270,
      "period": 1271,
      "##ru": 1272,
      "##ian": 1273,
      "beh": 1274,
      "run": 1275,
      "##ew": 1276,
      "drug": 1277,
      "everything": 1278,
      "##ending": 1279,
      "while": 1280,
      "client": 1281,
      "indic": 1282,
      "educ": 1283,
      "em": 1284,
      "##alf": 1285,
      "life": 1286,
      "##itions": 1287,
      "needs": 1288,
      "ident": 1289,
      "coming": 1290,
      "##conom": 1291,
      "econom": 1292,
      "bl": 1293,
      "met": 1294,
      "saf": 1295,
      "lead": 1296,
      "respons": 1297,
      "admin": 1298,
      "secur": 1299,
      "else": 1300,
      "small": 1301,
      "##ken": 1302,
      "##ration": 1303,
      "##ator": 1304,
      "means": 1305,
      "##ogn": 1306,
      "less": 1307,
      "recogn": 1308,
      "always": 1309,
      "##iff": 1310,
      "art": 1311,
      "circu": 1312,
      "appropr": 1313,
      "##ren": 1314,
      "##iving": 1315,
      "entire": 1316,
      "hard": 1317,
      "sur": 1318,
      "move": 1319,
      "lar": 1320,
      "subm": 1321,
      "goes": 1322,
      "either": 1323,
      "focus": 1324,
      "told": 1325,
      "tech": 1326,
      "turn": 1327,
      "area": 1328,
      "prof": 1329,
      "##acy": 1330,
      "##ead": 1331,
      "##icip": 1332,
      "bud": 1333,
      "makes": 1334,
      "attorney": 1335,
      "meeting": 1336,
      "##isions": 1337,
      "##wh": 1338,
      "curr": 1339,
      "##not": 1340,
      "american": 1341,
      "ear": 1342,
      "sense": 1343,
      "step": 1344,
      "water": 1345,
      "services": 1346,
      "whate": 1347,
      "whatever": 1348,
      "opinion": 1349,
      "##ces": 1350,
      "account": 1351,
      "appl": 1352,
      "months": 1353,
      "budget": 1354,
      "took": 1355,
      "inf": 1356,
      "prosec": 1357,
      "medical": 1358,
      "family": 1359,
      "notice": 1360,
      "party": 1361,
      "county": 1362,
      "qual": 1363,
      "administr": 1364,
      "mis": 1365,
      "access": 1366,
      "techn": 1367,
      "deb": 1368,
      "signific": 1369,
      "opp": 1370,
      "children": 1371,
      "pract": 1372,
      "upon": 1373,
      "building": 1374,
      "request": 1375,
      "legal": 1376,
      "ris": 1377,
      "fourt": 1378,
      "##ork": 1379,
      "away": 1380,
      "complete": 1381,
      "itself": 1382,
      "cannot": 1383,
      "limit": 1384,
      "cent": 1385,
      "##arily": 1386,
      "hour": 1387,
      "sever": 1388,
      "comes": 1389,
      "treat": 1390,
      "line": 1391,
      "exc": 1392,
      "circuit": 1393,
      "far": 1394,
      "parties": 1395,
      "president": 1396,
      "estab": 1397,
      "feel": 1398,
      "fair": 1399,
      "students": 1400,
      "mod": 1401,
      "##oup": 1402,
      "wrong": 1403,
      "##aining": 1404,
      "fur": 1405,
      "cause": 1406,
      "amendment": 1407,
      "nin": 1408,
      "arr": 1409,
      "subject": 1410,
      "defin": 1411,
      "##ides": 1412,
      "section": 1413,
      "##ences": 1414,
      "circumstances": 1415,
      "separ": 1416,
      "asking": 1417,
      "taking": 1418,
      "activ": 1419,
      "fut": 1420,
      "##ession": 1421,
      "further": 1422,
      "office": 1423,
      "additional": 1424,
      "third": 1425,
      "bre": 1426,
      "offer": 1427,
      "##ted": 1428,
      "involved": 1429,
      "idea": 1430,
      "##viously": 1431,
      "injur": 1432,
      "##erc": 1433,
      "probably": 1434,
      "##aus": 1435,
      "dam": 1436,
      "##fficient": 1437,
      "insurance": 1438,
      "play": 1439,
      "view": 1440,
      "sen": 1441,
      "##ergy": 1442,
      "ess": 1443,
      "later": 1444,
      "finding": 1445,
      "##oub": 1446,
      "##nect": 1447,
      "##ci": 1448,
      "bit": 1449,
      "##bit": 1450,
      "security": 1451,
      "##als": 1452,
      "##itical": 1453,
      "until": 1454,
      "group": 1455,
      "##man": 1456,
      "agency": 1457,
      "called": 1458,
      "significant": 1459,
      "energy": 1460,
      "knew": 1461,
      "establish": 1462,
      "mr": 1463,
      "##ended": 1464,
      "national": 1465,
      "sentence": 1466,
      "taken": 1467,
      "context": 1468,
      "future": 1469,
      "lit": 1470,
      "once": 1471,
      "##ural": 1472,
      "except": 1473,
      "though": 1474,
      "maj": 1475,
      "sixty": 1476,
      "begin": 1477,
      "##ner": 1478,
      "appropriate": 1479,
      "major": 1480,
      "wouldn": 1481,
      "control": 1482,
      "tra": 1483,
      "analys": 1484,
      "crimin": 1485,
      "hold": 1486,
      "##ince": 1487,
      "##ees": 1488,
      "##ling": 1489,
      "substant": 1490,
      "constitution": 1491,
      "##ics": 1492,
      "sing": 1493,
      "##entially": 1494,
      "reasons": 1495,
      "special": 1496,
      "sal": 1497,
      "##tern": 1498,
      "purpose": 1499,
      "interp": 1500,
      "##line": 1501,
      "absol": 1502,
      "analysis": 1503,
      "avail": 1504,
      "ever": 1505,
      "stre": 1506,
      "pot": 1507,
      "true": 1508,
      "gener": 1509,
      "##icult": 1510,
      "##cil": 1511,
      "grant": 1512,
      "provided": 1513,
      "officers": 1514,
      "er": 1515,
      "##iver": 1516,
      "difference": 1517,
      "##ange": 1518,
      "##mont": 1519,
      "speak": 1520,
      "##ton": 1521,
      "den": 1522,
      "##iting": 1523,
      "mater": 1524,
      "occur": 1525,
      "bar": 1526,
      "##isd": 1527,
      "doct": 1528,
      "absolute": 1529,
      "pret": 1530,
      "few": 1531,
      "continue": 1532,
      "wal": 1533,
      "including": 1534,
      "neg": 1535,
      "##ak": 1536,
      "bro": 1537,
      "##orm": 1538,
      "##son": 1539,
      "plaint": 1540,
      "##ential": 1541,
      "organ": 1542,
      "plaintiff": 1543,
      "times": 1544,
      "design": 1545,
      "##lect": 1546,
      "connect": 1547,
      "land": 1548,
      "petition": 1549,
      "##ization": 1550,
      "mor": 1551,
      "criminal": 1552,
      "cho": 1553,
      "harm": 1554,
      "##osing": 1555,
      "##atory": 1556,
      "resol": 1557,
      "however": 1558,
      "hope": 1559,
      "##ued": 1560,
      "##aph": 1561,
      "type": 1562,
      "material": 1563,
      "actual": 1564,
      "##ateg": 1565,
      "mention": 1566,
      "##side": 1567,
      "perform": 1568,
      "elect": 1569,
      "main": 1570,
      "##uted": 1571,
      "local": 1572,
      "##rupt": 1573,
      "diff": 1574,
      "ir": 1575,
      "council": 1576,
      "respond": 1577,
      "post": 1578,
      "##ivers": 1579,
      "days": 1580,
      "##inc": 1581,
      "past": 1582,
      "financ": 1583,
      "authority": 1584,
      "jurisd": 1585,
      "letter": 1586,
      "##pr": 1587,
      "using": 1588,
      "##retion": 1589,
      "basically": 1590,
      "power": 1591,
      "cust": 1592,
      "##iding": 1593,
      "expert": 1594,
      "history": 1595,
      "decided": 1596,
      "discretion": 1597,
      "proced": 1598,
      "enter": 1599,
      "week": 1600,
      "##ost": 1601,
      "words": 1602,
      "##oses": 1603,
      "##ification": 1604,
      "page": 1605,
      "relations": 1606,
      "benefit": 1607,
      "since": 1608,
      "pretty": 1609,
      "separate": 1610,
      "courts": 1611,
      "enfor": 1612,
      "common": 1613,
      "disco": 1614,
      "compet": 1615,
      "fun": 1616,
      "dat": 1617,
      "##vant": 1618,
      "looked": 1619,
      "presented": 1620,
      "guess": 1621,
      "world": 1622,
      "accept": 1623,
      "education": 1624,
      "init": 1625,
      "available": 1626,
      "impact": 1627,
      "##ath": 1628,
      "expect": 1629,
      "single": 1630,
      "suc": 1631,
      "ability": 1632,
      "##aps": 1633,
      "allowed": 1634,
      "paid": 1635,
      "##ging": 1636,
      "fifteen": 1637,
      "interpret": 1638,
      "burd": 1639,
      "sufficient": 1640,
      "phys": 1641,
      "##ively": 1642,
      "##orth": 1643,
      "effort": 1644,
      "sta": 1645,
      "rights": 1646,
      "sol": 1647,
      "kid": 1648,
      "##amp": 1649,
      "arbit": 1650,
      "descr": 1651,
      "wom": 1652,
      "therefore": 1653,
      "obl": 1654,
      "everybody": 1655,
      "brought": 1656,
      "half": 1657,
      "jurisdiction": 1658,
      "private": 1659,
      "reach": 1660,
      "crime": 1661,
      "hous": 1662,
      "dut": 1663,
      "cit": 1664,
      "needed": 1665,
      "full": 1666,
      "##fully": 1667,
      "seventy": 1668,
      "left": 1669,
      "yet": 1670,
      "##mber": 1671,
      "var": 1672,
      "vot": 1673,
      "##ased": 1674,
      "##io": 1675,
      "fire": 1676,
      "risk": 1677,
      "prev": 1678,
      "##uce": 1679,
      "ago": 1680,
      "outside": 1681,
      "credit": 1682,
      "particip": 1683,
      "##graph": 1684,
      "absolutely": 1685,
      "free": 1686,
      "statements": 1687,
      "broad": 1688,
      "decide": 1689,
      "benefits": 1690,
      "caus": 1691,
      "explain": 1692,
      "rather": 1693,
      "close": 1694,
      "front": 1695,
      "violation": 1696,
      "vers": 1697,
      "stop": 1698,
      "sett": 1699,
      "twel": 1700,
      "super": 1701,
      "dist": 1702,
      "possible": 1703,
      "street": 1704,
      "##enth": 1705,
      "quite": 1706,
      "employees": 1707,
      "impro": 1708,
      "eas": 1709,
      "##ison": 1710,
      "considered": 1711,
      "##selves": 1712,
      "##istent": 1713,
      "##ledge": 1714,
      "##aud": 1715,
      "communic": 1716,
      "assum": 1717,
      "##ten": 1718,
      "##arch": 1719,
      "famil": 1720,
      "discussion": 1721,
      "documents": 1722,
      "sl": 1723,
      "raised": 1724,
      "filed": 1725,
      "relationship": 1726,
      "couldn": 1727,
      "development": 1728,
      "##bor": 1729,
      "prom": 1730,
      "determination": 1731,
      "##icle": 1732,
      "several": 1733,
      "burden": 1734,
      "belmont": 1735,
      "intern": 1736,
      "##onse": 1737,
      "determine": 1738,
      "##encing": 1739,
      "intent": 1740,
      "##ilar": 1741,
      "necessary": 1742,
      "couple": 1743,
      "held": 1744,
      "##ants": 1745,
      "response": 1746,
      "##lying": 1747,
      "##lusion": 1748,
      "obviously": 1749,
      "strong": 1750,
      "mind": 1751,
      "opt": 1752,
      "##ends": 1753,
      "##ership": 1754,
      "increase": 1755,
      "application": 1756,
      "mil": 1757,
      "light": 1758,
      "twelve": 1759,
      "name": 1760,
      "aw": 1761,
      "document": 1762,
      "orig": 1763,
      "lear": 1764,
      "ninety": 1765,
      "##use": 1766,
      "neigh": 1767,
      "origin": 1768,
      "war": 1769,
      "##ources": 1770,
      "financial": 1771,
      "miss": 1772,
      "##ilities": 1773,
      "data": 1774,
      "final": 1775,
      "similar": 1776,
      "ok": 1777,
      "##omes": 1778,
      "##ring": 1779,
      "unf": 1780,
      "recomm": 1781,
      "enforce": 1782,
      "along": 1783,
      "guide": 1784,
      "##imately": 1785,
      "problems": 1786,
      "old": 1787,
      "##jud": 1788,
      "tot": 1789,
      "bey": 1790,
      "value": 1791,
      "##ield": 1792,
      "beyond": 1793,
      "individuals": 1794,
      "difficult": 1795,
      "gets": 1796,
      "##endent": 1797,
      "mult": 1798,
      "##reed": 1799,
      "##iple": 1800,
      "##irm": 1801,
      "##ference": 1802,
      "##itive": 1803,
      "sus": 1804,
      "large": 1805,
      "ult": 1806,
      "vict": 1807,
      "##atch": 1808,
      "resear": 1809,
      "##ipt": 1810,
      "short": 1811,
      "##osition": 1812,
      "chec": 1813,
      "success": 1814,
      "assist": 1815,
      "member": 1816,
      "understanding": 1817,
      "gave": 1818,
      "instead": 1819,
      "del": 1820,
      "##ology": 1821,
      "factors": 1822,
      "remem": 1823,
      "##ental": 1824,
      "search": 1825,
      "trust": 1826,
      "pen": 1827,
      "##most": 1828,
      "testified": 1829,
      "entit": 1830,
      "##miss": 1831,
      "indust": 1832,
      "farm": 1833,
      "##ulation": 1834,
      "grow": 1835,
      "remo": 1836,
      "cut": 1837,
      "lab": 1838,
      "##por": 1839,
      "chair": 1840,
      "affect": 1841,
      "ways": 1842,
      "appear": 1843,
      "fig": 1844,
      "gun": 1845,
      "safety": 1846,
      "almost": 1847,
      "minutes": 1848,
      "##haps": 1849,
      "perhaps": 1850,
      "serious": 1851,
      "programs": 1852,
      "enc": 1853,
      "construction": 1854,
      "youn": 1855,
      "##old": 1856,
      "experience": 1857,
      "remember": 1858,
      "staff": 1859,
      "acr": 1860,
      "calif": 1861,
      "californ": 1862,
      "happens": 1863,
      "indep": 1864,
      "talked": 1865,
      "personal": 1866,
      "ground": 1867,
      "started": 1868,
      "seen": 1869,
      "research": 1870,
      "threat": 1871,
      "road": 1872,
      "california": 1873,
      "shows": 1874,
      "air": 1875,
      "arguments": 1876,
      "live": 1877,
      "mid": 1878,
      "vote": 1879,
      "env": 1880,
      "relevant": 1881,
      "across": 1882,
      "ill": 1883,
      "fraud": 1884,
      "america": 1885,
      "limited": 1886,
      "err": 1887,
      "oh": 1888,
      "##uck": 1889,
      "summ": 1890,
      "##ately": 1891,
      "manage": 1892,
      "##where": 1893,
      "##pir": 1894,
      "##ism": 1895,
      "stay": 1896,
      "defendants": 1897,
      "conditions": 1898,
      "kids": 1899,
      "decisions": 1900,
      "##itting": 1901,
      "plac": 1902,
      "top": 1903,
      "consum": 1904,
      "item": 1905,
      "housing": 1906,
      "related": 1907,
      "received": 1908,
      "citiz": 1909,
      "##port": 1910,
      "rules": 1911,
      "force": 1912,
      "definition": 1913,
      "inte": 1914,
      "heard": 1915,
      "records": 1916,
      "knowledge": 1917,
      "victim": 1918,
      "injury": 1919,
      "hum": 1920,
      "witnesses": 1921,
      "nature": 1922,
      "##sequ": 1923,
      "dismiss": 1924,
      "essentially": 1925,
      "quote": 1926,
      "##ising": 1927,
      "requires": 1928,
      "cross": 1929,
      "medic": 1930,
      "princ": 1931,
      "##onment": 1932,
      "prejud": 1933,
      "provision": 1934,
      "current": 1935,
      "face": 1936,
      "##hood": 1937,
      "discl": 1938,
      "##ric": 1939,
      "express": 1940,
      "envir": 1941,
      "room": 1942,
      "##avor": 1943,
      "##br": 1944,
      "##osp": 1945,
      "necessarily": 1946,
      "hours": 1947,
      "##cy": 1948,
      "sat": 1949,
      "factual": 1950,
      "discovery": 1951,
      "others": 1952,
      "##onder": 1953,
      "arg": 1954,
      "##oint": 1955,
      "dispute": 1956,
      "pie": 1957,
      "condition": 1958,
      "port": 1959,
      "mer": 1960,
      "sometimes": 1961,
      "completely": 1962,
      "doub": 1963,
      "secret": 1964,
      "bad": 1965,
      "challenge": 1966,
      "nation": 1967,
      "approach": 1968,
      "legislation": 1969,
      "everyone": 1970,
      "duty": 1971,
      "vol": 1972,
      "##itten": 1973,
      "costs": 1974,
      "sell": 1975,
      "civ": 1976,
      "convers": 1977,
      "atte": 1978,
      "##app": 1979,
      "constitutional": 1980,
      "prim": 1981,
      "immig": 1982,
      "lic": 1983,
      "argue": 1984,
      "collect": 1985,
      "damages": 1986,
      "fri": 1987,
      "environment": 1988,
      "purposes": 1989,
      "arrest": 1990,
      "laws": 1991,
      "substantial": 1992,
      "##ional": 1993,
      "standing": 1994,
      "##erv": 1995,
      "adop": 1996,
      "leave": 1997,
      "alleged": 1998,
      "##land": 1999,
      "eighty": 2000,
      "employer": 2001,
      "sw": 2002,
      "sentencing": 2003,
      "##mption": 2004,
      "mom": 2005,
      "##ier": 2006,
      "custom": 2007,
      "##uced": 2008,
      "##ici": 2009,
      "requirement": 2010,
      "liability": 2011,
      "fall": 2012,
      "##lines": 2013,
      "economic": 2014,
      "head": 2015,
      "create": 2016,
      "bankrupt": 2017,
      "fel": 2018,
      "income": 2019,
      "##ying": 2020,
      "##action": 2021,
      "meaning": 2022,
      "supposed": 2023,
      "##ensive": 2024,
      "dollar": 2025,
      "entitled": 2026,
      "occurred": 2027,
      "written": 2028,
      "concerned": 2029,
      "applied": 2030,
      "prec": 2031,
      "treatment": 2032,
      "morning": 2033,
      "event": 2034,
      "struct": 2035,
      "companies": 2036,
      "funding": 2037,
      "mentioned": 2038,
      "esp": 2039,
      "describ": 2040,
      "sex": 2041,
      "##eed": 2042,
      "soc": 2043,
      "disag": 2044,
      "##reen": 2045,
      "gone": 2046,
      "##ients": 2047,
      "changes": 2048,
      "bal": 2049,
      "##ne": 2050,
      "decl": 2051,
      "##ash": 2052,
      "areas": 2053,
      "favor": 2054,
      "##wise": 2055,
      "eleven": 2056,
      "dev": 2057,
      "##ister": 2058,
      "instruct": 2059,
      "altern": 2060,
      "##ecially": 2061,
      "planning": 2062,
      "especially": 2063,
      "tre": 2064,
      "saw": 2065,
      "charge": 2066,
      "asso": 2067,
      "return": 2068,
      "conviction": 2069,
      "vis": 2070,
      "exec": 2071,
      "official": 2072,
      "longer": 2073,
      "creat": 2074,
      "forth": 2075,
      "bankruptcy": 2076,
      "intr": 2077,
      "civil": 2078,
      "##wards": 2079,
      "restr": 2080,
      "families": 2081,
      "##hold": 2082,
      "ordin": 2083,
      "##ake": 2084,
      "##atic": 2085,
      "##omp": 2086,
      "improve": 2087,
      "resources": 2088,
      "purch": 2089,
      "prosecut": 2090,
      "##err": 2091,
      "reading": 2092,
      "young": 2093,
      "due": 2094,
      "extr": 2095,
      "include": 2096,
      "become": 2097,
      "regarding": 2098,
      "debt": 2099,
      "accord": 2100,
      "arm": 2101,
      "investig": 2102,
      "##ned": 2103,
      "##of": 2104,
      "remed": 2105,
      "themselves": 2106,
      "throughout": 2107,
      "particularly": 2108,
      "##ties": 2109,
      "below": 2110,
      "##gn": 2111,
      "sk": 2112,
      "neighbor": 2113,
      "points": 2114,
      "worked": 2115,
      "##ediate": 2116,
      "activity": 2117,
      "##erve": 2118,
      "##ension": 2119,
      "investigation": 2120,
      "##lier": 2121,
      "##eter": 2122,
      "##aged": 2123,
      "changed": 2124,
      "please": 2125,
      "wonder": 2126,
      "##ale": 2127,
      "potential": 2128,
      "raise": 2129,
      "im": 2130,
      "critical": 2131,
      "traffic": 2132,
      "##ender": 2133,
      "##come": 2134,
      "##utory": 2135,
      "##iance": 2136,
      "conclud": 2137,
      "date": 2138,
      "file": 2139,
      "dan": 2140,
      "extent": 2141,
      "##acher": 2142,
      "instruction": 2143,
      "quick": 2144,
      "requirements": 2145,
      "##ators": 2146,
      "justice": 2147,
      "conspir": 2148,
      "##ibly": 2149,
      "convict": 2150,
      "assess": 2151,
      "##uff": 2152,
      "##hib": 2153,
      "works": 2154,
      "anyone": 2155,
      "##enses": 2156,
      "directly": 2157,
      "allegations": 2158,
      "figure": 2159,
      "space": 2160,
      "book": 2161,
      "mand": 2162,
      "vide": 2163,
      "detail": 2164,
      "hosp": 2165,
      "distin": 2166,
      "trad": 2167,
      "##val": 2168,
      "billion": 2169,
      "prove": 2170,
      "relief": 2171,
      "concerns": 2172,
      "##iation": 2173,
      "versus": 2174,
      "standards": 2175,
      "human": 2176,
      "industry": 2177,
      "flo": 2178,
      "social": 2179,
      "warr": 2180,
      "anybody": 2181,
      "associ": 2182,
      "york": 2183,
      "teacher": 2184,
      "independent": 2185,
      "dealing": 2186,
      "haven": 2187,
      "otherwise": 2188,
      "giving": 2189,
      "##no": 2190,
      "##encies": 2191,
      "cert": 2192,
      "ap": 2193,
      "jobs": 2194,
      "women": 2195,
      "##osure": 2196,
      "submit": 2197,
      "##lf": 2198,
      "employee": 2199,
      "statutory": 2200,
      "regulations": 2201,
      "likely": 2202,
      "recommend": 2203,
      "alth": 2204,
      "although": 2205,
      "blo": 2206,
      "afford": 2207,
      "aware": 2208,
      "ultimately": 2209,
      "##itary": 2210,
      "##idents": 2211,
      "##acter": 2212,
      "hospital": 2213,
      "##ock": 2214,
      "moving": 2215,
      "food": 2216,
      "demon": 2217,
      "##icial": 2218,
      "immigration": 2219,
      "veh": 2220,
      "unless": 2221,
      "demonstr": 2222,
      "discr": 2223,
      "key": 2224,
      "contrib": 2225,
      "##ph": 2226,
      "obligation": 2227,
      "included": 2228,
      "thinking": 2229,
      "##ark": 2230,
      "##imum": 2231,
      "administration": 2232,
      "management": 2233,
      "theory": 2234,
      "funds": 2235,
      "##igence": 2236,
      "consistent": 2237,
      "workers": 2238,
      "##work": 2239,
      "ann": 2240,
      "testify": 2241,
      "function": 2242,
      "ful": 2243,
      "price": 2244,
      "appre": 2245,
      "##ining": 2246,
      "earlier": 2247,
      "##ode": 2248,
      "##ocr": 2249,
      "rate": 2250,
      "coll": 2251,
      "putting": 2252,
      "win": 2253,
      "comput": 2254,
      "parents": 2255,
      "immediate": 2256,
      "fal": 2257,
      "disagree": 2258,
      "##ained": 2259,
      "foot": 2260,
      "fourteen": 2261,
      "settlement": 2262,
      "##ina": 2263,
      "adver": 2264,
      "attempt": 2265,
      "##gh": 2266,
      "instance": 2267,
      "##ament": 2268,
      "low": 2269,
      "##lict": 2270,
      "conclusion": 2271,
      "enforcement": 2272,
      "fol": 2273,
      "multiple": 2274,
      "midd": 2275,
      "cop": 2276,
      "college": 2277,
      "thirteen": 2278,
      "americans": 2279,
      "gas": 2280,
      "lack": 2281,
      "rob": 2282,
      "lower": 2283,
      "##pped": 2284,
      "element": 2285,
      "technology": 2286,
      "false": 2287,
      "meas": 2288,
      "##alu": 2289,
      "often": 2290,
      "contact": 2291,
      "practice": 2292,
      "night": 2293,
      "proposed": 2294,
      "actions": 2295,
      "center": 2296,
      "prevent": 2297,
      "guil": 2298,
      "original": 2299,
      "numbers": 2300,
      "team": 2301,
      "range": 2302,
      "sho": 2303,
      "##set": 2304,
      "agreed": 2305,
      "compar": 2306,
      "takes": 2307,
      "democr": 2308,
      "##used": 2309,
      "reven": 2310,
      "##ured": 2311,
      "terr": 2312,
      "stuff": 2313,
      "known": 2314,
      "contro": 2315,
      "fourth": 2316,
      "##ang": 2317,
      "behind": 2318,
      "evalu": 2319,
      "purs": 2320,
      "arbitration": 2321,
      "character": 2322,
      "responsibility": 2323,
      "folks": 2324,
      "litigation": 2325,
      "majority": 2326,
      "safe": 2327,
      "interpretation": 2328,
      "sout": 2329,
      "##now": 2330,
      "##how": 2331,
      "lost": 2332,
      "draw": 2333,
      "beginning": 2334,
      "total": 2335,
      "middle": 2336,
      "lawy": 2337,
      "transfer": 2338,
      "body": 2339,
      "norm": 2340,
      "comb": 2341,
      "loss": 2342,
      "mess": 2343,
      "##ral": 2344,
      "finally": 2345,
      "continu": 2346,
      "employment": 2347,
      "exerc": 2348,
      "conspiracy": 2349,
      "military": 2350,
      "##room": 2351,
      "payment": 2352,
      "##bs": 2353,
      "frank": 2354,
      "created": 2355,
      "##ories": 2356,
      "established": 2357,
      "pointed": 2358,
      "physical": 2359,
      "fees": 2360,
      "maintain": 2361,
      "press": 2362,
      "superv": 2363,
      "##az": 2364,
      "check": 2365,
      "##ott": 2366,
      "proceeding": 2367,
      "following": 2368,
      "##co": 2369,
      "tried": 2370,
      "univers": 2371,
      "properly": 2372,
      "according": 2373,
      "drugs": 2374,
      "regulation": 2375,
      "fa": 2376,
      "somehow": 2377,
      "di": 2378,
      "doctor": 2379,
      "encour": 2380,
      "##ino": 2381,
      "recognized": 2382,
      "applies": 2383,
      "##equ": 2384,
      "compens": 2385,
      "weeks": 2386,
      "camp": 2387,
      "manag": 2388,
      "findings": 2389,
      "limitations": 2390,
      "##ck": 2391,
      "##aid": 2392,
      "implement": 2393,
      "conflict": 2394,
      "proceedings": 2395,
      "exception": 2396,
      "plead": 2397,
      "failure": 2398,
      "##go": 2399,
      "stated": 2400,
      "wind": 2401,
      "intended": 2402,
      "student": 2403,
      "addressed": 2404,
      "prejudice": 2405,
      "piece": 2406,
      "volun": 2407,
      "declar": 2408,
      "##ins": 2409,
      "pan": 2410,
      "capital": 2411,
      "strateg": 2412,
      "taxes": 2413,
      "##aster": 2414,
      "prison": 2415,
      "looks": 2416,
      "incor": 2417,
      "error": 2418,
      "moment": 2419,
      "wants": 2420,
      "provides": 2421,
      "introd": 2422,
      "story": 2423,
      "##ired": 2424,
      "##reg": 2425,
      "determined": 2426,
      "prepar": 2427,
      "field": 2428,
      "##eng": 2429,
      "corpor": 2430,
      "##izing": 2431,
      "happening": 2432,
      "##utions": 2433,
      "committed": 2434,
      "##lace": 2435,
      "##ource": 2436,
      "attention": 2437,
      "mental": 2438,
      "none": 2439,
      "protection": 2440,
      "pop": 2441,
      "buy": 2442,
      "submitted": 2443,
      "categ": 2444,
      "projects": 2445,
      "##sy": 2446,
      "sevent": 2447,
      "watch": 2448,
      "##fact": 2449,
      "kinds": 2450,
      "sound": 2451,
      "ant": 2452,
      "chance": 2453,
      "distrib": 2454,
      "okay": 2455,
      "living": 2456,
      "##ault": 2457,
      "elements": 2458,
      "interesting": 2459,
      "princip": 2460,
      "repe": 2461,
      "##asing": 2462,
      "warrant": 2463,
      "neighborhood": 2464,
      "love": 2465,
      "coverage": 2466,
      "affirm": 2467,
      "reject": 2468,
      "walk": 2469,
      "reco": 2470,
      "##licit": 2471,
      "susp": 2472,
      "vir": 2473,
      "dom": 2474,
      "sixteen": 2475,
      "won": 2476,
      "consideration": 2477,
      "##ases": 2478,
      "activities": 2479,
      "##hn": 2480,
      "citizens": 2481,
      "argued": 2482,
      "extra": 2483,
      "plans": 2484,
      "providing": 2485,
      "assume": 2486,
      "guidelines": 2487,
      "##enced": 2488,
      "existing": 2489,
      "##ri": 2490,
      "responsible": 2491,
      "##atives": 2492,
      "park": 2493,
      "economy": 2494,
      "political": 2495,
      "unre": 2496,
      "offense": 2497,
      "policies": 2498,
      "video": 2499,
      "factor": 2500,
      "fundament": 2501,
      "showing": 2502,
      "communities": 2503,
      "transport": 2504,
      "businesses": 2505,
      "mist": 2506,
      "commerc": 2507,
      "##oid": 2508,
      "failed": 2509,
      "near": 2510,
      "receive": 2511,
      "phone": 2512,
      "john": 2513,
      "code": 2514,
      "north": 2515,
      "status": 2516,
      "penal": 2517,
      "pict": 2518,
      "share": 2519,
      "union": 2520,
      "chairman": 2521,
      "##ciate": 2522,
      "send": 2523,
      "connection": 2524,
      "net": 2525,
      "##ffer": 2526,
      "white": 2527,
      "death": 2528,
      "rev": 2529,
      "meth": 2530,
      "age": 2531,
      "contain": 2532,
      "##itor": 2533,
      "##ert": 2534,
      "study": 2535,
      "labor": 2536,
      "alternative": 2537,
      "danger": 2538,
      "hig": 2539,
      "reference": 2540,
      "satis": 2541,
      "kill": 2542,
      "consent": 2543,
      "##oper": 2544,
      "telling": 2545,
      "##eech": 2546,
      "comment": 2547,
      "tit": 2548,
      "##orr": 2549,
      "##ises": 2550,
      "unc": 2551,
      "prosecutor": 2552,
      "speech": 2553,
      "narr": 2554,
      "resolution": 2555,
      "spend": 2556,
      "opposed": 2557,
      "abuse": 2558,
      "count": 2559,
      "fully": 2560,
      "award": 2561,
      "crit": 2562,
      "efforts": 2563,
      "underlying": 2564,
      "##idential": 2565,
      "admitted": 2566,
      "various": 2567,
      "simple": 2568,
      "##ium": 2569,
      "##ufact": 2570,
      "comments": 2571,
      "passed": 2572,
      "permit": 2573,
      "facility": 2574,
      "proof": 2575,
      "role": 2576,
      "training": 2577,
      "choice": 2578,
      "fix": 2579,
      "preced": 2580,
      "##up": 2581,
      "pred": 2582,
      "mass": 2583,
      "weap": 2584,
      "profession": 2585,
      "gent": 2586,
      "manufact": 2587,
      "commercial": 2588,
      "deli": 2589,
      "shouldn": 2590,
      "washing": 2591,
      "among": 2592,
      "knowing": 2593,
      "dog": 2594,
      "remain": 2595,
      "higher": 2596,
      "ball": 2597,
      "note": 2598,
      "##ists": 2599,
      "men": 2600,
      "ton": 2601,
      "arguing": 2602,
      "listen": 2603,
      "identify": 2604,
      "nat": 2605,
      "cited": 2606,
      "oil": 2607,
      "rely": 2608,
      "provisions": 2609,
      "news": 2610,
      "license": 2611,
      "guilty": 2612,
      "door": 2613,
      "parking": 2614,
      "aud": 2615,
      "computer": 2616,
      "understood": 2617,
      "paying": 2618,
      "##ley": 2619,
      "deg": 2620,
      "aspect": 2621,
      "assistance": 2622,
      "happy": 2623,
      "pull": 2624,
      "willing": 2625,
      "administrative": 2626,
      "primary": 2627,
      "##uction": 2628,
      "petitioner": 2629,
      "secretary": 2630,
      "west": 2631,
      "ens": 2632,
      "##xic": 2633,
      "##cript": 2634,
      "recognize": 2635,
      "##ograph": 2636,
      "panel": 2637,
      "##eness": 2638,
      "break": 2639,
      "##eign": 2640,
      "fine": 2641,
      "grand": 2642,
      "senate": 2643,
      "consequ": 2644,
      "prem": 2645,
      "base": 2646,
      "##ished": 2647,
      "conversation": 2648,
      "##anding": 2649,
      "obtain": 2650,
      "early": 2651,
      "article": 2652,
      "currently": 2653,
      "calc": 2654,
      "##que": 2655,
      "##ortun": 2656,
      "types": 2657,
      "performance": 2658,
      "satisf": 2659,
      "##agraph": 2660,
      "investment": 2661,
      "clar": 2662,
      "##ength": 2663,
      "##pective": 2664,
      "card": 2665,
      "fight": 2666,
      "##ters": 2667,
      "termin": 2668,
      "election": 2669,
      "places": 2670,
      "il": 2671,
      "##eren": 2672,
      "himself": 2673,
      "qualified": 2674,
      "##ctions": 2675,
      "running": 2676,
      "unfortun": 2677,
      "tex": 2678,
      "weren": 2679,
      "trade": 2680,
      "bur": 2681,
      "##ron": 2682,
      "green": 2683,
      "clean": 2684,
      "initial": 2685,
      "probable": 2686,
      "##ane": 2687,
      "washington": 2688,
      "knows": 2689,
      "organization": 2690,
      "suffer": 2691,
      "paragraph": 2692,
      "reflect": 2693,
      "mother": 2694,
      "partn": 2695,
      "minor": 2696,
      "violence": 2697,
      "engine": 2698,
      "generally": 2699,
      "negot": 2700,
      "veter": 2701,
      "seventeen": 2702,
      "tar": 2703,
      "alone": 2704,
      "sched": 2705,
      "execut": 2706,
      "faith": 2707,
      "##ape": 2708,
      "charged": 2709,
      "##ats": 2710,
      "agencies": 2711,
      "objection": 2712,
      "murd": 2713,
      "aren": 2714,
      "obs": 2715,
      "regular": 2716,
      "vehicle": 2717,
      "ruling": 2718,
      "illeg": 2719,
      "drive": 2720,
      "legislature": 2721,
      "##ames": 2722,
      "eighteen": 2723,
      "pack": 2724,
      "republic": 2725,
      "mich": 2726,
      "temp": 2727,
      "interested": 2728,
      "prosecution": 2729,
      "doubt": 2730,
      "lives": 2731,
      "south": 2732,
      "##head": 2733,
      "immunity": 2734,
      "denied": 2735,
      "appreciate": 2736,
      "concept": 2737,
      "director": 2738,
      "reports": 2739,
      "##ground": 2740,
      "spent": 2741,
      "feet": 2742,
      "##bo": 2743,
      "intention": 2744,
      "merits": 2745,
      "##fect": 2746,
      "ste": 2747,
      "propos": 2748,
      "##ams": 2749,
      "cooper": 2750,
      "indicated": 2751,
      "gl": 2752,
      "##ipment": 2753,
      "##pping": 2754,
      "##imination": 2755,
      "black": 2756,
      "items": 2757,
      "distinction": 2758,
      "gentlem": 2759,
      "nobody": 2760,
      "offered": 2761,
      "select": 2762,
      "discussed": 2763,
      "title": 2764,
      "speaker": 2765,
      "quickly": 2766,
      "clause": 2767,
      "remedy": 2768,
      "ban": 2769,
      "behalf": 2770,
      "##ops": 2771,
      "agent": 2772,
      "adj": 2773,
      "minute": 2774,
      "extreme": 2775,
      "phot": 2776,
      "table": 2777,
      "wait": 2778,
      "##pay": 2779,
      "immediately": 2780,
      "constit": 2781,
      "quality": 2782,
      "schools": 2783,
      "##ering": 2784,
      "residents": 2785,
      "##chan": 2786,
      "adequ": 2787,
      "products": 2788,
      "texas": 2789,
      "gives": 2790,
      "structure": 2791,
      "worth": 2792,
      "tonight": 2793,
      "ur": 2794,
      "##dd": 2795,
      "##nel": 2796,
      "##agu": 2797,
      "covered": 2798,
      "vac": 2799,
      "##ove": 2800,
      "div": 2801,
      "har": 2802,
      "perfect": 2803,
      "emerg": 2804,
      "##umption": 2805,
      "plain": 2806,
      "capac": 2807,
      "##verage": 2808,
      "scope": 2809,
      "effective": 2810,
      "equipment": 2811,
      "balance": 2812,
      "credibility": 2813,
      "travel": 2814,
      "felt": 2815,
      "ge": 2816,
      "sor": 2817,
      "floor": 2818,
      "issued": 2819,
      "minimum": 2820,
      "explan": 2821,
      "arbitr": 2822,
      "##uge": 2823,
      "##ordin": 2824,
      "shar": 2825,
      "autom": 2826,
      "ign": 2827,
      "##ones": 2828,
      "serve": 2829,
      "opening": 2830,
      "##ero": 2831,
      "frankly": 2832,
      "bott": 2833,
      "troub": 2834,
      "spending": 2835,
      "breach": 2836,
      "##ugg": 2837,
      "rad": 2838,
      "driving": 2839,
      "ones": 2840,
      "protected": 2841,
      "restrict": 2842,
      "glo": 2843,
      "##isc": 2844,
      "approved": 2845,
      "grad": 2846,
      "murder": 2847,
      "revenue": 2848,
      "##bal": 2849,
      "##ush": 2850,
      "incons": 2851,
      "ready": 2852,
      "demand": 2853,
      "narrow": 2854,
      "##urs": 2855,
      "systems": 2856,
      "hands": 2857,
      "model": 2858,
      "mort": 2859,
      "##nes": 2860,
      "matters": 2861,
      "##itch": 2862,
      "san": 2863,
      "events": 2864,
      "results": 2865,
      "holding": 2866,
      "webs": 2867,
      "##ervation": 2868,
      "hyp": 2869,
      "sold": 2870,
      "histor": 2871,
      "basic": 2872,
      "discrimination": 2873,
      "sorry": 2874,
      "moved": 2875,
      "interview": 2876,
      "controll": 2877,
      "seeking": 2878,
      "##aft": 2879,
      "trib": 2880,
      "##unction": 2881,
      "friend": 2882,
      "skill": 2883,
      "ran": 2884,
      "pick": 2885,
      "##ouch": 2886,
      "cell": 2887,
      "behav": 2888,
      "capacity": 2889,
      "charges": 2890,
      "acqu": 2891,
      "target": 2892,
      "clients": 2893,
      "##know": 2894,
      "teach": 2895,
      "apart": 2896,
      "##ots": 2897,
      "consumer": 2898,
      "amb": 2899,
      "paper": 2900,
      "procedure": 2901,
      "parts": 2902,
      "##istic": 2903,
      "possibly": 2904,
      "##ique": 2905,
      "tele": 2906,
      "method": 2907,
      "infl": 2908,
      "teachers": 2909,
      "becomes": 2910,
      "##ota": 2911,
      "##aging": 2912,
      "portion": 2913,
      "instructions": 2914,
      "homes": 2915,
      "ach": 2916,
      "##ored": 2917,
      "attack": 2918,
      "continued": 2919,
      "##igu": 2920,
      "dece": 2921,
      "##tingu": 2922,
      "owner": 2923,
      "##oud": 2924,
      "closing": 2925,
      "recently": 2926,
      "seeing": 2927,
      "patent": 2928,
      "debate": 2929,
      "##uit": 2930,
      "stage": 2931,
      "##unch": 2932,
      "entirely": 2933,
      "carry": 2934,
      "asse": 2935,
      "lose": 2936,
      "science": 2937,
      "possibility": 2938,
      "easy": 2939,
      "exercise": 2940,
      "avoid": 2941,
      "illino": 2942,
      "illinois": 2943,
      "##eth": 2944,
      "appoint": 2945,
      "##ift": 2946,
      "self": 2947,
      "identified": 2948,
      "acknow": 2949,
      "talks": 2950,
      "correctly": 2951,
      "transportation": 2952,
      "myself": 2953,
      "payments": 2954,
      "##icient": 2955,
      "heart": 2956,
      "##uth": 2957,
      "relig": 2958,
      "sitting": 2959,
      "##ury": 2960,
      "inno": 2961,
      "taxpay": 2962,
      "reduce": 2963,
      "unfortunately": 2964,
      "appar": 2965,
      "engage": 2966,
      "prohib": 2967,
      "contracts": 2968,
      "degree": 2969,
      "##iber": 2970,
      "scient": 2971,
      "repeated": 2972,
      "imag": 2973,
      "relied": 2974,
      "operating": 2975,
      "achie": 2976,
      "##vered": 2977,
      "option": 2978,
      "mere": 2979,
      "##by": 2980,
      "elig": 2981,
      "customers": 2982,
      "progress": 2983,
      "hypoth": 2984,
      "goal": 2985,
      "exe": 2986,
      "release": 2987,
      "source": 2988,
      "##itable": 2989,
      "judicial": 2990,
      "treated": 2991,
      "pages": 2992,
      "natural": 2993,
      "##agues": 2994,
      "probation": 2995,
      "supported": 2996,
      "fill": 2997,
      "sales": 2998,
      "##af": 2999,
      "includes": 3000,
      "retire": 3001,
      "entered": 3002,
      "compensation": 3003,
      "##ump": 3004,
      "direction": 3005,
      "executive": 3006,
      "squ": 3007,
      "##oke": 3008,
      "plaintiffs": 3009,
      "lawyer": 3010,
      "compon": 3011,
      "contrary": 3012,
      "starting": 3013,
      "greater": 3014,
      "jail": 3015,
      "steps": 3016,
      "organiz": 3017,
      "jan": 3018,
      "challenges": 3019,
      "zero": 3020,
      "legislative": 3021,
      "oblig": 3022,
      "accur": 3023,
      "accomp": 3024,
      "interests": 3025,
      "calls": 3026,
      "delay": 3027,
      "sexual": 3028,
      "showed": 3029,
      "touch": 3030,
      "sto": 3031,
      "fundamental": 3032,
      "disability": 3033,
      "##unities": 3034,
      "hasn": 3035,
      "sep": 3036,
      "university": 3037,
      "turned": 3038,
      "convicted": 3039,
      "explanation": 3040,
      "encourage": 3041,
      "##char": 3042,
      "##ls": 3043,
      "inspect": 3044,
      "infring": 3045,
      "transaction": 3046,
      "allegation": 3047,
      "valid": 3048,
      "focused": 3049,
      "##ike": 3050,
      "towards": 3051,
      "distingu": 3052,
      "lots": 3053,
      "media": 3054,
      "developed": 3055,
      "granted": 3056,
      "average": 3057,
      "perspective": 3058,
      "##tember": 3059,
      "september": 3060,
      "mc": 3061,
      "##ming": 3062,
      "meant": 3063,
      "reform": 3064,
      "ide": 3065,
      "game": 3066,
      "dead": 3067,
      "judges": 3068,
      "colleagues": 3069,
      "fle": 3070,
      "overall": 3071,
      "firm": 3072,
      "box": 3073,
      "confus": 3074,
      "successful": 3075,
      "chief": 3076,
      "involve": 3077,
      "leadership": 3078,
      "ded": 3079,
      "sale": 3080,
      "woman": 3081,
      "mortg": 3082,
      "huge": 3083,
      "lay": 3084,
      "designed": 3085,
      "pain": 3086,
      "became": 3087,
      "reasonably": 3088,
      "possession": 3089,
      "opportunities": 3090,
      "analy": 3091,
      "##ah": 3092,
      "##roper": 3093,
      "purchase": 3094,
      "##ler": 3095,
      "improper": 3096,
      "location": 3097,
      "guy": 3098,
      "potentially": 3099,
      "noted": 3100,
      "father": 3101,
      "allows": 3102,
      "##ster": 3103,
      "truth": 3104,
      "website": 3105,
      "indeed": 3106,
      "facilities": 3107,
      "emergency": 3108,
      "##uary": 3109,
      "soci": 3110,
      "log": 3111,
      "incident": 3112,
      "march": 3113,
      "surve": 3114,
      "ninet": 3115,
      "unique": 3116,
      "path": 3117,
      "described": 3118,
      "rates": 3119,
      "recent": 3120,
      "experts": 3121,
      "barg": 3122,
      "thousands": 3123,
      "hypothet": 3124,
      "caused": 3125,
      "behavior": 3126,
      "forec": 3127,
      "picture": 3128,
      "subs": 3129,
      "illegal": 3130,
      "summary": 3131,
      "relative": 3132,
      "fee": 3133,
      "believed": 3134,
      "##isp": 3135,
      "mexic": 3136,
      "ahead": 3137,
      "bat": 3138,
      "mus": 3139,
      "assign": 3140,
      "examination": 3141,
      "cash": 3142,
      "libr": 3143,
      "##eme": 3144,
      "accident": 3145,
      "friends": 3146,
      "unreason": 3147,
      "##more": 3148,
      "##aries": 3149,
      "disab": 3150,
      "##order": 3151,
      "previous": 3152,
      "increased": 3153,
      "adjust": 3154,
      "fairly": 3155,
      "tradition": 3156,
      "seek": 3157,
      "regardless": 3158,
      "circumstance": 3159,
      "veterans": 3160,
      "communication": 3161,
      "usually": 3162,
      "central": 3163,
      "adopt": 3164,
      "##ana": 3165,
      "conced": 3166,
      "##ried": 3167,
      "foreign": 3168,
      "manager": 3169,
      "tas": 3170,
      "##oting": 3171,
      "joint": 3172,
      "compliance": 3173,
      "plea": 3174,
      "production": 3175,
      "##ishing": 3176,
      "experi": 3177,
      "bringing": 3178,
      "##cer": 3179,
      "##augh": 3180,
      "gentleman": 3181,
      "lines": 3182,
      "##yc": 3183,
      "statutes": 3184,
      "liter": 3185,
      "cand": 3186,
      "vari": 3187,
      "integr": 3188,
      "flor": 3189,
      "intell": 3190,
      "##ilt": 3191,
      "wel": 3192,
      "text": 3193,
      "register": 3194,
      "normal": 3195,
      "message": 3196,
      "january": 3197,
      "dest": 3198,
      "##ommod": 3199,
      "fit": 3200,
      "fifth": 3201,
      "##aut": 3202,
      "##dict": 3203,
      "accommod": 3204,
      "procedures": 3205,
      "##arant": 3206,
      "agend": 3207,
      "legit": 3208,
      "international": 3209,
      "wonderful": 3210,
      "professional": 3211,
      "shown": 3212,
      "mechan": 3213,
      "waiver": 3214,
      "soon": 3215,
      "mark": 3216,
      "filing": 3217,
      "cur": 3218,
      "background": 3219,
      "strugg": 3220,
      "appeals": 3221,
      "##erved": 3222,
      "##estic": 3223,
      "bottom": 3224,
      "served": 3225,
      "exclud": 3226,
      "ensure": 3227,
      "##tries": 3228,
      "anywhere": 3229,
      "comply": 3230,
      "produce": 3231,
      "loan": 3232,
      "verdict": 3233,
      "##ective": 3234,
      "mandatory": 3235,
      "pun": 3236,
      "rout": 3237,
      "##let": 3238,
      "officials": 3239,
      "precedent": 3240,
      "adopted": 3241,
      "tool": 3242,
      "##astr": 3243,
      "copy": 3244,
      "##orrow": 3245,
      "##jo": 3246,
      "approval": 3247,
      "ira": 3248,
      "ine": 3249,
      "##igan": 3250,
      "differently": 3251,
      "indict": 3252,
      "##eless": 3253,
      "options": 3254,
      "led": 3255,
      "deposition": 3256,
      "guarant": 3257,
      "objective": 3258,
      "hom": 3259,
      "track": 3260,
      "operations": 3261,
      "damage": 3262,
      "learning": 3263,
      "gar": 3264,
      "##bur": 3265,
      "##ulate": 3266,
      "towns": 3267,
      "precise": 3268,
      "##pa": 3269,
      "store": 3270,
      "frame": 3271,
      "subsequ": 3272,
      "patient": 3273,
      "association": 3274,
      "prepared": 3275,
      "december": 3276,
      "site": 3277,
      "perman": 3278,
      "##sych": 3279,
      "constr": 3280,
      "considering": 3281,
      "##going": 3282,
      "##anch": 3283,
      "expand": 3284,
      "deliber": 3285,
      "excess": 3286,
      "previously": 3287,
      "manner": 3288,
      "##sh": 3289,
      "##icles": 3290,
      "added": 3291,
      "agenda": 3292,
      "wish": 3293,
      "prices": 3294,
      "participate": 3295,
      "##aking": 3296,
      "operation": 3297,
      "measure": 3298,
      "inside": 3299,
      "advert": 3300,
      "content": 3301,
      "sust": 3302,
      "rejected": 3303,
      "##ra": 3304,
      "dav": 3305,
      "honors": 3306,
      "proposal": 3307,
      "emph": 3308,
      "writing": 3309,
      "domestic": 3310,
      "organizations": 3311,
      "defined": 3312,
      "supplement": 3313,
      "aside": 3314,
      "max": 3315,
      "ce": 3316,
      "##iated": 3317,
      "june": 3318,
      "assessment": 3319,
      "##issions": 3320,
      "growth": 3321,
      "gir": 3322,
      "##izes": 3323,
      "positive": 3324,
      "nice": 3325,
      "##oming": 3326,
      "explained": 3327,
      "link": 3328,
      "choose": 3329,
      "psych": 3330,
      "meetings": 3331,
      "ambigu": 3332,
      "suspic": 3333,
      "above": 3334,
      "##ously": 3335,
      "changing": 3336,
      "explicit": 3337,
      "briefing": 3338,
      "speaking": 3339,
      "affordable": 3340,
      "late": 3341,
      "realize": 3342,
      "mistake": 3343,
      "shall": 3344,
      "learn": 3345,
      "creating": 3346,
      "desp": 3347,
      "cult": 3348,
      "society": 3349,
      "situations": 3350,
      "injunction": 3351,
      "negl": 3352,
      "fear": 3353,
      "hot": 3354,
      "estate": 3355,
      "yourself": 3356,
      "robber": 3357,
      "anim": 3358,
      "declaration": 3359,
      "penalty": 3360,
      "unreasonable": 3361,
      "##vember": 3362,
      "##ulated": 3363,
      "november": 3364,
      "occas": 3365,
      "procedural": 3366,
      "tur": 3367,
      "plant": 3368,
      "dismissed": 3369,
      "concluded": 3370,
      "imagine": 3371,
      "iraq": 3372,
      "built": 3373,
      "levels": 3374,
      "michigan": 3375,
      "tro": 3376,
      "obvious": 3377,
      "ordinance": 3378,
      "dangerous": 3379,
      "forecl": 3380,
      "##ront": 3381,
      "affected": 3382,
      "##point": 3383,
      "##rep": 3384,
      "undisp": 3385,
      "emphas": 3386,
      "oct": 3387,
      "enjo": 3388,
      "square": 3389,
      "wall": 3390,
      "substance": 3391,
      "bond": 3392,
      "advoc": 3393,
      "global": 3394,
      "candid": 3395,
      "chap": 3396,
      "indian": 3397,
      "##atically": 3398,
      "discip": 3399,
      "undisputed": 3400,
      "wife": 3401,
      "##band": 3402,
      "acting": 3403,
      "sav": 3404,
      "engaged": 3405,
      "doctors": 3406,
      "inqu": 3407,
      "followed": 3408,
      "rise": 3409,
      "liber": 3410,
      "population": 3411,
      "hall": 3412,
      "##dr": 3413,
      "ordinary": 3414,
      "reserve": 3415,
      "brok": 3416,
      "##amed": 3417,
      "##ression": 3418,
      "consumers": 3419,
      "despite": 3420,
      "##cket": 3421,
      "##ida": 3422,
      "quar": 3423,
      "expenses": 3424,
      "totally": 3425,
      "partnership": 3426,
      "##law": 3427,
      "appell": 3428,
      "confirm": 3429,
      "flow": 3430,
      "groups": 3431,
      "continuing": 3432,
      "inconsistent": 3433,
      "##ober": 3434,
      "##idav": 3435,
      "countries": 3436,
      "affidav": 3437,
      "increasing": 3438,
      "voting": 3439,
      "consequences": 3440,
      "##actions": 3441,
      "ideas": 3442,
      "october": 3443,
      "##ucing": 3444,
      "rich": 3445,
      "plus": 3446,
      "helpful": 3447,
      "indicate": 3448,
      "supervis": 3449,
      "rational": 3450,
      "shot": 3451,
      "orders": 3452,
      "host": 3453,
      "##ery": 3454,
      "##ened": 3455,
      "indication": 3456,
      "materials": 3457,
      "environmental": 3458,
      "incorpor": 3459,
      "hypothetical": 3460,
      "##fort": 3461,
      "sole": 3462,
      "smith": 3463,
      "strategy": 3464,
      "vo": 3465,
      "##uly": 3466,
      "presum": 3467,
      "descript": 3468,
      "volunt": 3469,
      "analyz": 3470,
      "attr": 3471,
      "stra": 3472,
      "##soever": 3473,
      "scr": 3474,
      "adverse": 3475,
      "##iable": 3476,
      "whatsoever": 3477,
      "efficient": 3478,
      "instit": 3479,
      "##urch": 3480,
      "reported": 3481,
      "##reh": 3482,
      "##ular": 3483,
      "allowing": 3484,
      "advant": 3485,
      "parent": 3486,
      "##ples": 3487,
      "##ival": 3488,
      "counter": 3489,
      "construct": 3490,
      "importantly": 3491,
      "signed": 3492,
      "size": 3493,
      "uses": 3494,
      "florida": 3495,
      "rene": 3496,
      "chr": 3497,
      "somewhere": 3498,
      "transcript": 3499,
      "window": 3500,
      "driver": 3501,
      "reality": 3502,
      "profit": 3503,
      "bound": 3504,
      "##rew": 3505,
      "##umb": 3506,
      "unit": 3507,
      "recall": 3508,
      "phr": 3509,
      "tort": 3510,
      "station": 3511,
      "cam": 3512,
      "presentation": 3513,
      "##ester": 3514,
      "agreements": 3515,
      "gang": 3516,
      "hit": 3517,
      "mit": 3518,
      "equal": 3519,
      "adequate": 3520,
      "intelligence": 3521,
      "##anced": 3522,
      "infr": 3523,
      "senior": 3524,
      "electric": 3525,
      "setting": 3526,
      "motiv": 3527,
      "ongoing": 3528,
      "hundreds": 3529,
      "##erson": 3530,
      "mach": 3531,
      "reviewed": 3532,
      "suggesting": 3533,
      "legitimate": 3534,
      "welcome": 3535,
      "pic": 3536,
      "mortgage": 3537,
      "library": 3538,
      "##ores": 3539,
      "enh": 3540,
      "attach": 3541,
      "honest": 3542,
      "##ball": 3543,
      "helping": 3544,
      "straight": 3545,
      "residential": 3546,
      "dise": 3547,
      "mail": 3548,
      "##licated": 3549,
      "##ague": 3550,
      "commitment": 3551,
      "requested": 3552,
      "doctr": 3553,
      "category": 3554,
      "bed": 3555,
      "##place": 3556,
      "##rees": 3557,
      "dischar": 3558,
      "church": 3559,
      "elev": 3560,
      "placed": 3561,
      "personally": 3562,
      "regulatory": 3563,
      "exclus": 3564,
      "sect": 3565,
      "registr": 3566,
      "##cup": 3567,
      "##elling": 3568,
      "custody": 3569,
      "summer": 3570,
      "##olid": 3571,
      "climate": 3572,
      "citizen": 3573,
      "affirmative": 3574,
      "ben": 3575,
      "surpr": 3576,
      "retal": 3577,
      "missing": 3578,
      "nineteen": 3579,
      "religious": 3580,
      "oug": 3581,
      "tim": 3582,
      "##back": 3583,
      "began": 3584,
      "anyway": 3585,
      "consult": 3586,
      "representative": 3587,
      "practical": 3588,
      "accepted": 3589,
      "ought": 3590,
      "um": 3591,
      "##iar": 3592,
      "save": 3593,
      "acad": 3594,
      "sides": 3595,
      "elimin": 3596,
      "permitted": 3597,
      "properties": 3598,
      "removal": 3599,
      "corporation": 3600,
      "infringe": 3601,
      "pending": 3602,
      "wide": 3603,
      "reb": 3604,
      "##ucture": 3605,
      "##iciency": 3606,
      "directed": 3607,
      "produced": 3608,
      "##read": 3609,
      "##verse": 3610,
      "alloc": 3611,
      "complex": 3612,
      "advis": 3613,
      "communications": 3614,
      "repeatedly": 3615,
      "accomplish": 3616,
      "contractor": 3617,
      "determining": 3618,
      "privile": 3619,
      "learned": 3620,
      "weapon": 3621,
      "academ": 3622,
      "##itation": 3623,
      "testing": 3624,
      "employers": 3625,
      "foundation": 3626,
      "conclude": 3627,
      "recovery": 3628,
      "##airs": 3629,
      "assuming": 3630,
      "##istan": 3631,
      "kept": 3632,
      "applying": 3633,
      "disclosure": 3634,
      "util": 3635,
      "outcome": 3636,
      "guard": 3637,
      "addressing": 3638,
      "appears": 3639,
      "device": 3640,
      "##ips": 3641,
      "##aign": 3642,
      "renew": 3643,
      "infrastr": 3644,
      "##aul": 3645,
      "##uel": 3646,
      "mart": 3647,
      "buildings": 3648,
      "representation": 3649,
      "##isan": 3650,
      "trig": 3651,
      "entity": 3652,
      "suggested": 3653,
      "fre": 3654,
      "##eria": 3655,
      "notion": 3656,
      "monitor": 3657,
      "eligible": 3658,
      "acts": 3659,
      "scheme": 3660,
      "attorneys": 3661,
      "technical": 3662,
      "##house": 3663,
      "gradu": 3664,
      "sens": 3665,
      "july": 3666,
      "practices": 3667,
      "unfair": 3668,
      "suspect": 3669,
      "mal": 3670,
      "##iations": 3671,
      "##oning": 3672,
      "imposed": 3673,
      "apr": 3674,
      "tom": 3675,
      "chose": 3676,
      "unus": 3677,
      "pled": 3678,
      "belief": 3679,
      "au": 3680,
      "mag": 3681,
      "resolve": 3682,
      "solution": 3683,
      "reached": 3684,
      "virt": 3685,
      "##standing": 3686,
      "heav": 3687,
      "##aug": 3688,
      "growing": 3689,
      "nearly": 3690,
      "infrastructure": 3691,
      "##lection": 3692,
      "speed": 3693,
      "tells": 3694,
      "waiting": 3695,
      "influ": 3696,
      "indictment": 3697,
      "##town": 3698,
      "exhib": 3699,
      "##ades": 3700,
      "adult": 3701,
      "throw": 3702,
      "extremely": 3703,
      "subsid": 3704,
      "pension": 3705,
      "hey": 3706,
      "occup": 3707,
      "receiving": 3708,
      "recommendation": 3709,
      "##oring": 3710,
      "truly": 3711,
      "pattern": 3712,
      "sil": 3713,
      "clock": 3714,
      "remand": 3715,
      "victims": 3716,
      "savings": 3717,
      "active": 3718,
      "internet": 3719,
      "permanent": 3720,
      "relying": 3721,
      "agr": 3722,
      "volunte": 3723,
      "mission": 3724,
      "supports": 3725,
      "johnson": 3726,
      "##to": 3727,
      "somewh": 3728,
      "crimes": 3729,
      "mexico": 3730,
      "doctrine": 3731,
      "somewhat": 3732,
      "##erce": 3733,
      "conference": 3734,
      "deep": 3735,
      "##gust": 3736,
      "former": 3737,
      "##stitutional": 3738,
      "associated": 3739,
      "##ateral": 3740,
      "infer": 3741,
      "briefs": 3742,
      "essential": 3743,
      "##ets": 3744,
      "##ifications": 3745,
      "assets": 3746,
      "china": 3747,
      "compreh": 3748,
      "bills": 3749,
      "amended": 3750,
      "package": 3751,
      "guid": 3752,
      "examples": 3753,
      "millions": 3754,
      "referred": 3755,
      "trouble": 3756,
      "incred": 3757,
      "scen": 3758,
      "removed": 3759,
      "achieve": 3760,
      "april": 3761,
      "hop": 3762,
      "uncon": 3763,
      "opinions": 3764,
      "guideline": 3765,
      "arrested": 3766,
      "invent": 3767,
      "referring": 3768,
      "incorrect": 3769,
      "##hern": 3770,
      "goals": 3771,
      "severe": 3772,
      "criteria": 3773,
      "##istics": 3774,
      "effectively": 3775,
      "campaign": 3776,
      "##aughter": 3777,
      "agricult": 3778,
      "prep": 3779,
      "involving": 3780,
      "accounts": 3781,
      "august": 3782,
      "aggr": 3783,
      "tempor": 3784,
      "robbery": 3785,
      "demonstrate": 3786,
      "guidance": 3787,
      "email": 3788,
      "pressure": 3789,
      "patients": 3790,
      "firearm": 3791,
      "weight": 3792,
      "##ifies": 3793,
      "commerce": 3794,
      "##ological": 3795,
      "schedule": 3796,
      "border": 3797,
      "replace": 3798,
      "definite": 3799,
      "lawsuit": 3800,
      "inquir": 3801,
      "complaints": 3802,
      "pree": 3803,
      "withdr": 3804,
      "impose": 3805,
      "larger": 3806,
      "principle": 3807,
      "network": 3808,
      "apparently": 3809,
      "withdraw": 3810,
      "units": 3811,
      "limitation": 3812,
      "##abor": 3813,
      "##ude": 3814,
      "violated": 3815,
      "letters": 3816,
      "retirement": 3817,
      "##change": 3818,
      "incent": 3819,
      "seconds": 3820,
      "senator": 3821,
      "pursue": 3822,
      "dedic": 3823,
      "unusual": 3824,
      "bag": 3825,
      "##ny": 3826,
      "##he": 3827,
      "##lay": 3828,
      "##iced": 3829,
      "supply": 3830,
      "expected": 3831,
      "mad": 3832,
      "instances": 3833,
      "resolved": 3834,
      "##light": 3835,
      "##ream": 3836,
      "revers": 3837,
      "##ading": 3838,
      "exists": 3839,
      "medicare": 3840,
      "agents": 3841,
      "continues": 3842,
      "briefly": 3843,
      "gather": 3844,
      "##lear": 3845,
      "contest": 3846,
      "calling": 3847,
      "suppose": 3848,
      "master": 3849,
      "##eenth": 3850,
      "brown": 3851,
      "brother": 3852,
      "termination": 3853,
      "gotten": 3854,
      "proud": 3855,
      "##aught": 3856,
      "match": 3857,
      "qualify": 3858,
      "visit": 3859,
      "##ronic": 3860,
      "acknowled": 3861,
      "merely": 3862,
      "advantage": 3863,
      "sounds": 3864,
      "push": 3865,
      "##comm": 3866,
      "##aving": 3867,
      "phrase": 3868,
      "race": 3869,
      "suit": 3870,
      "truck": 3871,
      "##acking": 3872,
      "screen": 3873,
      "supporting": 3874,
      "##iders": 3875,
      "##ada": 3876,
      "##issible": 3877,
      "operate": 3878,
      "evaluation": 3879,
      "accurate": 3880,
      "hur": 3881,
      "##idge": 3882,
      "polit": 3883,
      "keeping": 3884,
      "extraordin": 3885,
      "registration": 3886,
      "##iary": 3887,
      "highly": 3888,
      "imposs": 3889,
      "voted": 3890,
      "grounds": 3891,
      "##iers": 3892,
      "color": 3893,
      "facing": 3894,
      "##like": 3895,
      "articul": 3896,
      "walking": 3897,
      "jack": 3898,
      "excu": 3899,
      "books": 3900,
      "excuse": 3901,
      "##here": 3902,
      "consist": 3903,
      "holl": 3904,
      "typically": 3905,
      "challenging": 3906,
      "aggrav": 3907,
      "##ij": 3908,
      "wrote": 3909,
      "surv": 3910,
      "principles": 3911,
      "ended": 3912,
      "confusion": 3913,
      "suspicion": 3914,
      "##cell": 3915,
      "unable": 3916,
      "lands": 3917,
      "internal": 3918,
      "ultimate": 3919,
      "##represent": 3920,
      "##put": 3921,
      "obligations": 3922,
      "fisc": 3923,
      "geor": 3924,
      "description": 3925,
      "rent": 3926,
      "retr": 3927,
      "ourselves": 3928,
      "poor": 3929,
      "positions": 3930,
      "math": 3931,
      "limits": 3932,
      "familiar": 3933,
      "sustain": 3934,
      "beaut": 3935,
      "distribution": 3936,
      "principal": 3937,
      "##tle": 3938,
      "presumption": 3939,
      "bush": 3940,
      "approx": 3941,
      "quarter": 3942,
      "jump": 3943,
      "clos": 3944,
      "evening": 3945,
      "version": 3946,
      "controlled": 3947,
      "dig": 3948,
      "lif": 3949,
      "##ening": 3950,
      "##isis": 3951,
      "career": 3952,
      "released": 3953,
      "initi": 3954,
      "rail": 3955,
      "inference": 3956,
      "closed": 3957,
      "stopped": 3958,
      "##time": 3959,
      "authorized": 3960,
      "competition": 3961,
      "army": 3962,
      "chapter": 3963,
      "listed": 3964,
      "customer": 3965,
      "chem": 3966,
      "bi": 3967,
      "##ma": 3968,
      "##state": 3969,
      "sudd": 3970,
      "strength": 3971,
      "misrepresent": 3972,
      "sudden": 3973,
      "jer": 3974,
      "length": 3975,
      "crisis": 3976,
      "strict": 3977,
      "##ancy": 3978,
      "infringement": 3979,
      "dil": 3980,
      "##sey": 3981,
      "recommendations": 3982,
      "##hau": 3983,
      "unlike": 3984,
      "transm": 3985,
      "elected": 3986,
      "announ": 3987,
      "flex": 3988,
      "bargaining": 3989,
      "enjoy": 3990,
      "christ": 3991,
      "sector": 3992,
      "initially": 3993,
      "names": 3994,
      "cler": 3995,
      "assert": 3996,
      "advance": 3997,
      "pursu": 3998,
      "comfort": 3999,
      "reporting": 4000,
      "credible": 4001,
      "negative": 4002,
      "mechanism": 4003,
      "affidavit": 4004,
      "ali": 4005,
      "anymore": 4006,
      "exclusion": 4007,
      "subsequent": 4008,
      "seventh": 4009,
      "largest": 4010,
      "misc": 4011,
      "irre": 4012,
      "component": 4013,
      "##wal": 4014,
      "##ston": 4015,
      "troops": 4016,
      "##ipp": 4017,
      "contemp": 4018,
      "session": 4019,
      "studies": 4020,
      "competitive": 4021,
      "##acted": 4022,
      "##ortion": 4023,
      "write": 4024,
      "scientific": 4025,
      "nor": 4026,
      "##bors": 4027,
      "##agn": 4028,
      "upd": 4029,
      "amaz": 4030,
      "concer": 4031,
      "holland": 4032,
      "stip": 4033,
      "twice": 4034,
      "counts": 4035,
      "violations": 4036,
      "toward": 4037,
      "draft": 4038,
      "forms": 4039,
      "hopefully": 4040,
      "discrimin": 4041,
      "surr": 4042,
      "arch": 4043,
      "command": 4044,
      "##ibilities": 4045,
      "impossible": 4046,
      "##haust": 4047,
      "stock": 4048,
      "roll": 4049,
      "retail": 4050,
      "republican": 4051,
      "##lin": 4052,
      "##erous": 4053,
      "##iny": 4054,
      "contrad": 4055,
      "certification": 4056,
      "innov": 4057,
      "remind": 4058,
      "conversations": 4059,
      "hus": 4060,
      "##abil": 4061,
      "series": 4062,
      "broader": 4063,
      "##active": 4064,
      "trigger": 4065,
      "da": 4066,
      "mix": 4067,
      "starts": 4068,
      "injuries": 4069,
      "pleading": 4070,
      "music": 4071,
      "bid": 4072,
      "eth": 4073,
      "rac": 4074,
      "reverse": 4075,
      "exhaust": 4076,
      "located": 4077,
      "neighbors": 4078,
      "terminated": 4079,
      "ey": 4080,
      "##sight": 4081,
      "##mb": 4082,
      "percentage": 4083,
      "collection": 4084,
      "completed": 4085,
      "duties": 4086,
      "task": 4087,
      "mic": 4088,
      "easily": 4089,
      "##appropr": 4090,
      "bind": 4091,
      "primarily": 4092,
      "literally": 4093,
      "conce": 4094,
      "feed": 4095,
      "##men": 4096,
      "##road": 4097,
      "raising": 4098,
      "denial": 4099,
      "selling": 4100,
      "##enance": 4101,
      "memor": 4102,
      "minnes": 4103,
      "vill": 4104,
      "god": 4105,
      "loans": 4106,
      "##izon": 4107,
      "extension": 4108,
      "turns": 4109,
      "double": 4110,
      "clarify": 4111,
      "##akes": 4112,
      "ownership": 4113,
      "seemed": 4114,
      "weapons": 4115,
      "precisely": 4116,
      "inher": 4117,
      "lat": 4118,
      "river": 4119,
      "train": 4120,
      "remove": 4121,
      "blood": 4122,
      "introduced": 4123,
      "exchange": 4124,
      "traditional": 4125,
      "bul": 4126,
      "bip": 4127,
      "##tts": 4128,
      "##inations": 4129,
      "##arks": 4130,
      "whereas": 4131,
      "##achuse": 4132,
      "originally": 4133,
      "##achusetts": 4134,
      "sher": 4135,
      "congressional": 4136,
      "massachusetts": 4137,
      "freed": 4138,
      "maint": 4139,
      "ut": 4140,
      "##apers": 4141,
      "depos": 4142,
      "owners": 4143,
      "reduction": 4144,
      "priority": 4145,
      "##whel": 4146,
      "maintenance": 4147,
      "ms": 4148,
      "trem": 4149,
      "complicated": 4150,
      "overwhel": 4151,
      "serving": 4152,
      "discussing": 4153,
      "respectfully": 4154,
      "represented": 4155,
      "discretionary": 4156,
      "comprehensive": 4157,
      "husband": 4158,
      "conclus": 4159,
      "anticip": 4160,
      "fast": 4161,
      "nurs": 4162,
      "zoning": 4163,
      "amendments": 4164,
      "annual": 4165,
      "##iju": 4166,
      "##ards": 4167,
      "secure": 4168,
      "efficiency": 4169,
      "confidential": 4170,
      "applications": 4171,
      "causation": 4172,
      "terror": 4173,
      "##na": 4174,
      "island": 4175,
      "hadn": 4176,
      "governor": 4177,
      "##ancing": 4178,
      "amounts": 4179,
      "##ijuana": 4180,
      "compr": 4181,
      "reply": 4182,
      "assault": 4183,
      "blue": 4184,
      "eventually": 4185,
      "details": 4186,
      "skills": 4187,
      "##iors": 4188,
      "fort": 4189,
      "afric": 4190,
      "conducted": 4191,
      "voters": 4192,
      "hill": 4193,
      "pros": 4194,
      "##osite": 4195,
      "guys": 4196,
      "handle": 4197,
      "increases": 4198,
      "proposition": 4199,
      "leaving": 4200,
      "marijuana": 4201,
      "ohio": 4202,
      "inquiry": 4203,
      "minnesota": 4204,
      "brings": 4205,
      "willi": 4206,
      "relates": 4207,
      "transactions": 4208,
      "motions": 4209,
      "reduced": 4210,
      "distinguish": 4211,
      "supplemental": 4212,
      "frequ": 4213,
      "scenar": 4214,
      "tremend": 4215,
      "##lated": 4216,
      "retain": 4217,
      "bear": 4218,
      "notes": 4219,
      "deciding": 4220,
      "coach": 4221,
      "personnel": 4222,
      "educational": 4223,
      "leaders": 4224,
      "perfectly": 4225,
      "variety": 4226,
      "disease": 4227,
      "rein": 4228,
      "##artisan": 4229,
      "branch": 4230,
      "approximately": 4231,
      "pub": 4232,
      "club": 4233,
      "quant": 4234,
      "confront": 4235,
      "equitable": 4236,
      "injured": 4237,
      "significantly": 4238,
      "preclud": 4239,
      "##els": 4240,
      "regional": 4241,
      "creates": 4242,
      "##right": 4243,
      "##atures": 4244,
      "importance": 4245,
      "estim": 4246,
      "prevail": 4247,
      "cities": 4248,
      "vision": 4249,
      "emot": 4250,
      "causes": 4251,
      "convictions": 4252,
      "sources": 4253,
      "##ologies": 4254,
      "aspects": 4255,
      "round": 4256,
      "##hol": 4257,
      "input": 4258,
      "##iev": 4259,
      "append": 4260,
      "presence": 4261,
      "violent": 4262,
      "aid": 4263,
      "worry": 4264,
      "districts": 4265,
      "freedom": 4266,
      "cars": 4267,
      "hearings": 4268,
      "movement": 4269,
      "schedul": 4270,
      "divers": 4271,
      "lived": 4272,
      "pow": 4273,
      "whose": 4274,
      "waste": 4275,
      "region": 4276,
      "trail": 4277,
      "poll": 4278,
      "overr": 4279,
      "depend": 4280,
      "refused": 4281,
      "disabled": 4282,
      "punish": 4283,
      "##rete": 4284,
      "slow": 4285,
      "camer": 4286,
      "worse": 4287,
      "stress": 4288,
      "penn": 4289,
      "debtor": 4290,
      "diagn": 4291,
      "enhance": 4292,
      "mun": 4293,
      "##yn": 4294,
      "##over": 4295,
      "const": 4296,
      "sun": 4297,
      "numerous": 4298,
      "lawyers": 4299,
      "taxpayers": 4300,
      "sn": 4301,
      "season": 4302,
      "brain": 4303,
      "miles": 4304,
      "industr": 4305,
      "fiscal": 4306,
      "online": 4307,
      "smaller": 4308,
      "dram": 4309,
      "satisfy": 4310,
      "jones": 4311,
      "##wide": 4312,
      "##orts": 4313,
      "##onduct": 4314,
      "privacy": 4315,
      "litig": 4316,
      "trustee": 4317,
      "maximum": 4318,
      "turning": 4319,
      "voice": 4320,
      "appendix": 4321,
      "bunch": 4322,
      "cat": 4323,
      "##ex": 4324,
      "##der": 4325,
      "recre": 4326,
      "carol": 4327,
      "generation": 4328,
      "deny": 4329,
      "attempted": 4330,
      "##itude": 4331,
      "forced": 4332,
      "impl": 4333,
      "claimed": 4334,
      "downtown": 4335,
      "helps": 4336,
      "photograph": 4337,
      "king": 4338,
      "son": 4339,
      "reim": 4340,
      "recon": 4341,
      "suggests": 4342,
      "pieces": 4343,
      "collective": 4344,
      "definitely": 4345,
      "neither": 4346,
      "thinks": 4347,
      "timely": 4348,
      "depr": 4349,
      "extend": 4350,
      "suffered": 4351,
      "relatively": 4352,
      "negligence": 4353,
      "transition": 4354,
      "opposite": 4355,
      "felony": 4356,
      "guarantee": 4357,
      "extraordinary": 4358,
      "hun": 4359,
      "shut": 4360,
      "differences": 4361,
      "##iolog": 4362,
      "##lington": 4363,
      "##ivity": 4364,
      "implic": 4365,
      "##ago": 4366,
      "discussions": 4367,
      "advice": 4368,
      "connected": 4369,
      "##ians": 4370,
      "##igent": 4371,
      "liable": 4372,
      "interven": 4373,
      "##rog": 4374,
      "informed": 4375,
      "opposing": 4376,
      "airport": 4377,
      "normally": 4378,
      "##bru": 4379,
      "febru": 4380,
      "depending": 4381,
      "indicates": 4382,
      "february": 4383,
      "##iful": 4384,
      "values": 4385,
      "instructed": 4386,
      "evident": 4387,
      "peace": 4388,
      "insured": 4389,
      "emb": 4390,
      "prefer": 4391,
      "answers": 4392,
      "advisory": 4393,
      "clin": 4394,
      "classroom": 4395,
      "effects": 4396,
      "##van": 4397,
      "reh": 4398,
      "teaching": 4399,
      "##iform": 4400,
      "cham": 4401,
      "entities": 4402,
      "##ician": 4403,
      "overse": 4404,
      "afterno": 4405,
      "insu": 4406,
      "admission": 4407,
      "participation": 4408,
      "uniform": 4409,
      "ordered": 4410,
      "farmers": 4411,
      "improvement": 4412,
      "democratic": 4413,
      "engineering": 4414,
      "solely": 4415,
      "bipartisan": 4416,
      "ice": 4417,
      "##greg": 4418,
      "minim": 4419,
      "falls": 4420,
      "apartment": 4421,
      "deput": 4422,
      "biggest": 4423,
      "leading": 4424,
      "contradict": 4425,
      "##ps": 4426,
      "entry": 4427,
      "resident": 4428,
      "partner": 4429,
      "##ounting": 4430,
      "scale": 4431,
      "investigate": 4432,
      "arbitrator": 4433,
      "restrictions": 4434,
      "uns": 4435,
      "recons": 4436,
      "vermont": 4437,
      "sets": 4438,
      "occurr": 4439,
      "deliver": 4440,
      "misconduct": 4441,
      "reconsider": 4442,
      "##uting": 4443,
      "claiming": 4444,
      "depends": 4445,
      "asser": 4446,
      "secondly": 4447,
      "barr": 4448,
      "wild": 4449,
      "introduce": 4450,
      "village": 4451,
      "je": 4452,
      "##ico": 4453,
      "##arth": 4454,
      "##inth": 4455,
      "fired": 4456,
      "scene": 4457,
      "##ception": 4458,
      "developing": 4459,
      "concerning": 4460,
      "afternoon": 4461,
      "sle": 4462,
      "##oted": 4463,
      "##iring": 4464,
      "brand": 4465,
      "afgh": 4466,
      "representatives": 4467,
      "sidewal": 4468,
      "virgin": 4469,
      "clerk": 4470,
      "rid": 4471,
      "temporary": 4472,
      "bir": 4473,
      "shif": 4474,
      "substantially": 4475,
      "easier": 4476,
      "collateral": 4477,
      "manufacturing": 4478,
      "fuel": 4479,
      "paul": 4480,
      "subcomm": 4481,
      "interpreted": 4482,
      "manufactur": 4483,
      "subcommit": 4484,
      "hy": 4485,
      "rap": 4486,
      "analog": 4487,
      "independ": 4488,
      "named": 4489,
      "spoke": 4490,
      "remaining": 4491,
      "departments": 4492,
      "convention": 4493,
      "ninth": 4494,
      "##pl": 4495,
      "##icians": 4496,
      "voluntary": 4497,
      "gain": 4498,
      "##ulations": 4499,
      "existed": 4500,
      "strongly": 4501,
      "##iner": 4502,
      "possess": 4503,
      "classes": 4504,
      "ineff": 4505,
      "daily": 4506,
      "daughter": 4507,
      "forces": 4508,
      "##aves": 4509,
      "disputed": 4510,
      "representing": 4511,
      "references": 4512,
      "playing": 4513,
      "cuts": 4514,
      "discharge": 4515,
      "yea": 4516,
      "##icing": 4517,
      "puts": 4518,
      "applicant": 4519,
      "illness": 4520,
      "meaningful": 4521,
      "block": 4522,
      "recover": 4523,
      "explicitly": 4524,
      "sending": 4525,
      "##face": 4526,
      "killed": 4527,
      "subcommittee": 4528,
      "yeah": 4529,
      "##ban": 4530,
      "##ality": 4531,
      "forget": 4532,
      "##amb": 4533,
      "spons": 4534,
      "involves": 4535,
      "permits": 4536,
      "collabor": 4537,
      "fash": 4538,
      "default": 4539,
      "attend": 4540,
      "##lihood": 4541,
      "impacts": 4542,
      "fraudul": 4543,
      "render": 4544,
      "stories": 4545,
      "detailed": 4546,
      "watching": 4547,
      "##ners": 4548,
      "alco": 4549,
      "##ensus": 4550,
      "boy": 4551,
      "legally": 4552,
      "esc": 4553,
      "absence": 4554,
      "warning": 4555,
      "exemption": 4556,
      "beautiful": 4557,
      "overwhelming": 4558,
      "insufficient": 4559,
      "diss": 4560,
      "signs": 4561,
      "ruled": 4562,
      "enterpr": 4563,
      "fashion": 4564,
      "wage": 4565,
      "##ef": 4566,
      "##cing": 4567,
      "join": 4568,
      "carr": 4569,
      "compared": 4570,
      "taxpayer": 4571,
      "tough": 4572,
      "whom": 4573,
      "acted": 4574,
      "requiring": 4575,
      "existence": 4576,
      "solar": 4577,
      "tremendous": 4578,
      "municip": 4579,
      "afghan": 4580,
      "jour": 4581,
      "disreg": 4582,
      "##aced": 4583,
      "##enders": 4584,
      "coast": 4585,
      "approve": 4586,
      "seriously": 4587,
      "cele": 4588,
      "carolina": 4589,
      "laid": 4590,
      "soft": 4591,
      "##iveness": 4592,
      "##roll": 4593,
      "protecting": 4594,
      "permission": 4595,
      "premium": 4596,
      "oce": 4597,
      "sought": 4598,
      "exceed": 4599,
      "liqu": 4600,
      "admit": 4601,
      "sorts": 4602,
      "democrats": 4603,
      "##book": 4604,
      "pip": 4605,
      "##cl": 4606,
      "##ables": 4607,
      "alle": 4608,
      "##aces": 4609,
      "substit": 4610,
      "drop": 4611,
      "markets": 4612,
      "harmless": 4613,
      "slight": 4614,
      "##phone": 4615,
      "uh": 4616,
      "reop": 4617,
      "oversight": 4618,
      "influence": 4619,
      "unconstitutional": 4620,
      "surround": 4621,
      "investors": 4622,
      "disclosed": 4623,
      "describe": 4624,
      "losing": 4625,
      "pocket": 4626,
      "thanks": 4627,
      "##iculty": 4628,
      "persons": 4629,
      "difficulty": 4630,
      "satisfied": 4631,
      "bon": 4632,
      "##oph": 4633,
      "mayor": 4634,
      "extensive": 4635,
      "preserve": 4636,
      "addresses": 4637,
      "carefully": 4638,
      "technologies": 4639,
      "radio": 4640,
      "applicable": 4641,
      "opposition": 4642,
      "respondent": 4643,
      "guns": 4644,
      "predict": 4645,
      "destro": 4646,
      "warm": 4647,
      "##iment": 4648,
      "pool": 4649,
      "licens": 4650,
      "struggling": 4651,
      "disregard": 4652,
      "lie": 4653,
      "inappropr": 4654,
      "persec": 4655,
      "survey": 4656,
      "advertising": 4657,
      "retaliation": 4658,
      "rough": 4659,
      "decades": 4660,
      "investments": 4661,
      "improvements": 4662,
      "distinct": 4663,
      "controvers": 4664,
      "##riage": 4665,
      "mau": 4666,
      "##oles": 4667,
      "stri": 4668,
      "suggestion": 4669,
      "houses": 4670,
      "tribal": 4671,
      "resid": 4672,
      "expensive": 4673,
      "helped": 4674,
      "substantive": 4675,
      "grants": 4676,
      "communicate": 4677,
      "jackson": 4678,
      "stem": 4679,
      "dispar": 4680,
      "lease": 4681,
      "capt": 4682,
      "century": 4683,
      "alcohol": 4684,
      "inappropriate": 4685,
      "##cher": 4686,
      "shift": 4687,
      "smart": 4688,
      "extended": 4689,
      "minority": 4690,
      "supervisor": 4691,
      "##gl": 4692,
      "chic": 4693,
      "##ustr": 4694,
      "profits": 4695,
      "feeling": 4696,
      "motor": 4697,
      "liberty": 4698,
      "snow": 4699,
      "arizon": 4700,
      "homeown": 4701,
      "revenues": 4702,
      "republicans": 4703,
      "pure": 4704,
      "##lvan": 4705,
      "##aine": 4706,
      "##illing": 4707,
      "tap": 4708,
      "violate": 4709,
      "dealt": 4710,
      "expectation": 4711,
      "promote": 4712,
      "##sylvan": 4713,
      "fixed": 4714,
      "amazing": 4715,
      "pennsylvan": 4716,
      "fraudulent": 4717,
      "arizona": 4718,
      "sar": 4719,
      "##bon": 4720,
      "consc": 4721,
      "motive": 4722,
      "shooting": 4723,
      "comprom": 4724,
      "rat": 4725,
      "tick": 4726,
      "##yl": 4727,
      "resist": 4728,
      "reck": 4729,
      "division": 4730,
      "deference": 4731,
      "detention": 4732,
      "leader": 4733,
      "contained": 4734,
      "pennsylvania": 4735,
      "sand": 4736,
      "aband": 4737,
      "justify": 4738,
      "consolid": 4739,
      "contractual": 4740,
      "highest": 4741,
      "commissioner": 4742,
      "choices": 4743,
      "older": 4744,
      "appointed": 4745,
      "maui": 4746,
      "fem": 4747,
      "papers": 4748,
      "vent": 4749,
      "inm": 4750,
      "##ume": 4751,
      "##teenth": 4752,
      "examine": 4753,
      "waived": 4754,
      "challenged": 4755,
      "constant": 4756,
      "chicago": 4757,
      "wat": 4758,
      "##ieth": 4759,
      "##ama": 4760,
      "spl": 4761,
      "miller": 4762,
      "reviewing": 4763,
      "##ucky": 4764,
      "contribution": 4765,
      "privilege": 4766,
      "tomorrow": 4767,
      "hired": 4768,
      "excell": 4769,
      "persu": 4770,
      "highway": 4771,
      "discovered": 4772,
      "expressed": 4773,
      "banks": 4774,
      "attached": 4775,
      "##iat": 4776,
      "whe": 4777,
      "##section": 4778,
      "invention": 4779,
      "drink": 4780,
      "strike": 4781,
      "sentences": 4782,
      "valu": 4783,
      "equity": 4784,
      "publish": 4785,
      "##omin": 4786,
      "##ulting": 4787,
      "english": 4788,
      "settled": 4789,
      "remains": 4790,
      "framework": 4791,
      "sheriff": 4792,
      "sac": 4793,
      "careful": 4794,
      "corporate": 4795,
      "fighting": 4796,
      "chemical": 4797,
      "pil": 4798,
      "tradem": 4799,
      "vehicles": 4800,
      "intentional": 4801,
      "east": 4802,
      "defer": 4803,
      "deem": 4804,
      "##oked": 4805,
      "install": 4806,
      "measures": 4807,
      "yester": 4808,
      "unp": 4809,
      "audience": 4810,
      "foreclosure": 4811,
      "williams": 4812,
      "yesterday": 4813,
      "sam": 4814,
      "##aken": 4815,
      "define": 4816,
      "reliance": 4817,
      "finance": 4818,
      "ineffective": 4819,
      "##aded": 4820,
      "residence": 4821,
      "stands": 4822,
      "healthy": 4823,
      "delivery": 4824,
      "unlaw": 4825,
      "confidence": 4826,
      "requests": 4827,
      "disclose": 4828,
      "tools": 4829,
      "concrete": 4830,
      "phil": 4831,
      "closely": 4832,
      "reckless": 4833,
      "##ushing": 4834,
      "spir": 4835,
      "worker": 4836,
      "provider": 4837,
      "prescript": 4838,
      "accounting": 4839,
      "offering": 4840,
      "electronic": 4841,
      "wondering": 4842,
      "listening": 4843,
      "##wr": 4844,
      "shel": 4845,
      "essence": 4846,
      "combination": 4847,
      "bench": 4848,
      "cents": 4849,
      "mary": 4850,
      "wire": 4851,
      "##sement": 4852,
      "identical": 4853,
      "treating": 4854,
      "modern": 4855,
      "jersey": 4856,
      "deleg": 4857,
      "expense": 4858,
      "corner": 4859,
      "failing": 4860,
      "excessive": 4861,
      "davis": 4862,
      "##water": 4863,
      "prox": 4864,
      "compelling": 4865,
      "focusing": 4866,
      "medicaid": 4867,
      "##omas": 4868,
      "underm": 4869,
      "likelihood": 4870,
      "benefici": 4871,
      "responded": 4872,
      "calculation": 4873,
      "irrele": 4874,
      "cite": 4875,
      "##lined": 4876,
      "ther": 4877,
      "forg": 4878,
      "intend": 4879,
      "##force": 4880,
      "deploy": 4881,
      "marriage": 4882,
      "faced": 4883,
      "tend": 4884,
      "haz": 4885,
      "conve": 4886,
      "exceptions": 4887,
      "dogs": 4888,
      "adding": 4889,
      "generic": 4890,
      "promise": 4891,
      "recommended": 4892,
      "roads": 4893,
      "swe": 4894,
      "scenario": 4895,
      "irrelevant": 4896,
      "harr": 4897,
      "vast": 4898,
      "che": 4899,
      "repair": 4900,
      "rober": 4901,
      "physician": 4902,
      "partners": 4903,
      "excluded": 4904,
      "ow": 4905,
      "##west": 4906,
      "##tered": 4907,
      "whenever": 4908,
      "transpar": 4909,
      "##cast": 4910,
      "thomas": 4911,
      "##itution": 4912,
      "disapp": 4913,
      "compare": 4914,
      "coc": 4915,
      "restitution": 4916,
      "identity": 4917,
      "performed": 4918,
      "experienced": 4919,
      "candidates": 4920,
      "##asive": 4921,
      "funded": 4922,
      "bigger": 4923,
      "relationships": 4924,
      "devices": 4925,
      "trafficking": 4926,
      "sleep": 4927,
      "virginia": 4928,
      "##iday": 4929,
      "gold": 4930,
      "chain": 4931,
      "plenty": 4932,
      "##eline": 4933,
      "relate": 4934,
      "glad": 4935,
      "eleventh": 4936,
      "forest": 4937,
      "cancer": 4938,
      "##mpting": 4939,
      "responsibilities": 4940,
      "burlington": 4941,
      "historic": 4942,
      "deputy": 4943,
      "bure": 4944,
      "spread": 4945,
      "detect": 4946,
      "contractors": 4947,
      "typical": 4948,
      "surger": 4949,
      "solutions": 4950,
      "returned": 4951,
      "telephone": 4952,
      "comfortable": 4953,
      "prong": 4954,
      "star": 4955,
      "conven": 4956,
      "##unk": 4957,
      "excited": 4958,
      "exempt": 4959,
      "closer": 4960,
      "youth": 4961,
      "plaus": 4962,
      "foster": 4963,
      "pleas": 4964,
      "votes": 4965,
      "suffering": 4966,
      "timing": 4967,
      "wood": 4968,
      "##ware": 4969,
      "##off": 4970,
      "neut": 4971,
      "complaining": 4972,
      "modification": 4973,
      "streets": 4974,
      "harass": 4975,
      "##iet": 4976,
      "##esh": 4977,
      "##ites": 4978,
      "friday": 4979,
      "##osen": 4980,
      "belong": 4981,
      "administrator": 4982,
      "hurt": 4983,
      "aven": 4984,
      "##etic": 4985,
      "colleague": 4986,
      "resulted": 4987,
      "similarly": 4988,
      "institutions": 4989,
      "aggress": 4990,
      "expend": 4991,
      "secondary": 4992,
      "stream": 4993,
      "label": 4994,
      "transferred": 4995,
      "pictures": 4996,
      "temper": 4997,
      "cooperation": 4998,
      "afghanistan": 4999,
      "lau": 5000,
      "plants": 5001,
      "bridge": 5002,
      "##arsh": 5003,
      "goods": 5004,
      "passing": 5005,
      "certific": 5006,
      "culture": 5007,
      "binding": 5008,
      "bod": 5009,
      "##bile": 5010,
      "##tery": 5011,
      "##abilities": 5012,
      "spring": 5013,
      "offender": 5014,
      "schen": 5015,
      "channel": 5016,
      "finish": 5017,
      "urge": 5018,
      "automatically": 5019,
      "acknowledged": 5020,
      "catch": 5021,
      "##itect": 5022,
      "resource": 5023,
      "offenses": 5024,
      "equival": 5025,
      "certified": 5026,
      "anti": 5027,
      "architect": 5028,
      "gall": 5029,
      "##ectady": 5030,
      "solve": 5031,
      "threats": 5032,
      "contributions": 5033,
      "shoot": 5034,
      "bureau": 5035,
      "schenectady": 5036,
      "bab": 5037,
      "##ires": 5038,
      "##astic": 5039,
      "owned": 5040,
      "securities": 5041,
      "innocent": 5042,
      "occasions": 5043,
      "courtroom": 5044,
      "flight": 5045,
      "stake": 5046,
      "ballot": 5047,
      "involvement": 5048,
      "academic": 5049,
      "die": 5050,
      "fing": 5051,
      "sister": 5052,
      "##fe": 5053,
      "grade": 5054,
      "relating": 5055,
      "deals": 5056,
      "reimbur": 5057,
      "gap": 5058,
      "beach": 5059,
      "repl": 5060,
      "phase": 5061,
      "##crib": 5062,
      "arrange": 5063,
      "categories": 5064,
      "obtained": 5065,
      "ambiguity": 5066,
      "mitig": 5067,
      "nuc": 5068,
      "odd": 5069,
      "rico": 5070,
      "##do": 5071,
      "##uses": 5072,
      "proven": 5073,
      "parks": 5074,
      "confused": 5075,
      "played": 5076,
      "##ker": 5077,
      "##iter": 5078,
      "print": 5079,
      "griev": 5080,
      "fellow": 5081,
      "ambiguous": 5082,
      "presumably": 5083,
      "electricity": 5084,
      "aggravated": 5085,
      "sports": 5086,
      "defic": 5087,
      "postal": 5088,
      "attempting": 5089,
      "appellant": 5090,
      "sick": 5091,
      "##ucks": 5092,
      "offices": 5093,
      "exhibit": 5094,
      "madam": 5095,
      "borrow": 5096,
      "##ios": 5097,
      "abstr": 5098,
      "carbon": 5099,
      "##resp": 5100,
      "absent": 5101,
      "comparison": 5102,
      "african": 5103,
      "bought": 5104,
      "impair": 5105,
      "conservation": 5106,
      "highlight": 5107,
      "walked": 5108,
      "performing": 5109,
      "datab": 5110,
      "components": 5111,
      "der": 5112,
      "tied": 5113,
      "tour": 5114,
      "##yed": 5115,
      "##care": 5116,
      "##aled": 5117,
      "sixth": 5118,
      "topic": 5119,
      "pulled": 5120,
      "powers": 5121,
      "enterprise": 5122,
      "allege": 5123,
      "toll": 5124,
      "stim": 5125,
      "##loc": 5126,
      "transit": 5127,
      "broken": 5128,
      "ken": 5129,
      "##iant": 5130,
      "seat": 5131,
      "##orted": 5132,
      "worst": 5133,
      "providers": 5134,
      "standpoint": 5135,
      "realized": 5136,
      "patr": 5137,
      "treas": 5138,
      "evaluate": 5139,
      "alien": 5140,
      "hire": 5141,
      "##ulative": 5142,
      "reasoning": 5143,
      "expans": 5144,
      "salary": 5145,
      "shared": 5146,
      "earth": 5147,
      "spok": 5148,
      "demonstrated": 5149,
      "constitu": 5150,
      "emotional": 5151,
      "coal": 5152,
      "governments": 5153,
      "eighth": 5154,
      "authorization": 5155,
      "diab": 5156,
      "historical": 5157,
      "cocaine": 5158,
      "##cel": 5159,
      "asset": 5160,
      "recru": 5161,
      "assistant": 5162,
      "##ney": 5163,
      "favorable": 5164,
      "##holders": 5165,
      "acknowledge": 5166,
      "##ycle": 5167,
      "registered": 5168,
      "##oms": 5169,
      "corre": 5170,
      "equally": 5171,
      "refers": 5172,
      "drawn": 5173,
      "copyright": 5174,
      "mir": 5175,
      "institution": 5176,
      "jun": 5177,
      "flood": 5178,
      "fundamentally": 5179,
      "machine": 5180,
      "volunteer": 5181,
      "substitute": 5182,
      "mut": 5183,
      "subjective": 5184,
      "alternatives": 5185,
      "conceded": 5186,
      "nuclear": 5187,
      "##pper": 5188,
      "spot": 5189,
      "exposure": 5190,
      "specification": 5191,
      "remedies": 5192,
      "##ography": 5193,
      "agrees": 5194,
      "spect": 5195,
      "plat": 5196,
      "expressly": 5197,
      "prohibited": 5198,
      "david": 5199,
      "discipline": 5200,
      "##field": 5201,
      "gross": 5202,
      "formul": 5203,
      "advanced": 5204,
      "film": 5205,
      "identification": 5206,
      "armed": 5207,
      "consistently": 5208,
      "municipal": 5209,
      "##ship": 5210,
      "selection": 5211,
      "trained": 5212,
      "defect": 5213,
      "checks": 5214,
      "fortun": 5215,
      "profess": 5216,
      "expertise": 5217,
      "compete": 5218,
      "reaching": 5219,
      "agriculture": 5220,
      "fab": 5221,
      "##omb": 5222,
      "stick": 5223,
      "speculation": 5224,
      "formal": 5225,
      "misle": 5226,
      "strategic": 5227,
      "penalties": 5228,
      "knowingly": 5229,
      "ocean": 5230,
      "surgery": 5231,
      "wear": 5232,
      "withhold": 5233,
      "boston": 5234,
      "buying": 5235,
      "useful": 5236,
      "ignore": 5237,
      "hoping": 5238,
      "ment": 5239,
      "coordin": 5240,
      "believes": 5241,
      "files": 5242,
      "neighborhoods": 5243,
      "accommodation": 5244,
      "routine": 5245,
      "onto": 5246,
      "questioning": 5247,
      "memory": 5248,
      "bloc": 5249,
      "neutral": 5250,
      "et": 5251,
      "disrupt": 5252,
      "determinations": 5253,
      "display": 5254,
      "answered": 5255,
      "hotel": 5256,
      "diligence": 5257,
      "celebr": 5258,
      "shop": 5259,
      "recognition": 5260,
      "hospitals": 5261,
      "##ov": 5262,
      "##oned": 5263,
      "fores": 5264,
      "tests": 5265,
      "reliable": 5266,
      "pharm": 5267,
      "membership": 5268,
      "##iverse": 5269,
      "combat": 5270,
      "burgl": 5271,
      "monitoring": 5272,
      "unlawful": 5273,
      "expendit": 5274,
      "biolog": 5275,
      "fish": 5276,
      "##ford": 5277,
      "##ole": 5278,
      "weather": 5279,
      "##irect": 5280,
      "eliminate": 5281,
      "prepare": 5282,
      "objections": 5283,
      "occurs": 5284,
      "implemented": 5285,
      "implementation": 5286,
      "attrib": 5287,
      "eur": 5288,
      "ren": 5289,
      "rental": 5290,
      "##fill": 5291,
      "##nings": 5292,
      "##orter": 5293,
      "asyl": 5294,
      "errone": 5295,
      "girl": 5296,
      "animal": 5297,
      "picked": 5298,
      "politics": 5299,
      "asylum": 5300,
      "##gia": 5301,
      "##icide": 5302,
      "##ested": 5303,
      "sentenced": 5304,
      "complain": 5305,
      "disputes": 5306,
      "flat": 5307,
      "adequately": 5308,
      "ignored": 5309,
      "construed": 5310,
      "cart": 5311,
      "cable": 5312,
      "habit": 5313,
      "isol": 5314,
      "##osis": 5315,
      "crack": 5316,
      "dro": 5317,
      "employed": 5318,
      "leads": 5319,
      "critic": 5320,
      "sacr": 5321,
      "chart": 5322,
      "priorities": 5323,
      "views": 5324,
      "prejudicial": 5325,
      "soldiers": 5326,
      "telev": 5327,
      "assemb": 5328,
      "indiana": 5329,
      "roughly": 5330,
      "##kins": 5331,
      "transform": 5332,
      "capable": 5333,
      "opened": 5334,
      "participating": 5335,
      "medicine": 5336,
      "concede": 5337,
      "integrity": 5338,
      "emphasize": 5339,
      "caught": 5340,
      "##ays": 5341,
      "decre": 5342,
      "dependent": 5343,
      "##resents": 5344,
      "blank": 5345,
      "stronger": 5346,
      "dash": 5347,
      "sad": 5348,
      "wil": 5349,
      "##lor": 5350,
      "##pet": 5351,
      "trip": 5352,
      "denying": 5353,
      "powerful": 5354,
      "trees": 5355,
      "restriction": 5356,
      "occasion": 5357,
      "misrepresentation": 5358,
      "published": 5359,
      "trademark": 5360,
      "abstract": 5361,
      "##raid": 5362,
      "##ecess": 5363,
      "decides": 5364,
      "medication": 5365,
      "exclusive": 5366,
      "chamber": 5367,
      "fault": 5368,
      "thus": 5369,
      "height": 5370,
      "##olution": 5371,
      "undert": 5372,
      "contention": 5373,
      "signal": 5374,
      "authorities": 5375,
      "winter": 5376,
      "democracy": 5377,
      "excellent": 5378,
      "##note": 5379,
      "##ado": 5380,
      "cold": 5381,
      "afraid": 5382,
      "fails": 5383,
      "##aker": 5384,
      "succeed": 5385,
      "switch": 5386,
      "mandate": 5387,
      "intentionally": 5388,
      "dedicated": 5389,
      "diversity": 5390,
      "spirit": 5391,
      "core": 5392,
      "##ertain": 5393,
      "shape": 5394,
      "nev": 5395,
      "elections": 5396,
      "uncertain": 5397,
      "scrut": 5398,
      "incredibly": 5399,
      "preemption": 5400,
      "mond": 5401,
      "##yal": 5402,
      "##ka": 5403,
      "conver": 5404,
      "une": 5405,
      "impression": 5406,
      "##ansas": 5407,
      "represents": 5408,
      "assigned": 5409,
      "valuable": 5410,
      "##erves": 5411,
      "##orage": 5412,
      "##robor": 5413,
      "household": 5414,
      "marketing": 5415,
      "electr": 5416,
      "died": 5417,
      "fresh": 5418,
      "western": 5419,
      "split": 5420,
      "europe": 5421,
      "native": 5422,
      "heat": 5423,
      "chosen": 5424,
      "thres": 5425,
      "herself": 5426,
      "terrible": 5427,
      "constitute": 5428,
      "virtually": 5429,
      "pursuant": 5430,
      "dict": 5431,
      "##vereign": 5432,
      "sovereign": 5433,
      "justification": 5434,
      "##tees": 5435,
      "drivers": 5436,
      "southern": 5437,
      "deemed": 5438,
      "band": 5439,
      "##wood": 5440,
      "##yle": 5441,
      "spr": 5442,
      "finds": 5443,
      "processing": 5444,
      "flexibility": 5445,
      "sidewalk": 5446,
      "ep": 5447,
      "wages": 5448,
      "##wor": 5449,
      "storage": 5450,
      "recip": 5451,
      "interv": 5452,
      "directors": 5453,
      "affects": 5454,
      "footnote": 5455,
      "cards": 5456,
      "nevada": 5457,
      "threshold": 5458,
      "considerations": 5459,
      "mont": 5460,
      "accountability": 5461,
      "distance": 5462,
      "therap": 5463,
      "divid": 5464,
      "pump": 5465,
      "##med": 5466,
      "consequence": 5467,
      "equivalent": 5468,
      "om": 5469,
      "##aur": 5470,
      "##den": 5471,
      "map": 5472,
      "##stru": 5473,
      "renewable": 5474,
      "heavily": 5475,
      "persecution": 5476,
      "television": 5477,
      "los": 5478,
      "##osures": 5479,
      "bright": 5480,
      "hero": 5481,
      "boards": 5482,
      "protections": 5483,
      "proceeds": 5484,
      "##elled": 5485,
      "threatened": 5486,
      "incentive": 5487,
      "landsc": 5488,
      "monday": 5489,
      "pal": 5490,
      "vet": 5491,
      "##alid": 5492,
      "dress": 5493,
      "informant": 5494,
      "pleased": 5495,
      "begins": 5496,
      "younger": 5497,
      "appreci": 5498,
      "analyze": 5499,
      "slightly": 5500,
      "surrounding": 5501,
      "##ez": 5502,
      "storm": 5503,
      "soph": 5504,
      "invalid": 5505,
      "cutting": 5506,
      "route": 5507,
      "georgia": 5508,
      "camera": 5509,
      "hor": 5510,
      "nut": 5511,
      "##nal": 5512,
      "##itors": 5513,
      "instru": 5514,
      "forum": 5515,
      "charging": 5516,
      "ends": 5517,
      "reducing": 5518,
      "creation": 5519,
      "mitigation": 5520,
      "certificate": 5521,
      "dream": 5522,
      "##inent": 5523,
      "fell": 5524,
      "largely": 5525,
      "##ai": 5526,
      "##limin": 5527,
      "wealth": 5528,
      "disaster": 5529,
      "alj": 5530,
      "##unt": 5531,
      "counties": 5532,
      "sympt": 5533,
      "recognizing": 5534,
      "appropriations": 5535,
      "surface": 5536,
      "risks": 5537,
      "functions": 5538,
      "causing": 5539,
      "surveill": 5540,
      "constructive": 5541,
      "reversed": 5542,
      "harris": 5543,
      "mine": 5544,
      "porn": 5545,
      "web": 5546,
      "stations": 5547,
      "user": 5548,
      "species": 5549,
      "genu": 5550,
      "produc": 5551,
      "regulate": 5552,
      "oppon": 5553,
      "physically": 5554,
      "images": 5555,
      "inspection": 5556,
      "beat": 5557,
      "oral": 5558,
      "regards": 5559,
      "valley": 5560,
      "combined": 5561,
      "photo": 5562,
      "sharing": 5563,
      "filled": 5564,
      "disabilities": 5565,
      "##held": 5566,
      "initiative": 5567,
      "dial": 5568,
      "nur": 5569,
      "va": 5570,
      "##lishing": 5571,
      "##bing": 5572,
      "##etes": 5573,
      "tail": 5574,
      "responding": 5575,
      "documentation": 5576,
      "negotiations": 5577,
      "recreation": 5578,
      "reopen": 5579,
      "saras": 5580,
      "genuine": 5581,
      "sund": 5582,
      "offers": 5583,
      "claimant": 5584,
      "separately": 5585,
      "creditor": 5586,
      "satur": 5587,
      "purchased": 5588,
      "logical": 5589,
      "evidentiary": 5590,
      "birth": 5591,
      "liquid": 5592,
      "surveillance": 5593,
      "spaces": 5594,
      "greatest": 5595,
      "maintaining": 5596,
      "deliberate": 5597,
      "burn": 5598,
      "gate": 5599,
      "##urally": 5600,
      "workforce": 5601,
      "passage": 5602,
      "appropriately": 5603,
      "immigr": 5604,
      "testifying": 5605,
      "acquis": 5606,
      "martin": 5607,
      "conclusions": 5608,
      "rapid": 5609,
      "venture": 5610,
      "misleading": 5611,
      "erroneous": 5612,
      "lake": 5613,
      "##antial": 5614,
      "prelimin": 5615,
      "cool": 5616,
      "manif": 5617,
      "concent": 5618,
      "married": 5619,
      "locations": 5620,
      "operator": 5621,
      "rehabil": 5622,
      "avenue": 5623,
      "leaves": 5624,
      "pointing": 5625,
      "corrobor": 5626,
      "##print": 5627,
      "formula": 5628,
      "games": 5629,
      "##mploy": 5630,
      "##arden": 5631,
      "affairs": 5632,
      "##ifying": 5633,
      "credits": 5634,
      "refus": 5635,
      "articles": 5636,
      "competing": 5637,
      "creditors": 5638,
      "elementary": 5639,
      "motivation": 5640,
      "incredible": 5641,
      "##ows": 5642,
      "sue": 5643,
      "##usion": 5644,
      "##apt": 5645,
      "suppl": 5646,
      "seniors": 5647,
      "punishment": 5648,
      "##aks": 5649,
      "##enger": 5650,
      "worried": 5651,
      "intel": 5652,
      "database": 5653,
      "diabetes": 5654,
      "preliminary": 5655,
      "lou": 5656,
      "rare": 5657,
      "vital": 5658,
      "##ble": 5659,
      "##itate": 5660,
      "reve": 5661,
      "magn": 5662,
      "recorded": 5663,
      "rock": 5664,
      "sanctions": 5665,
      "plausible": 5666,
      "amp": 5667,
      "sir": 5668,
      "defe": 5669,
      "corresp": 5670,
      "assumption": 5671,
      "targeted": 5672,
      "correspond": 5673,
      "tenth": 5674,
      "##wer": 5675,
      "busy": 5676,
      "protest": 5677,
      "shortly": 5678,
      "micha": 5679,
      "adjustment": 5680,
      "incorporated": 5681,
      "sections": 5682,
      "becoming": 5683,
      "flag": 5684,
      "lesser": 5685,
      "significance": 5686,
      "solid": 5687,
      "reflects": 5688,
      "carrying": 5689,
      "battle": 5690,
      "nav": 5691,
      "recyc": 5692,
      "recording": 5693,
      "committees": 5694,
      "raises": 5695,
      "controlling": 5696,
      "confusing": 5697,
      "ship": 5698,
      "entr": 5699,
      "##eland": 5700,
      "harder": 5701,
      "apolog": 5702,
      "allocation": 5703,
      "innovation": 5704,
      "foresee": 5705,
      "unemploy": 5706,
      "fat": 5707,
      "##inson": 5708,
      "conting": 5709,
      "hears": 5710,
      "##ulus": 5711,
      "##ulating": 5712,
      "additionally": 5713,
      "referenced": 5714,
      "runs": 5715,
      "feels": 5716,
      "participated": 5717,
      "improving": 5718,
      "encoun": 5719,
      "dismissal": 5720,
      "allegedly": 5721,
      "managers": 5722,
      "proposals": 5723,
      "girls": 5724,
      "sensitive": 5725,
      "horr": 5726,
      "ven": 5727,
      "overcome": 5728,
      "objected": 5729,
      "engaging": 5730,
      "settle": 5731,
      "automatic": 5732,
      "spoken": 5733,
      "bes": 5734,
      "nas": 5735,
      "##etary": 5736,
      "perpet": 5737,
      "cook": 5738,
      "signing": 5739,
      "passion": 5740,
      "sufficiently": 5741,
      "functional": 5742,
      "predic": 5743,
      "discriminatory": 5744,
      "utility": 5745,
      "industrial": 5746,
      "overseas": 5747,
      "software": 5748,
      "compromise": 5749,
      "prescription": 5750,
      "pound": 5751,
      "##het": 5752,
      "stuck": 5753,
      "sued": 5754,
      "explaining": 5755,
      "promot": 5756,
      "heavy": 5757,
      "female": 5758,
      "haw": 5759,
      "##aylor": 5760,
      "bylaw": 5761,
      "estimate": 5762,
      "pak": 5763,
      "follows": 5764,
      "terminate": 5765,
      "adoption": 5766,
      "township": 5767,
      "conscious": 5768,
      "dark": 5769,
      "tv": 5770,
      "forever": 5771,
      "moral": 5772,
      "entering": 5773,
      "animals": 5774,
      "wheel": 5775,
      "scrutiny": 5776,
      "acquisition": 5777,
      "##see": 5778,
      "statistics": 5779,
      "subd": 5780,
      "departure": 5781,
      "##apping": 5782,
      "experiences": 5783,
      "replacement": 5784,
      "transmission": 5785,
      "expansion": 5786,
      "sarasota": 5787,
      "nort": 5788,
      "nations": 5789,
      "##iles": 5790,
      "overt": 5791,
      "mov": 5792,
      "thoughts": 5793,
      "circumstantial": 5794,
      "permissible": 5795,
      "contempt": 5796,
      "saturday": 5797,
      "pakistan": 5798,
      "breat": 5799,
      "##bel": 5800,
      "unan": 5801,
      "corrupt": 5802,
      "healthcare": 5803,
      "noneth": 5804,
      "characteristics": 5805,
      "journal": 5806,
      "platform": 5807,
      "louis": 5808,
      "nonetheless": 5809,
      "##bi": 5810,
      "sem": 5811,
      "remote": 5812,
      "finished": 5813,
      "speaks": 5814,
      "marketplace": 5815,
      "circuits": 5816,
      "territ": 5817,
      "articulated": 5818,
      "##down": 5819,
      "##lex": 5820,
      "unn": 5821,
      "planned": 5822,
      "mostly": 5823,
      "observed": 5824,
      "inconsist": 5825,
      "ranking": 5826,
      "advocate": 5827,
      "weigh": 5828,
      "resc": 5829,
      "conserv": 5830,
      "contracting": 5831,
      "monthly": 5832,
      "fairness": 5833,
      "prosecutors": 5834,
      "contribute": 5835,
      "premise": 5836,
      "accommodate": 5837,
      "exclude": 5838,
      "voc": 5839,
      "yield": 5840,
      "remarks": 5841,
      "roof": 5842,
      "margin": 5843,
      "desire": 5844,
      "emissions": 5845,
      "participants": 5846,
      "appearance": 5847,
      "eligibility": 5848,
      "retro": 5849,
      "digital": 5850,
      "##acting": 5851,
      "stating": 5852,
      "pays": 5853,
      "processes": 5854,
      "meets": 5855,
      "passenger": 5856,
      "controls": 5857,
      "petitioners": 5858,
      "##etera": 5859,
      "categor": 5860,
      "delivered": 5861,
      "rationale": 5862,
      "railroad": 5863,
      "deficit": 5864,
      "cetera": 5865,
      "taylor": 5866,
      "rising": 5867,
      "superint": 5868,
      "volume": 5869,
      "reflected": 5870,
      "assignment": 5871,
      "bedroom": 5872,
      "asserted": 5873,
      "##isa": 5874,
      "atm": 5875,
      "##forward": 5876,
      "##ensity": 5877,
      "invited": 5878,
      "detective": 5879,
      "limiting": 5880,
      "entertain": 5881,
      "appeared": 5882,
      "scientists": 5883,
      "suddenly": 5884,
      "##linary": 5885,
      "intellect": 5886,
      "unanim": 5887,
      "advers": 5888,
      "span": 5889,
      "incidents": 5890,
      "regulated": 5891,
      "restaur": 5892,
      "requesting": 5893,
      "centers": 5894,
      "prevention": 5895,
      "guilt": 5896,
      "messages": 5897,
      "supervised": 5898,
      "awarded": 5899,
      "vacation": 5900,
      "straightforward": 5901,
      "agricultural": 5902,
      "baby": 5903,
      "##oman": 5904,
      "##illion": 5905,
      "nowhere": 5906,
      "proved": 5907,
      "probability": 5908,
      "capability": 5909,
      "facil": 5910,
      "generate": 5911,
      "assumed": 5912,
      "sanction": 5913,
      "sophistic": 5914,
      "dur": 5915,
      "male": 5916,
      "wisc": 5917,
      "##ding": 5918,
      "##bed": 5919,
      "##areness": 5920,
      "##icut": 5921,
      "noticed": 5922,
      "preserved": 5923,
      "##onsin": 5924,
      "peters": 5925,
      "designated": 5926,
      "connecticut": 5927,
      "physicians": 5928,
      "awareness": 5929,
      "apparent": 5930,
      "enhancement": 5931,
      "controversy": 5932,
      "michael": 5933,
      "apologize": 5934,
      "wisconsin": 5935,
      "rog": 5936,
      "##iven": 5937,
      "lob": 5938,
      "perce": 5939,
      "acres": 5940,
      "repeat": 5941,
      "pornography": 5942,
      "nurse": 5943,
      "hiring": 5944,
      "pu": 5945,
      "vice": 5946,
      "enorm": 5947,
      "decade": 5948,
      "##theless": 5949,
      "crow": 5950,
      "covers": 5951,
      "nevertheless": 5952,
      "##iana": 5953,
      "recognizes": 5954,
      "implied": 5955,
      "alter": 5956,
      "cruc": 5957,
      "arguably": 5958,
      "struck": 5959,
      "boys": 5960,
      "selectmen": 5961,
      "distinguished": 5962,
      "adults": 5963,
      "##ax": 5964,
      "anderson": 5965,
      "chines": 5966,
      "arise": 5967,
      "reput": 5968,
      "##ressed": 5969,
      "charter": 5970,
      "proposing": 5971,
      "jurisdictional": 5972,
      "merit": 5973,
      "universal": 5974,
      "occurring": 5975,
      "chinese": 5976,
      "born": 5977,
      "yard": 5978,
      "##hand": 5979,
      "ath": 5980,
      "param": 5981,
      "administer": 5982,
      "deadline": 5983,
      "honestly": 5984,
      "sunday": 5985,
      "lunch": 5986,
      "zone": 5987,
      "##ipped": 5988,
      "##with": 5989,
      "##oration": 5990,
      "justified": 5991,
      "##erman": 5992,
      "afterwards": 5993,
      "viewed": 5994,
      "interpre": 5995,
      "missed": 5996,
      "balancing": 5997,
      "confirmed": 5998,
      "temperature": 5999,
      "manifest": 6000,
      "pac": 6001,
      "pushing": 6002,
      "pray": 6003,
      "##verty": 6004,
      "sees": 6005,
      "users": 6006,
      "interior": 6007,
      "features": 6008,
      "identifying": 6009,
      "mixed": 6010,
      "nursing": 6011,
      "reimbursement": 6012,
      "grievance": 6013,
      "holid": 6014,
      "marsh": 6015,
      "##iability": 6016,
      "##coming": 6017,
      "seiz": 6018,
      "trash": 6019,
      "apple": 6020,
      "accused": 6021,
      "remark": 6022,
      "carp": 6023,
      "fourteenth": 6024,
      "exciting": 6025,
      "urban": 6026,
      "hazard": 6027,
      "##rum": 6028,
      "examiner": 6029,
      "keeps": 6030,
      "modified": 6031,
      "generated": 6032,
      "supervision": 6033,
      "garage": 6034,
      "##paper": 6035,
      "depositions": 6036,
      "symptoms": 6037,
      "atmosp": 6038,
      "bless": 6039,
      "hol": 6040,
      "##oline": 6041,
      "incur": 6042,
      "argues": 6043,
      "moot": 6044,
      "examined": 6045,
      "periods": 6046,
      "errors": 6047,
      "collected": 6048,
      "battery": 6049,
      "candidate": 6050,
      "broker": 6051,
      "memorand": 6052,
      "withholding": 6053,
      "northern": 6054,
      "##anes": 6055,
      "doz": 6056,
      "dish": 6057,
      "manual": 6058,
      "placement": 6059,
      "representations": 6060,
      "broadcast": 6061,
      "copies": 6062,
      "fields": 6063,
      "##aneous": 6064,
      "constitutes": 6065,
      "constituents": 6066,
      "##enn": 6067,
      "stores": 6068,
      "poverty": 6069,
      "grass": 6070,
      "##retch": 6071,
      "presenting": 6072,
      "refund": 6073,
      "newspaper": 6074,
      "terrorism": 6075,
      "##each": 6076,
      "cry": 6077,
      "boil": 6078,
      "sites": 6079,
      "budgets": 6080,
      "drawing": 6081,
      "homeland": 6082,
      "advertise": 6083,
      "psychiat": 6084,
      "cultural": 6085,
      "rebut": 6086,
      "announced": 6087,
      "tact": 6088,
      "##ux": 6089,
      "bell": 6090,
      "asks": 6091,
      "trucks": 6092,
      "##under": 6093,
      "insist": 6094,
      "indicating": 6095,
      "organized": 6096,
      "acceptable": 6097,
      "creative": 6098,
      "image": 6099,
      "distribute": 6100,
      "inventory": 6101,
      "update": 6102,
      "harassment": 6103,
      "burglary": 6104,
      "rand": 6105,
      "vul": 6106,
      "stretch": 6107,
      "unw": 6108,
      "##uctions": 6109,
      "indirect": 6110,
      "accessible": 6111,
      "minds": 6112,
      "multi": 6113,
      "describes": 6114,
      "firms": 6115,
      "mutual": 6116,
      "tree": 6117,
      "##fall": 6118,
      "##cc": 6119,
      "##anor": 6120,
      "spouse": 6121,
      "publicly": 6122,
      "arrived": 6123,
      "discover": 6124,
      "teams": 6125,
      "appointment": 6126,
      "estimated": 6127,
      "fly": 6128,
      "jap": 6129,
      "##erving": 6130,
      "inch": 6131,
      "interstate": 6132,
      "interrog": 6133,
      "beneficial": 6134,
      "handled": 6135,
      "racial": 6136,
      "finger": 6137,
      "cycle": 6138,
      "unqu": 6139,
      "impeach": 6140,
      "##ensions": 6141,
      "strange": 6142,
      "answering": 6143,
      "acceptance": 6144,
      "##ervations": 6145,
      "structures": 6146,
      "gentlemen": 6147,
      "selected": 6148,
      "subdiv": 6149,
      "dad": 6150,
      "sum": 6151,
      "resulting": 6152,
      "impr": 6153,
      "lawful": 6154,
      "##load": 6155,
      "deserve": 6156,
      "elsewhere": 6157,
      "barred": 6158,
      "institute": 6159,
      "surprised": 6160,
      "homeowners": 6161,
      "pill": 6162,
      "tight": 6163,
      "##iest": 6164,
      "##iency": 6165,
      "cast": 6166,
      "compel": 6167,
      "wanting": 6168,
      "columb": 6169,
      "tennes": 6170,
      "lock": 6171,
      "players": 6172,
      "expectations": 6173,
      "lights": 6174,
      "negotiated": 6175,
      "boxes": 6176,
      "crucial": 6177,
      "tennessee": 6178,
      "mile": 6179,
      "##gs": 6180,
      "##zz": 6181,
      "forfe": 6182,
      "chase": 6183,
      "outset": 6184,
      "overl": 6185,
      "governmental": 6186,
      "investigating": 6187,
      "distributed": 6188,
      "calculated": 6189,
      "engineers": 6190,
      "veteran": 6191,
      "unnecess": 6192,
      "##uing": 6193,
      "##icks": 6194,
      "##orders": 6195,
      "joined": 6196,
      "carried": 6197,
      "producing": 6198,
      "judgments": 6199,
      "expression": 6200,
      "computers": 6201,
      "campus": 6202,
      "divor": 6203,
      "scheduled": 6204,
      "kenned": 6205,
      "intervention": 6206,
      "han": 6207,
      "ped": 6208,
      "rig": 6209,
      "reaction": 6210,
      "sequ": 6211,
      "trau": 6212,
      "##abl": 6213,
      "actively": 6214,
      "saving": 6215,
      "offset": 6216,
      "coff": 6217,
      "discount": 6218,
      "detain": 6219,
      "problematic": 6220,
      "violating": 6221,
      "dispos": 6222,
      "operational": 6223,
      "relev": 6224,
      "distur": 6225,
      "disagreement": 6226,
      "glass": 6227,
      "bargain": 6228,
      "memorial": 6229,
      "waters": 6230,
      "kennedy": 6231,
      "taught": 6232,
      "vend": 6233,
      "juven": 6234,
      "##trial": 6235,
      "enacted": 6236,
      "manip": 6237,
      "expanding": 6238,
      "score": 6239,
      "counseling": 6240,
      "methods": 6241,
      "improperly": 6242,
      "struggle": 6243,
      "frequently": 6244,
      "dramatically": 6245,
      "inn": 6246,
      "implicit": 6247,
      "incar": 6248,
      "consensus": 6249,
      "pretrial": 6250,
      "grid": 6251,
      "accountable": 6252,
      "structural": 6253,
      "religion": 6254,
      "torture": 6255,
      "firearms": 6256,
      "aggressive": 6257,
      "superintendent": 6258,
      "epa": 6259,
      "abused": 6260,
      "feas": 6261,
      "objectively": 6262,
      "returns": 6263,
      "voluntarily": 6264,
      "announce": 6265,
      "bother": 6266,
      "##istry": 6267,
      "##ille": 6268,
      "expired": 6269,
      "alleging": 6270,
      "blind": 6271,
      "prosecuted": 6272,
      "financing": 6273,
      "farmer": 6274,
      "purchas": 6275,
      "managing": 6276,
      "engineer": 6277,
      "arbitrary": 6278,
      "volunteers": 6279,
      "hearsay": 6280,
      "dates": 6281,
      "kick": 6282,
      "kitch": 6283,
      "lying": 6284,
      "rural": 6285,
      "##itr": 6286,
      "##acc": 6287,
      "everywhere": 6288,
      "firef": 6289,
      "stayed": 6290,
      "gasoline": 6291,
      "contains": 6292,
      "obligated": 6293,
      "curious": 6294,
      "stipulation": 6295,
      "carrier": 6296,
      "sophisticated": 6297,
      "vulner": 6298,
      "jim": 6299,
      "upset": 6300,
      "driven": 6301,
      "edge": 6302,
      "responses": 6303,
      "proffer": 6304,
      "maintained": 6305,
      "preparing": 6306,
      "mistakes": 6307,
      "disciplinary": 6308,
      "picking": 6309,
      "nutr": 6310,
      "incarcer": 6311,
      "lad": 6312,
      "##ham": 6313,
      "reward": 6314,
      "indif": 6315,
      "schol": 6316,
      "protective": 6317,
      "conducting": 6318,
      "prevented": 6319,
      "harv": 6320,
      "pilot": 6321,
      "memorandum": 6322,
      "eat": 6323,
      "kent": 6324,
      "kansas": 6325,
      "rain": 6326,
      "weak": 6327,
      "commissions": 6328,
      "wherever": 6329,
      "concurr": 6330,
      "classified": 6331,
      "mississ": 6332,
      "successfully": 6333,
      "negotiate": 6334,
      "tribe": 6335,
      "##after": 6336,
      "windows": 6337,
      "graduate": 6338,
      "virtue": 6339,
      "inherent": 6340,
      "enormous": 6341,
      "##gers": 6342,
      "##ateful": 6343,
      "trillion": 6344,
      "paral": 6345,
      "individually": 6346,
      "retired": 6347,
      "improved": 6348,
      "##apped": 6349,
      "declarations": 6350,
      "unclear": 6351,
      "clarification": 6352,
      "bias": 6353,
      "##ippi": 6354,
      "feedback": 6355,
      "photographs": 6356,
      "ticket": 6357,
      "maryland": 6358,
      "renov": 6359,
      "##ableness": 6360,
      "mississippi": 6361,
      "##iating": 6362,
      "##ouri": 6363,
      "billions": 6364,
      "calend": 6365,
      "impacted": 6366,
      "missouri": 6367,
      "shoes": 6368,
      "##board": 6369,
      "historically": 6370,
      "incentives": 6371,
      "sustainable": 6372,
      "strictly": 6373,
      "pursuing": 6374,
      "nurses": 6375,
      "independently": 6376,
      "purely": 6377,
      "stimulus": 6378,
      "shore": 6379,
      "##odes": 6380,
      "##ealth": 6381,
      "irs": 6382,
      "implementing": 6383,
      "preparation": 6384,
      "baseball": 6385,
      "psychological": 6386,
      "negligent": 6387,
      "manufacturers": 6388,
      "sample": 6389,
      "correction": 6390,
      "fabric": 6391,
      "assembly": 6392,
      "louisiana": 6393,
      "din": 6394,
      "paint": 6395,
      "wed": 6396,
      "welf": 6397,
      "committing": 6398,
      "moves": 6399,
      "boat": 6400,
      "serves": 6401,
      "prosecute": 6402,
      "misunder": 6403,
      "separation": 6404,
      "breaking": 6405,
      "losses": 6406,
      "corporations": 6407,
      "traveling": 6408,
      "subsequently": 6409,
      "deeply": 6410,
      "shifting": 6411,
      "dropped": 6412,
      "welfare": 6413,
      "cab": 6414,
      "confer": 6415,
      "frustr": 6416,
      "transf": 6417,
      "handling": 6418,
      "explore": 6419,
      "submission": 6420,
      "burdens": 6421,
      "superior": 6422,
      "accordance": 6423,
      "mistaken": 6424,
      "survive": 6425,
      "drafted": 6426,
      "spectrum": 6427,
      "professor": 6428,
      "electrical": 6429,
      "cul": 6430,
      "ru": 6431,
      "##well": 6432,
      "##stone": 6433,
      "##ett": 6434,
      "##lder": 6435,
      "suicide": 6436,
      "moreover": 6437,
      "prescrib": 6438,
      "relation": 6439,
      "##ountain": 6440,
      "complained": 6441,
      "affirmed": 6442,
      "manufacturer": 6443,
      "opponent": 6444,
      "grew": 6445,
      "##late": 6446,
      "##aling": 6447,
      "outstanding": 6448,
      "imposing": 6449,
      "grown": 6450,
      "planet": 6451,
      "definitions": 6452,
      "variance": 6453,
      "broadly": 6454,
      "preponder": 6455,
      "constantly": 6456,
      "transparency": 6457,
      "atmosphere": 6458,
      "##arian": 6459,
      "quot": 6460,
      "perception": 6461,
      "defenses": 6462,
      "wrongful": 6463,
      "barre": 6464,
      "licenses": 6465,
      "domain": 6466,
      "regularly": 6467,
      "recycling": 6468,
      "dimin": 6469,
      "mountain": 6470,
      "##eper": 6471,
      "stability": 6472,
      "##aming": 6473,
      "disorder": 6474,
      "workplace": 6475,
      "preservation": 6476,
      "misd": 6477,
      "falling": 6478,
      "continuous": 6479,
      "surprise": 6480,
      "expenditures": 6481,
      "preponderance": 6482,
      "##inct": 6483,
      "whoever": 6484,
      "##cuff": 6485,
      "##ogue": 6486,
      "holds": 6487,
      "supposedly": 6488,
      "professionals": 6489,
      "attacks": 6490,
      "expanded": 6491,
      "george": 6492,
      "eyes": 6493,
      "precluded": 6494,
      "jeff": 6495,
      "shelter": 6496,
      "hud": 6497,
      "##ington": 6498,
      "notwith": 6499,
      "mobile": 6500,
      "understands": 6501,
      "royal": 6502,
      "threatening": 6503,
      "executed": 6504,
      "encouraging": 6505,
      "photos": 6506,
      "machines": 6507,
      "contested": 6508,
      "intellectual": 6509,
      "calendar": 6510,
      "notwithstanding": 6511,
      "bare": 6512,
      "##ipping": 6513,
      "##mond": 6514,
      "##bre": 6515,
      "##erpt": 6516,
      "##icious": 6517,
      "reloc": 6518,
      "noise": 6519,
      "exposed": 6520,
      "propose": 6521,
      "excerpt": 6522,
      "competent": 6523,
      "promised": 6524,
      "investigations": 6525,
      "strategies": 6526,
      "walker": 6527,
      "diagnosis": 6528,
      "intervene": 6529,
      "tolling": 6530,
      "habitat": 6531,
      "bay": 6532,
      "##essions": 6533,
      "##amation": 6534,
      "##aware": 6535,
      "contrast": 6536,
      "relies": 6537,
      "programming": 6538,
      "authorize": 6539,
      "hardship": 6540,
      "furthermore": 6541,
      "barn": 6542,
      "fulfill": 6543,
      "##azy": 6544,
      "inmates": 6545,
      "convey": 6546,
      "seizure": 6547,
      "##nch": 6548,
      "partial": 6549,
      "brady": 6550,
      "grab": 6551,
      "exped": 6552,
      "marks": 6553,
      "inspir": 6554,
      "##ocol": 6555,
      "admissible": 6556,
      "invested": 6557,
      "modify": 6558,
      "iran": 6559,
      "totality": 6560,
      "consultation": 6561,
      "eye": 6562,
      "rendered": 6563,
      "crowd": 6564,
      "athlet": 6565,
      "dip": 6566,
      "vary": 6567,
      "##po": 6568,
      "stabil": 6569,
      "ange": 6570,
      "twent": 6571,
      "tested": 6572,
      "presents": 6573,
      "developer": 6574,
      "voter": 6575,
      "describing": 6576,
      "conflicts": 6577,
      "exclusively": 6578,
      "inherently": 6579,
      "tape": 6580,
      "treasury": 6581,
      "kitchen": 6582,
      "gift": 6583,
      "thor": 6584,
      "##aska": 6585,
      "ham": 6586,
      "conform": 6587,
      "canada": 6588,
      "lied": 6589,
      "interm": 6590,
      "interaction": 6591,
      "availability": 6592,
      "granting": 6593,
      "heads": 6594,
      "arms": 6595,
      "contacted": 6596,
      "logic": 6597,
      "destr": 6598,
      "inferences": 6599,
      "dramatic": 6600,
      "dyn": 6601,
      "##aff": 6602,
      "##umpt": 6603,
      "theor": 6604,
      "##eds": 6605,
      "##key": 6606,
      "orient": 6607,
      "arises": 6608,
      "grateful": 6609,
      "managed": 6610,
      "distress": 6611,
      "##aret": 6612,
      "parole": 6613,
      "plane": 6614,
      "colleg": 6615,
      "complied": 6616,
      "handcuff": 6617,
      "constitutionally": 6618,
      "prompt": 6619,
      "farming": 6620,
      "felon": 6621,
      "football": 6622,
      "popular": 6623,
      "wilson": 6624,
      "gender": 6625,
      "##tieth": 6626,
      "##lord": 6627,
      "stood": 6628,
      "champ": 6629,
      "adjud": 6630,
      "##ipts": 6631,
      "##eping": 6632,
      "##uesday": 6633,
      "captain": 6634,
      "senators": 6635,
      "checked": 6636,
      "kel": 6637,
      "tuesday": 6638,
      "wise": 6639,
      "##lim": 6640,
      "##asion": 6641,
      "doors": 6642,
      "subsection": 6643,
      "bob": 6644,
      "deter": 6645,
      "materiality": 6646,
      "analyzed": 6647,
      "destroyed": 6648,
      "delegation": 6649,
      "dialogue": 6650,
      "rehabilitation": 6651,
      "reputation": 6652,
      "alex": 6653,
      "extern": 6654,
      "##acing": 6655,
      "enem": 6656,
      "recol": 6657,
      "rulings": 6658,
      "entirety": 6659,
      "infect": 6660,
      "##incing": 6661,
      "demonstrates": 6662,
      "bonds": 6663,
      "abandoned": 6664,
      "relevance": 6665,
      "ram": 6666,
      "##uits": 6667,
      "##anda": 6668,
      "clark": 6669,
      "deficient": 6670,
      "overtime": 6671,
      "speculative": 6672,
      "violates": 6673,
      "observation": 6674,
      "deadly": 6675,
      "initiatives": 6676,
      "quantity": 6677,
      "strikes": 6678,
      "patrol": 6679,
      "landscape": 6680,
      "rub": 6681,
      "##life": 6682,
      "##ented": 6683,
      "##icking": 6684,
      "abus": 6685,
      "reasonableness": 6686,
      "admits": 6687,
      "classic": 6688,
      "approached": 6689,
      "suspended": 6690,
      "colorado": 6691,
      "drinking": 6692,
      "dynam": 6693,
      "faster": 6694,
      "song": 6695,
      "tiny": 6696,
      "##uild": 6697,
      "##da": 6698,
      "##pass": 6699,
      "inade": 6700,
      "solicit": 6701,
      "thereafter": 6702,
      "##ictions": 6703,
      "invite": 6704,
      "assure": 6705,
      "letting": 6706,
      "minister": 6707,
      "investing": 6708,
      "flu": 6709,
      "presidential": 6710,
      "accepting": 6711,
      "massive": 6712,
      "steel": 6713,
      "mexican": 6714,
      "appellate": 6715,
      "wearing": 6716,
      "inadequ": 6717,
      "bath": 6718,
      "tries": 6719,
      "timeline": 6720,
      "addiction": 6721,
      "fox": 6722,
      "jurors": 6723,
      "confession": 6724,
      "lane": 6725,
      "convincing": 6726,
      "enforced": 6727,
      "participant": 6728,
      "staffing": 6729,
      "comparable": 6730,
      "ensuring": 6731,
      "##ographic": 6732,
      "accomplished": 6733,
      "assertion": 6734,
      "independence": 6735,
      "recruit": 6736,
      "unemployment": 6737,
      "fits": 6738,
      "gre": 6739,
      "theories": 6740,
      "habe": 6741,
      "stol": 6742,
      "nov": 6743,
      "teen": 6744,
      "reliability": 6745,
      "##ounded": 6746,
      "contam": 6747,
      "certainty": 6748,
      "confident": 6749,
      "landlord": 6750,
      "airlines": 6751,
      "attempts": 6752,
      "licensed": 6753,
      "beneficiary": 6754,
      "columbia": 6755,
      "thorough": 6756,
      "census": 6757,
      "lucky": 6758,
      "##sa": 6759,
      "nex": 6760,
      "questioned": 6761,
      "signature": 6762,
      "moder": 6763,
      "entitlement": 6764,
      "portions": 6765,
      "pleadings": 6766,
      "engagement": 6767,
      "exhibits": 6768,
      "articulate": 6769,
      "industries": 6770,
      "adjudic": 6771,
      "habeas": 6772,
      "dump": 6773,
      "hurr": 6774,
      "##organ": 6775,
      "##anger": 6776,
      "##eters": 6777,
      "shell": 6778,
      "sheet": 6779,
      "interference": 6780,
      "regime": 6781,
      "establishing": 6782,
      "##ompass": 6783,
      "functioning": 6784,
      "preempt": 6785,
      "analogy": 6786,
      "arrangement": 6787,
      "theoret": 6788,
      "fant": 6789,
      "##outh": 6790,
      "novel": 6791,
      "intim": 6792,
      "interf": 6793,
      "repr": 6794,
      "##ocation": 6795,
      "advised": 6796,
      "permitting": 6797,
      "waited": 6798,
      "encompass": 6799,
      "topics": 6800,
      "antitr": 6801,
      "interviews": 6802,
      "uncertainty": 6803,
      "pacific": 6804,
      "unnecessary": 6805,
      "antitrust": 6806,
      "##gment": 6807,
      "##com": 6808,
      "##ander": 6809,
      "proving": 6810,
      "reviews": 6811,
      "demands": 6812,
      "deliberately": 6813,
      "dedication": 6814,
      "warming": 6815,
      "disparity": 6816,
      "territory": 6817,
      "##iqu": 6818,
      "##mas": 6819,
      "##erry": 6820,
      "##essel": 6821,
      "##urning": 6822,
      "sea": 6823,
      "suff": 6824,
      "wells": 6825,
      "overlo": 6826,
      "operated": 6827,
      "farms": 6828,
      "paperwork": 6829,
      "richard": 6830,
      "hostile": 6831,
      "conservative": 6832,
      "colleges": 6833,
      "hate": 6834,
      "##fol": 6835,
      "##eing": 6836,
      "thurs": 6837,
      "##isher": 6838,
      "##oma": 6839,
      "loved": 6840,
      "individualized": 6841,
      "formed": 6842,
      "oppose": 6843,
      "weekend": 6844,
      "affecting": 6845,
      "exercising": 6846,
      "diet": 6847,
      "domin": 6848,
      "##riend": 6849,
      "instrument": 6850,
      "recollection": 6851,
      "thursday": 6852,
      "aim": 6853,
      "fest": 6854,
      "fence": 6855,
      "samp": 6856,
      "tun": 6857,
      "ye": 6858,
      "##ses": 6859,
      "##ville": 6860,
      "##ze": 6861,
      "##ald": 6862,
      "shots": 6863,
      "##actor": 6864,
      "reservation": 6865,
      "unequ": 6866,
      "pertain": 6867,
      "defines": 6868,
      "auto": 6869,
      "shopping": 6870,
      "methodology": 6871,
      "silent": 6872,
      "anticipated": 6873,
      "conventional": 6874,
      "licensing": 6875,
      "ample": 6876,
      "dinner": 6877,
      "stolen": 6878,
      "ca": 6879,
      "loud": 6880,
      "russ": 6881,
      "upper": 6882,
      "viable": 6883,
      "##my": 6884,
      "##stream": 6885,
      "quiet": 6886,
      "incomp": 6887,
      "affil": 6888,
      "stops": 6889,
      "integrated": 6890,
      "##rais": 6891,
      "flexible": 6892,
      "override": 6893,
      "implications": 6894,
      "roberts": 6895,
      "pleasure": 6896,
      "besides": 6897,
      "juvenile": 6898,
      "hurric": 6899,
      "pricing": 6900,
      "steal": 6901,
      "corners": 6902,
      "monetary": 6903,
      "applicants": 6904,
      "erred": 6905,
      "slide": 6906,
      "##holder": 6907,
      "firefigh": 6908,
      "misdeme": 6909,
      "nexus": 6910,
      "jes": 6911,
      "##nown": 6912,
      "##known": 6913,
      "##iture": 6914,
      "##ann": 6915,
      "stamp": 6916,
      "chronic": 6917,
      "intersection": 6918,
      "pregn": 6919,
      "specified": 6920,
      "protocol": 6921,
      "capabilities": 6922,
      "explains": 6923,
      "contributed": 6924,
      "oreg": 6925,
      "vessel": 6926,
      "##gun": 6927,
      "##ob": 6928,
      "##kers": 6929,
      "evol": 6930,
      "interrupt": 6931,
      "parcel": 6932,
      "symp": 6933,
      "patents": 6934,
      "receiver": 6935,
      "faces": 6936,
      "waive": 6937,
      "qualifications": 6938,
      "technically": 6939,
      "medications": 6940,
      "models": 6941,
      "supervisors": 6942,
      "litigated": 6943,
      "forgot": 6944,
      "therapy": 6945,
      "incurred": 6946,
      "oregon": 6947,
      "ec": 6948,
      "##reach": 6949,
      "offenders": 6950,
      "crazy": 6951,
      "bases": 6952,
      "repay": 6953,
      "repeal": 6954,
      "avo": 6955,
      "covering": 6956,
      "citizenship": 6957,
      "unfortunate": 6958,
      "homeless": 6959,
      "divided": 6960,
      "concentr": 6961,
      "innoc": 6962,
      "garden": 6963,
      "german": 6964,
      "ride": 6965,
      "##ulty": 6966,
      "unknown": 6967,
      "thirtieth": 6968,
      "faculty": 6969,
      "educate": 6970,
      "declined": 6971,
      "preventing": 6972,
      "safely": 6973,
      "contemplated": 6974,
      "clinical": 6975,
      "supplies": 6976,
      "external": 6977,
      "innocence": 6978,
      "elder": 6979,
      "furn": 6980,
      "institutional": 6981,
      "##ivoc": 6982,
      "baseline": 6983,
      "##elle": 6984,
      "feature": 6985,
      "remained": 6986,
      "phones": 6987,
      "dealer": 6988,
      "suppress": 6989,
      "flaw": 6990,
      "nonp": 6991,
      "curricul": 6992,
      "connections": 6993,
      "degrees": 6994,
      "cells": 6995,
      "inspector": 6996,
      "fortunate": 6997,
      "nasa": 6998,
      "coffee": 6999,
      "transfers": 7000,
      "sessions": 7001,
      "##vin": 7002,
      "##inite": 7003,
      "inability": 7004,
      "concess": 7005,
      "##ivation": 7006,
      "desk": 7007,
      "smoking": 7008,
      "situated": 7009,
      "briefed": 7010,
      "##craft": 7011,
      "necessity": 7012,
      "advise": 7013,
      "irr": 7014,
      "unrelated": 7015,
      "revis": 7016,
      "magistr": 7017,
      "inmate": 7018,
      "replaced": 7019,
      "pitt": 7020,
      "till": 7021,
      "##nic": 7022,
      "##we": 7023,
      "##wealth": 7024,
      "##tent": 7025,
      "##ha": 7026,
      "discour": 7027,
      "drove": 7028,
      "passes": 7029,
      "refuse": 7030,
      "arts": 7031,
      "fewer": 7032,
      "commonwealth": 7033,
      "promoting": 7034,
      "evaluated": 7035,
      "exhaustion": 7036,
      "clinic": 7037,
      "robert": 7038,
      "launch": 7039,
      "hawai": 7040,
      "vocational": 7041,
      "interpreting": 7042,
      "cryst": 7043,
      "diction": 7044,
      "congr": 7045,
      "##outs": 7046,
      "##acies": 7047,
      "##gry": 7048,
      "refin": 7049,
      "embr": 7050,
      "documented": 7051,
      "facebook": 7052,
      "rooms": 7053,
      "devast": 7054,
      "investigated": 7055,
      "##aneously": 7056,
      "stopping": 7057,
      "bullet": 7058,
      "awards": 7059,
      "hind": 7060,
      "rose": 7061,
      "##ris": 7062,
      "##night": 7063,
      "coup": 7064,
      "##opard": 7065,
      "cloth": 7066,
      "lee": 7067,
      "##inton": 7068,
      "crash": 7069,
      "##ensively": 7070,
      "memo": 7071,
      "promises": 7072,
      "favorite": 7073,
      "execution": 7074,
      "restrictive": 7075,
      "escal": 7076,
      "capture": 7077,
      "beneficiaries": 7078,
      "pounds": 7079,
      "kentucky": 7080,
      "du": 7081,
      "ease": 7082,
      "nomin": 7083,
      "##uate": 7084,
      "##mark": 7085,
      "compact": 7086,
      "governing": 7087,
      "sometime": 7088,
      "guest": 7089,
      "scott": 7090,
      "trials": 7091,
      "investor": 7092,
      "handed": 7093,
      "broadband": 7094,
      "assessments": 7095,
      "universities": 7096,
      "suspension": 7097,
      "calculate": 7098,
      "mcc": 7099,
      "emphasis": 7100,
      "subsidies": 7101,
      "christmas": 7102,
      "residual": 7103,
      "bodies": 7104,
      "veto": 7105,
      "bow": 7106,
      "lady": 7107,
      "ray": 7108,
      "##gen": 7109,
      "##ki": 7110,
      "##ench": 7111,
      "inacc": 7112,
      "##idden": 7113,
      "##olic": 7114,
      "##rof": 7115,
      "detained": 7116,
      "greatly": 7117,
      "purported": 7118,
      "complet": 7119,
      "neglect": 7120,
      "figures": 7121,
      "illegally": 7122,
      "motivated": 7123,
      "utilize": 7124,
      "gathering": 7125,
      "confronted": 7126,
      "minimal": 7127,
      "inaccur": 7128,
      "##la": 7129,
      "##celer": 7130,
      "conj": 7131,
      "consec": 7132,
      "acceler": 7133,
      "defending": 7134,
      "scores": 7135,
      "congressman": 7136,
      "realistic": 7137,
      "generations": 7138,
      "iron": 7139,
      "sexually": 7140,
      "confirmation": 7141,
      "magaz": 7142,
      "philos": 7143,
      "##works": 7144,
      "venue": 7145,
      "inadequate": 7146,
      "magistrate": 7147,
      "consecut": 7148,
      "cig": 7149,
      "##mon": 7150,
      "##ena": 7151,
      "soil": 7152,
      "abortion": 7153,
      "scar": 7154,
      "eastern": 7155,
      "optim": 7156,
      "investigator": 7157,
      "exercised": 7158,
      "pleaded": 7159,
      "audit": 7160,
      "narrowly": 7161,
      "utilities": 7162,
      "occurrence": 7163,
      "tie": 7164,
      "theft": 7165,
      "alive": 7166,
      "demol": 7167,
      "metal": 7168,
      "breaks": 7169,
      "illustr": 7170,
      "visual": 7171,
      "democrat": 7172,
      "pulling": 7173,
      "linked": 7174,
      "##claim": 7175,
      "heroin": 7176,
      "holiday": 7177,
      "subdivision": 7178,
      "twentieth": 7179,
      "ble": 7180,
      "cum": 7181,
      "dna": 7182,
      "hang": 7183,
      "ij": 7184,
      "nar": 7185,
      "##fl": 7186,
      "##sbur": 7187,
      "##comes": 7188,
      "knoc": 7189,
      "ours": 7190,
      "decline": 7191,
      "server": 7192,
      "proceeded": 7193,
      "blow": 7194,
      "specialist": 7195,
      "difficulties": 7196,
      "nationwide": 7197,
      "characterization": 7198,
      "mathem": 7199,
      "jeopard": 7200,
      "mitigating": 7201,
      "imprison": 7202,
      "congrat": 7203,
      "mouth": 7204,
      "##front": 7205,
      "##isons": 7206,
      "hamp": 7207,
      "##amine": 7208,
      "##iel": 7209,
      "factually": 7210,
      "appealed": 7211,
      "balanced": 7212,
      "adjustments": 7213,
      "guaranteed": 7214,
      "withdrawal": 7215,
      "premiums": 7216,
      "dot": 7217,
      "jew": 7218,
      "lender": 7219,
      "tip": 7220,
      "##icked": 7221,
      "saved": 7222,
      "usual": 7223,
      "drain": 7224,
      "depression": 7225,
      "detr": 7226,
      "operates": 7227,
      "trustees": 7228,
      "videos": 7229,
      "lowest": 7230,
      "prisoner": 7231,
      "mcd": 7232,
      "screening": 7233,
      "micr": 7234,
      "nutrition": 7235,
      "yellow": 7236,
      "pin": 7237,
      "franch": 7238,
      "arising": 7239,
      "carri": 7240,
      "circle": 7241,
      "exceptional": 7242,
      "checking": 7243,
      "airpl": 7244,
      "recovered": 7245,
      "validity": 7246,
      "mortgages": 7247,
      "throwing": 7248,
      "retained": 7249,
      "collaboration": 7250,
      "celebrate": 7251,
      "biological": 7252,
      "perpetr": 7253,
      "destruction": 7254,
      "dim": 7255,
      "mur": 7256,
      "row": 7257,
      "tu": 7258,
      "reiter": 7259,
      "stone": 7260,
      "anx": 7261,
      "excus": 7262,
      "commend": 7263,
      "##inez": 7264,
      "strip": 7265,
      "killing": 7266,
      "acquired": 7267,
      "proxim": 7268,
      "philosoph": 7269,
      "dup": 7270,
      "##ey": 7271,
      "imped": 7272,
      "##eman": 7273,
      "interfer": 7274,
      "##apse": 7275,
      "thrown": 7276,
      "contend": 7277,
      "courage": 7278,
      "##fficiency": 7279,
      "projected": 7280,
      "convince": 7281,
      "thirds": 7282,
      "holder": 7283,
      "cooperate": 7284,
      "brothers": 7285,
      "scholars": 7286,
      "##ca": 7287,
      "##bl": 7288,
      "##kin": 7289,
      "clot": 7290,
      "groc": 7291,
      "graph": 7292,
      "smoke": 7293,
      "patri": 7294,
      "england": 7295,
      "hourly": 7296,
      "broke": 7297,
      "namely": 7298,
      "prejudiced": 7299,
      "robinson": 7300,
      "greenhouse": 7301,
      "confrontation": 7302,
      "deprivation": 7303,
      "corruption": 7304,
      "parameters": 7305,
      "intimid": 7306,
      "buc": 7307,
      "##anks": 7308,
      "hair": 7309,
      "commod": 7310,
      "craft": 7311,
      "extending": 7312,
      "involunt": 7313,
      "establishes": 7314,
      "harmed": 7315,
      "jurisdictions": 7316,
      "approaches": 7317,
      "##iciencies": 7318,
      "structured": 7319,
      "prisoners": 7320,
      "shares": 7321,
      "rebuild": 7322,
      "preclude": 7323,
      "proximity": 7324,
      "auction": 7325,
      "bike": 7326,
      "dance": 7327,
      "mac": 7328,
      "rating": 7329,
      "rape": 7330,
      "ske": 7331,
      "void": 7332,
      "##ms": 7333,
      "##just": 7334,
      "##irt": 7335,
      "docket": 7336,
      "abet": 7337,
      "load": 7338,
      "clinton": 7339,
      "quoting": 7340,
      "plate": 7341,
      "accus": 7342,
      "simult": 7343,
      "admissions": 7344,
      "##ologist": 7345,
      "merch": 7346,
      "secrets": 7347,
      "clarity": 7348,
      "interviewed": 7349,
      "incorporate": 7350,
      "remarkable": 7351,
      "dictionary": 7352,
      "##ky": 7353,
      "##aly": 7354,
      "##asc": 7355,
      "##antly": 7356,
      "actor": 7357,
      "##berg": 7358,
      "drunk": 7359,
      "endor": 7360,
      "runway": 7361,
      "collecting": 7362,
      "execute": 7363,
      "##insured": 7364,
      "audio": 7365,
      "presume": 7366,
      "martinez": 7367,
      "malicious": 7368,
      "remanded": 7369,
      "stipulated": 7370,
      "preferred": 7371,
      "escape": 7372,
      "impairment": 7373,
      "overturn": 7374,
      "bathroom": 7375,
      "curriculum": 7376,
      "carriers": 7377,
      "##bac": 7378,
      "reorgan": 7379,
      "##lel": 7380,
      "congest": 7381,
      "##illed": 7382,
      "enable": 7383,
      "underne": 7384,
      "subcon": 7385,
      "deport": 7386,
      "corrections": 7387,
      "commissioners": 7388,
      "subjected": 7389,
      "staying": 7390,
      "mandated": 7391,
      "obtaining": 7392,
      "plainly": 7393,
      "eliminated": 7394,
      "persuasive": 7395,
      "convenience": 7396,
      "horse": 7397,
      "kelly": 7398,
      "underneath": 7399,
      "subcontr": 7400,
      "oath": 7401,
      "##rig": 7402,
      "##ba": 7403,
      "hell": 7404,
      "trick": 7405,
      "compelled": 7406,
      "##umn": 7407,
      "universe": 7408,
      "##text": 7409,
      "##ordination": 7410,
      "shoulder": 7411,
      "medium": 7412,
      "surge": 7413,
      "investigators": 7414,
      "contacts": 7415,
      "characterize": 7416,
      "troubling": 7417,
      "accurately": 7418,
      "touched": 7419,
      "wishes": 7420,
      "magic": 7421,
      "pushed": 7422,
      "lengthy": 7423,
      "anticipate": 7424,
      "prevailing": 7425,
      "pollution": 7426,
      "pipeline": 7427,
      "consolidated": 7428,
      "disappear": 7429,
      "decrease": 7430,
      "vulnerable": 7431,
      "tens": 7432,
      "oftent": 7433,
      "shoc": 7434,
      "alab": 7435,
      "quo": 7436,
      "underwr": 7437,
      "##aping": 7438,
      "finder": 7439,
      "payroll": 7440,
      "bump": 7441,
      "petitions": 7442,
      "earned": 7443,
      "portfol": 7444,
      "purchasing": 7445,
      "skin": 7446,
      "squarely": 7447,
      "discharged": 7448,
      "estimates": 7449,
      "trailer": 7450,
      "intervening": 7451,
      "defeat": 7452,
      "movie": 7453,
      "duration": 7454,
      "crystal": 7455,
      "cigaret": 7456,
      "oftentimes": 7457,
      "aiding": 7458,
      "bol": 7459,
      "van": 7460,
      "##lation": 7461,
      "prime": 7462,
      "##atell": 7463,
      "outdo": 7464,
      "unders": 7465,
      "index": 7466,
      "indef": 7467,
      "readily": 7468,
      "experiment": 7469,
      "plays": 7470,
      "encouraged": 7471,
      "introduction": 7472,
      "revolution": 7473,
      "panels": 7474,
      "divide": 7475,
      "progressive": 7476,
      "##burg": 7477,
      "richmond": 7478,
      "triggered": 7479,
      "categorical": 7480,
      "restaurant": 7481,
      "sympath": 7482,
      "alabama": 7483,
      "diverse": 7484,
      "ps": 7485,
      "pod": 7486,
      "tank": 7487,
      "##mer": 7488,
      "##matic": 7489,
      "##atr": 7490,
      "##ica": 7491,
      "##ilton": 7492,
      "returning": 7493,
      "##while": 7494,
      "establishment": 7495,
      "salv": 7496,
      "harmful": 7497,
      "crossing": 7498,
      "concepts": 7499,
      "urg": 7500,
      "delayed": 7501,
      "surprising": 7502,
      "academy": 7503,
      "lifet": 7504,
      "deprived": 7505,
      "disappoint": 7506,
      "pittsbur": 7507,
      "bail": 7508,
      "ties": 7509,
      "##iety": 7510,
      "##uous": 7511,
      "wet": 7512,
      "style": 7513,
      "upgr": 7514,
      "pretext": 7515,
      "ideal": 7516,
      "feder": 7517,
      "billing": 7518,
      "developers": 7519,
      "objectives": 7520,
      "morgan": 7521,
      "respondents": 7522,
      "searching": 7523,
      "moments": 7524,
      "restraint": 7525,
      "paragraphs": 7526,
      "southwest": 7527,
      "radical": 7528,
      "affidavits": 7529,
      "diseases": 7530,
      "tickets": 7531,
      "conjunction": 7532,
      "pittsburgh": 7533,
      "nom": 7534,
      "pace": 7535,
      "satell": 7536,
      "thomp": 7537,
      "notices": 7538,
      "##ivol": 7539,
      "##agon": 7540,
      "scan": 7541,
      "determines": 7542,
      "simpl": 7543,
      "walks": 7544,
      "posted": 7545,
      "##amphet": 7546,
      "communicated": 7547,
      "combine": 7548,
      "compensated": 7549,
      "watched": 7550,
      "methamphet": 7551,
      "premises": 7552,
      "achieved": 7553,
      "innovative": 7554,
      "undermine": 7555,
      "montana": 7556,
      "unanimous": 7557,
      "divorce": 7558,
      "##umptions": 7559,
      "##iques": 7560,
      "fbi": 7561,
      "##inced": 7562,
      "ang": 7563,
      "franc": 7564,
      "frivol": 7565,
      "casino": 7566,
      "##uels": 7567,
      "consumption": 7568,
      "##apol": 7569,
      "considerable": 7570,
      "capit": 7571,
      "receives": 7572,
      "receipt": 7573,
      "suggestions": 7574,
      "profile": 7575,
      "collectively": 7576,
      "experiencing": 7577,
      "dipl": 7578,
      "thompson": 7579,
      "methamphetamine": 7580,
      "dun": 7581,
      "hat": 7582,
      "kil": 7583,
      "##pan": 7584,
      "##orous": 7585,
      "alt": 7586,
      "coordination": 7587,
      "gray": 7588,
      "seeks": 7589,
      "string": 7590,
      "examining": 7591,
      "##roph": 7592,
      "hook": 7593,
      "productive": 7594,
      "lessons": 7595,
      "communicating": 7596,
      "disclaim": 7597,
      "investigative": 7598,
      "analyzing": 7599,
      "##chers": 7600,
      "bodily": 7601,
      "lobby": 7602,
      "interfere": 7603,
      "consecutive": 7604,
      "cy": 7605,
      "lift": 7606,
      "rod": 7607,
      "##father": 7608,
      "##hs": 7609,
      "tobac": 7610,
      "prud": 7611,
      "stable": 7612,
      "##olly": 7613,
      "verify": 7614,
      "hole": 7615,
      "sugar": 7616,
      "substances": 7617,
      "listing": 7618,
      "secured": 7619,
      "modest": 7620,
      "separated": 7621,
      "enforcing": 7622,
      "expecting": 7623,
      "aircraft": 7624,
      "contributing": 7625,
      "robust": 7626,
      "declared": 7627,
      "warranty": 7628,
      "observations": 7629,
      "unlikely": 7630,
      "aliens": 7631,
      "updated": 7632,
      "prospect": 7633,
      "wildlife": 7634,
      "##ambigu": 7635,
      "blanket": 7636,
      "entrance": 7637,
      "foreseeable": 7638,
      "elderly": 7639,
      "tobacco": 7640,
      "vig": 7641,
      "exchan": 7642,
      "##ivable": 7643,
      "outreach": 7644,
      "sake": 7645,
      "unjust": 7646,
      "unambigu": 7647,
      "perj": 7648,
      "##emn": 7649,
      "intoxic": 7650,
      "reads": 7651,
      "techniques": 7652,
      "treaty": 7653,
      "mechanisms": 7654,
      "residency": 7655,
      "psychiatric": 7656,
      "fantastic": 7657,
      "eating": 7658,
      "hal": 7659,
      "hide": 7660,
      "sinc": 7661,
      "##hed": 7662,
      "toler": 7663,
      "##ales": 7664,
      "whist": 7665,
      "##ifice": 7666,
      "##umin": 7667,
      "preference": 7668,
      "serge": 7669,
      "locked": 7670,
      "lighting": 7671,
      "assessed": 7672,
      "critically": 7673,
      "negotiation": 7674,
      "prohibition": 7675,
      "retirees": 7676,
      "barriers": 7677,
      "bonus": 7678,
      "excerpts": 7679,
      "intermediate": 7680,
      "misdemeanor": 7681,
      "completion": 7682,
      "bucket": 7683,
      "diver": 7684,
      "rush": 7685,
      "quoted": 7686,
      "maker": 7687,
      "safer": 7688,
      "acre": 7689,
      "issuing": 7690,
      "medically": 7691,
      "funny": 7692,
      "citation": 7693,
      "silence": 7694,
      "asserting": 7695,
      "homeowner": 7696,
      "junior": 7697,
      "immigrants": 7698,
      "refusal": 7699,
      "adversary": 7700,
      "mathemat": 7701,
      "bart": 7702,
      "dw": 7703,
      "sight": 7704,
      "##otics": 7705,
      "##utor": 7706,
      "notification": 7707,
      "##iling": 7708,
      "##uls": 7709,
      "offensive": 7710,
      "basket": 7711,
      "grat": 7712,
      "drives": 7713,
      "agreeing": 7714,
      "joining": 7715,
      "directions": 7716,
      "##bell": 7717,
      "convinced": 7718,
      "explos": 7719,
      "modifications": 7720,
      "cites": 7721,
      "disclosures": 7722,
      "conflicting": 7723,
      "appointments": 7724,
      "christian": 7725,
      "pipe": 7726,
      "facilitate": 7727,
      "novo": 7728,
      "frivolous": 7729,
      "dental": 7730,
      "##plus": 7731,
      "##att": 7732,
      "wholes": 7733,
      "lev": 7734,
      "##uces": 7735,
      "corrected": 7736,
      "protects": 7737,
      "winning": 7738,
      "laboratory": 7739,
      "vacc": 7740,
      "prohibit": 7741,
      "suspicious": 7742,
      "allocated": 7743,
      "implication": 7744,
      "isolated": 7745,
      "borders": 7746,
      "lenders": 7747,
      "rot": 7748,
      "##lets": 7749,
      "thereby": 7750,
      "##child": 7751,
      "##ung": 7752,
      "reserves": 7753,
      "imper": 7754,
      "counted": 7755,
      "strick": 7756,
      "specifics": 7757,
      "compliant": 7758,
      "surely": 7759,
      "respects": 7760,
      "surplus": 7761,
      "causal": 7762,
      "mandates": 7763,
      "demonstration": 7764,
      "pursued": 7765,
      "sustained": 7766,
      "subsidy": 7767,
      "strengthen": 7768,
      "ethnic": 7769,
      "transparent": 7770,
      "laund": 7771,
      "culp": 7772,
      "sant": 7773,
      "alarm": 7774,
      "enroll": 7775,
      "liked": 7776,
      "##allow": 7777,
      "statist": 7778,
      "fires": 7779,
      "subpo": 7780,
      "attended": 7781,
      "reductions": 7782,
      "defining": 7783,
      "searches": 7784,
      "sworn": 7785,
      "characterized": 7786,
      "driveway": 7787,
      "prohibits": 7788,
      "construe": 7789,
      "rolling": 7790,
      "conceal": 7791,
      "reconsideration": 7792,
      "collaborative": 7793,
      "indifference": 7794,
      "unequivoc": 7795,
      "citing": 7796,
      "##obile": 7797,
      "##lson": 7798,
      "reass": 7799,
      "##ste": 7800,
      "pride": 7801,
      "reserved": 7802,
      "outs": 7803,
      "outcomes": 7804,
      "empower": 7805,
      "possibilities": 7806,
      "restore": 7807,
      "flip": 7808,
      "absurd": 7809,
      "financially": 7810,
      "observe": 7811,
      "reversal": 7812,
      "rapidly": 7813,
      "bylaws": 7814,
      "random": 7815,
      "parallel": 7816,
      "indefinite": 7817,
      "lifetime": 7818,
      "francis": 7819,
      "sergeant": 7820,
      "bomb": 7821,
      "lies": 7822,
      "ox": 7823,
      "sli": 7824,
      "vague": 7825,
      "ward": 7826,
      "##itated": 7827,
      "##omfort": 7828,
      "goog": 7829,
      "trump": 7830,
      "knife": 7831,
      "usage": 7832,
      "invasion": 7833,
      "posed": 7834,
      "alleges": 7835,
      "focuses": 7836,
      "viewpoint": 7837,
      "conditional": 7838,
      "sky": 7839,
      "certify": 7840,
      "comparing": 7841,
      "##engers": 7842,
      "##box": 7843,
      "exhausted": 7844,
      "stakeholders": 7845,
      "japan": 7846,
      "jesus": 7847,
      "concession": 7848,
      "clothes": 7849,
      "abetting": 7850,
      "punch": 7851,
      "vi": 7852,
      "##fast": 7853,
      "sewer": 7854,
      "abroad": 7855,
      "##keeping": 7856,
      "arose": 7857,
      "undo": 7858,
      "firing": 7859,
      "obstruction": 7860,
      "joy": 7861,
      "attending": 7862,
      "mediation": 7863,
      "playground": 7864,
      "precinct": 7865,
      "evaluating": 7866,
      "safegu": 7867,
      "cooperating": 7868,
      "sharp": 7869,
      "friendly": 7870,
      "skilled": 7871,
      "latest": 7872,
      "cameras": 7873,
      "recreational": 7874,
      "hyd": 7875,
      "deployed": 7876,
      "sacrifice": 7877,
      "perceived": 7878,
      "sequence": 7879,
      "portfolio": 7880,
      "cure": 7881,
      "density": 7882,
      "osh": 7883,
      "pitch": 7884,
      "##tes": 7885,
      "bears": 7886,
      "suing": 7887,
      "##icted": 7888,
      "consulting": 7889,
      "supportive": 7890,
      "visa": 7891,
      "visible": 7892,
      "videot": 7893,
      "naturally": 7894,
      "harbor": 7895,
      "advocating": 7896,
      "contempor": 7897,
      "microph": 7898,
      "correspondence": 7899,
      "encounter": 7900,
      "predicate": 7901,
      "involuntary": 7902,
      "ii": 7903,
      "##rage": 7904,
      "##advant": 7905,
      "disadvant": 7906,
      "mel": 7907,
      "adapt": 7908,
      "recess": 7909,
      "incumb": 7910,
      "adds": 7911,
      "publication": 7912,
      "smugg": 7913,
      "passengers": 7914,
      "crew": 7915,
      "multip": 7916,
      "placing": 7917,
      "civilian": 7918,
      "revised": 7919,
      "commentary": 7920,
      "amongst": 7921,
      "accuracy": 7922,
      "traditionally": 7923,
      "advocacy": 7924,
      "increasingly": 7925,
      "consultant": 7926,
      "prosper": 7927,
      "analogous": 7928,
      "unquote": 7929,
      "gear": 7930,
      "ring": 7931,
      "##aked": 7932,
      "##bar": 7933,
      "##otic": 7934,
      "##ouses": 7935,
      "unil": 7936,
      "inclusion": 7937,
      "##lemaking": 7938,
      "fifteenth": 7939,
      "suppression": 7940,
      "legislators": 7941,
      "arrive": 7942,
      "##akers": 7943,
      "kidn": 7944,
      "missile": 7945,
      "removing": 7946,
      "adopting": 7947,
      "disagreed": 7948,
      "warranted": 7949,
      "listened": 7950,
      "chambers": 7951,
      "inconsistency": 7952,
      "caf": 7953,
      "gul": 7954,
      "hiding": 7955,
      "james": 7956,
      "mol": 7957,
      "##fr": 7958,
      "##itively": 7959,
      "##urance": 7960,
      "seal": 7961,
      "##amm": 7962,
      "makers": 7963,
      "overb": 7964,
      "backup": 7965,
      "desper": 7966,
      "endanger": 7967,
      "developments": 7968,
      "technological": 7969,
      "trading": 7970,
      "auditor": 7971,
      "##author": 7972,
      "##statement": 7973,
      "sidewalks": 7974,
      "gallon": 7975,
      "hanging": 7976,
      "rulemaking": 7977,
      "franchise": 7978,
      "scholarship": 7979,
      "google": 7980,
      "cath": 7981,
      "iep": 7982,
      "wisd": 7983,
      "##nis": 7984,
      "##gg": 7985,
      "##ingly": 7986,
      "##antic": 7987,
      "##trak": 7988,
      "unex": 7989,
      "uphold": 7990,
      "amtrak": 7991,
      "##ordan": 7992,
      "discon": 7993,
      "##ager": 7994,
      "backwards": 7995,
      "mob": 7996,
      "speculate": 7997,
      "matth": 7998,
      "marine": 7999,
      "effectiveness": 8000,
      "initiated": 8001,
      "remedial": 8002,
      "##itorial": 8003,
      "##afting": 8004,
      "hypothetically": 8005,
      "iraqi": 8006,
      "appellants": 8007,
      "destroy": 8008,
      "resistance": 8009,
      "miranda": 8010,
      "horrible": 8011,
      "nonprof": 8012,
      "osha": 8013,
      "wisdom": 8014,
      "gamb": 8015,
      "ramp": 8016,
      "segreg": 8017,
      "outlined": 8018,
      "plug": 8019,
      "recession": 8020,
      "brid": 8021,
      "india": 8022,
      "##assion": 8023,
      "corr": 8024,
      "auth": 8025,
      "lists": 8026,
      "blame": 8027,
      "responsive": 8028,
      "touching": 8029,
      "reforms": 8030,
      "##ahoma": 8031,
      "maxim": 8032,
      "beliefs": 8033,
      "aggravating": 8034,
      "frequency": 8035,
      "consolidation": 8036,
      "promotion": 8037,
      "enemy": 8038,
      "clothing": 8039,
      "tang": 8040,
      "##lahoma": 8041,
      "toxic": 8042,
      "pron": 8043,
      "##urity": 8044,
      "casual": 8045,
      "##ieve": 8046,
      "enact": 8047,
      "actors": 8048,
      "liabilities": 8049,
      "##bert": 8050,
      "thirteenth": 8051,
      "disposition": 8052,
      "priorit": 8053,
      "holdings": 8054,
      "oklahoma": 8055,
      "delaware": 8056,
      "lawsuits": 8057,
      "breached": 8058,
      "inflation": 8059,
      "literacy": 8060,
      "walls": 8061,
      "partnerships": 8062,
      "mitigate": 8063,
      "purchaser": 8064,
      "quotes": 8065,
      "revisit": 8066,
      "matthew": 8067,
      "lending": 8068,
      "lakes": 8069,
      "tables": 8070,
      "##isite": 8071,
      "notified": 8072,
      "org": 8073,
      "resign": 8074,
      "upheld": 8075,
      "##ustration": 8076,
      "drilling": 8077,
      "legacy": 8078,
      "posture": 8079,
      "warnings": 8080,
      "associate": 8081,
      "buyer": 8082,
      "negotiating": 8083,
      "tracks": 8084,
      "emphasized": 8085,
      "utilized": 8086,
      "severely": 8087,
      "bulk": 8088,
      "barrier": 8089,
      "unpre": 8090,
      "bia": 8091,
      "cub": 8092,
      "jordan": 8093,
      "tear": 8094,
      "##iments": 8095,
      "meat": 8096,
      "aggreg": 8097,
      "donations": 8098,
      "spin": 8099,
      "specificity": 8100,
      "classification": 8101,
      "wake": 8102,
      "insurer": 8103,
      "choosing": 8104,
      "warrants": 8105,
      "calculations": 8106,
      "stepped": 8107,
      "banking": 8108,
      "ignoring": 8109,
      "truthful": 8110,
      "micro": 8111,
      "overlap": 8112,
      "inaccurate": 8113,
      "lord": 8114,
      "tender": 8115,
      "##eding": 8116,
      "##imental": 8117,
      "trend": 8118,
      "alaska": 8119,
      "##ibr": 8120,
      "brad": 8121,
      "brave": 8122,
      "intense": 8123,
      "dry": 8124,
      "owns": 8125,
      "player": 8126,
      "rejection": 8127,
      "tribes": 8128,
      "inspections": 8129,
      "meantime": 8130,
      "visitors": 8131,
      "enjoyed": 8132,
      "sponsor": 8133,
      "sponsors": 8134,
      "controversial": 8135,
      "firefighters": 8136,
      "outdoor": 8137,
      "satellite": 8138,
      "cere": 8139,
      "lope": 8140,
      "##igr": 8141,
      "proc": 8142,
      "deed": 8143,
      "seats": 8144,
      "trips": 8145,
      "click": 8146,
      "apprais": 8147,
      "intensive": 8148,
      "grams": 8149,
      "accidents": 8150,
      "corn": 8151,
      "column": 8152,
      "courses": 8153,
      "format": 8154,
      "##lusive": 8155,
      "earnings": 8156,
      "figured": 8157,
      "heading": 8158,
      "ordinarily": 8159,
      "afforded": 8160,
      "seventeenth": 8161,
      "remainder": 8162,
      "radiation": 8163,
      "grades": 8164,
      "acquire": 8165,
      "teaches": 8166,
      "accompan": 8167,
      "infringing": 8168,
      "deduct": 8169,
      "sooner": 8170,
      "misrepresentations": 8171,
      "bearing": 8172,
      "liquor": 8173,
      "rogers": 8174,
      "lopez": 8175,
      "tack": 8176,
      "##rich": 8177,
      "##ym": 8178,
      "##yan": 8179,
      "##ered": 8180,
      "inject": 8181,
      "##ulous": 8182,
      "alert": 8183,
      "ages": 8184,
      "yours": 8185,
      "directing": 8186,
      "config": 8187,
      "confine": 8188,
      "basement": 8189,
      "girlf": 8190,
      "privileges": 8191,
      "graduates": 8192,
      "minimize": 8193,
      "contingency": 8194,
      "feasible": 8195,
      "magazine": 8196,
      "imprisonment": 8197,
      "disconnect": 8198,
      "fitness": 8199,
      "##onom": 8200,
      "forb": 8201,
      "sufficiency": 8202,
      "shield": 8203,
      "courthouse": 8204,
      "##acle": 8205,
      "overnight": 8206,
      "symb": 8207,
      "##cripts": 8208,
      "peter": 8209,
      "turner": 8210,
      "generous": 8211,
      "manufactured": 8212,
      "reconcil": 8213,
      "attendance": 8214,
      "chemicals": 8215,
      "routinely": 8216,
      "congestion": 8217,
      "cyber": 8218,
      "tor": 8219,
      "##cle": 8220,
      "theater": 8221,
      "##orters": 8222,
      "ster": 8223,
      "prol": 8224,
      "##chec": 8225,
      "traged": 8226,
      "##acent": 8227,
      "rede": 8228,
      "refuge": 8229,
      "economically": 8230,
      "strongest": 8231,
      "alternate": 8232,
      "accordingly": 8233,
      "container": 8234,
      "geographic": 8235,
      "targeting": 8236,
      "adjusted": 8237,
      "tasks": 8238,
      "inev": 8239,
      "voices": 8240,
      "boundaries": 8241,
      "deposit": 8242,
      "striking": 8243,
      "fatal": 8244,
      "hamilton": 8245,
      "incompet": 8246,
      "incumbent": 8247,
      "bars": 8248,
      "baker": 8249,
      "fisher": 8250,
      "nerv": 8251,
      "##inter": 8252,
      "##igently": 8253,
      "complying": 8254,
      "unac": 8255,
      "willful": 8256,
      "incon": 8257,
      "drag": 8258,
      "##ogether": 8259,
      "assumptions": 8260,
      "transcripts": 8261,
      "retention": 8262,
      "educated": 8263,
      "recommending": 8264,
      "conversion": 8265,
      "grandfather": 8266,
      "automobile": 8267,
      "literature": 8268,
      "constructed": 8269,
      "achievement": 8270,
      "emails": 8271,
      "ethics": 8272,
      "slowly": 8273,
      "shifted": 8274,
      "disruption": 8275,
      "refusing": 8276,
      "retroact": 8277,
      "ladies": 8278,
      "dynamic": 8279,
      "caution": 8280,
      "boss": 8281,
      "hidden": 8282,
      "merc": 8283,
      "pose": 8284,
      "tons": 8285,
      "wides": 8286,
      "##hen": 8287,
      "##vent": 8288,
      "##pread": 8289,
      "ree": 8290,
      "##stated": 8291,
      "underway": 8292,
      "likewise": 8293,
      "imposes": 8294,
      "verbal": 8295,
      "deficiencies": 8296,
      "crop": 8297,
      "discrep": 8298,
      "backed": 8299,
      "syn": 8300,
      "founded": 8301,
      "locally": 8302,
      "approving": 8303,
      "generating": 8304,
      "summar": 8305,
      "assessing": 8306,
      "foods": 8307,
      "networks": 8308,
      "grandchild": 8309,
      "bird": 8310,
      "installed": 8311,
      "owed": 8312,
      "fingerprint": 8313,
      "festival": 8314,
      "altogether": 8315,
      "nervous": 8316,
      "widespread": 8317,
      "gates": 8318,
      "len": 8319,
      "##rics": 8320,
      "##yer": 8321,
      "##ta": 8322,
      "heating": 8323,
      "atl": 8324,
      "##ador": 8325,
      "##aband": 8326,
      "allen": 8327,
      "allud": 8328,
      "cloud": 8329,
      "league": 8330,
      "spill": 8331,
      "statewide": 8332,
      "interact": 8333,
      "contraband": 8334,
      "facial": 8335,
      "connecting": 8336,
      "seller": 8337,
      "faa": 8338,
      "restricted": 8339,
      "attacked": 8340,
      "delays": 8341,
      "permanently": 8342,
      "attract": 8343,
      "retali": 8344,
      "coaches": 8345,
      "contradicted": 8346,
      "exemptions": 8347,
      "coalition": 8348,
      "isolation": 8349,
      "criticism": 8350,
      "puzz": 8351,
      "interrogation": 8352,
      "dar": 8353,
      "ell": 8354,
      "##yard": 8355,
      "dele": 8356,
      "withheld": 8357,
      "loose": 8358,
      "##qual": 8359,
      "brit": 8360,
      "intending": 8361,
      "##anship": 8362,
      "cogn": 8363,
      "repairs": 8364,
      "empty": 8365,
      "muse": 8366,
      "disprop": 8367,
      "restoration": 8368,
      "internally": 8369,
      "similarity": 8370,
      "dismissing": 8371,
      "approaching": 8372,
      "cooperative": 8373,
      "##aho": 8374,
      "affirmatively": 8375,
      "pledge": 8376,
      "pleasant": 8377,
      "contingent": 8378,
      "dozens": 8379,
      "cumulative": 8380,
      "whistle": 8381,
      "microphone": 8382,
      "dia": 8383,
      "hes": 8384,
      "lod": 8385,
      "luc": 8386,
      "mans": 8387,
      "nan": 8388,
      "##ooth": 8389,
      "##tal": 8390,
      "##verly": 8391,
      "deeper": 8392,
      "button": 8393,
      "uninsured": 8394,
      "overhead": 8395,
      "testifies": 8396,
      "depth": 8397,
      "parade": 8398,
      "imminent": 8399,
      "worksh": 8400,
      "revol": 8401,
      "adjacent": 8402,
      "vacated": 8403,
      "mechanical": 8404,
      "malpr": 8405,
      "islands": 8406,
      "scheduling": 8407,
      "recipient": 8408,
      "misunderst": 8409,
      "hurricane": 8410,
      "mcdon": 8411,
      "airplane": 8412,
      "pronoun": 8413,
      "retaliatory": 8414,
      "aust": 8415,
      "gm": 8416,
      "gif": 8417,
      "sits": 8418,
      "##stairs": 8419,
      "stages": 8420,
      "anc": 8421,
      "aging": 8422,
      "lew": 8423,
      "unbel": 8424,
      "recl": 8425,
      "crops": 8426,
      "veget": 8427,
      "governed": 8428,
      "##onym": 8429,
      "administrators": 8430,
      "uncomfort": 8431,
      "manufacture": 8432,
      "cleaning": 8433,
      "closest": 8434,
      "##ortionate": 8435,
      "sponsored": 8436,
      "chev": 8437,
      "immigrant": 8438,
      "retroactive": 8439,
      "unambiguous": 8440,
      "gulf": 8441,
      "unaccept": 8442,
      "museum": 8443,
      "malpract": 8444,
      "earm": 8445,
      "fought": 8446,
      "las": 8447,
      "wy": 8448,
      "wid": 8449,
      "##inated": 8450,
      "##oul": 8451,
      "inad": 8452,
      "react": 8453,
      "##iration": 8454,
      "dean": 8455,
      "golf": 8456,
      "meals": 8457,
      "export": 8458,
      "drill": 8459,
      "obst": 8460,
      "concert": 8461,
      "marked": 8462,
      "attitude": 8463,
      "buses": 8464,
      "projections": 8465,
      "earn": 8466,
      "searched": 8467,
      "##lands": 8468,
      "populations": 8469,
      "deliberations": 8470,
      "africa": 8471,
      "catastr": 8472,
      "classrooms": 8473,
      "journey": 8474,
      "convenient": 8475,
      "appreciation": 8476,
      "magnitude": 8477,
      "inches": 8478,
      "hawaii": 8479,
      "murph": 8480,
      "simultaneously": 8481,
      "diplom": 8482,
      "unbeliev": 8483,
      "malpractice": 8484,
      "ware": 8485,
      "##ius": 8486,
      "hamm": 8487,
      "ford": 8488,
      "trag": 8489,
      "complic": 8490,
      "unint": 8491,
      "implicated": 8492,
      "probative": 8493,
      "sixteenth": 8494,
      "fines": 8495,
      "realm": 8496,
      "hob": 8497,
      "operative": 8498,
      "economics": 8499,
      "bread": 8500,
      "landown": 8501,
      "expressing": 8502,
      "##insic": 8503,
      "occupation": 8504,
      "epis": 8505,
      "prescribed": 8506,
      "federally": 8507,
      "perjury": 8508,
      "girlfriend": 8509,
      "uncomfortable": 8510,
      "murphy": 8511,
      "aver": 8512,
      "fishing": 8513,
      "nu": 8514,
      "yards": 8515,
      "##east": 8516,
      "##iences": 8517,
      "##lean": 8518,
      "##cels": 8519,
      "notify": 8520,
      "delt": 8521,
      "seized": 8522,
      "##oln": 8523,
      "tag": 8524,
      "grave": 8525,
      "contents": 8526,
      "extensively": 8527,
      "identifies": 8528,
      "submitting": 8529,
      "practically": 8530,
      "weekly": 8531,
      "annually": 8532,
      "worthy": 8533,
      "consistency": 8534,
      "earthqu": 8535,
      "shoreline": 8536,
      "royalty": 8537,
      "grocery": 8538,
      "bridges": 8539,
      "dak": 8540,
      "drew": 8541,
      "foss": 8542,
      "ga": 8543,
      "luck": 8544,
      "mike": 8545,
      "##mal": 8546,
      "##erted": 8547,
      "ingr": 8548,
      "##isible": 8549,
      "shr": 8550,
      "shorter": 8551,
      "resort": 8552,
      "compassion": 8553,
      "defective": 8554,
      "counting": 8555,
      "consens": 8556,
      "newly": 8557,
      "##veland": 8558,
      "opens": 8559,
      "signals": 8560,
      "practicing": 8561,
      "specialized": 8562,
      "chooses": 8563,
      "campbell": 8564,
      "breakfast": 8565,
      "clarified": 8566,
      "routes": 8567,
      "inex": 8568,
      "latin": 8569,
      "prospective": 8570,
      "overrul": 8571,
      "sweet": 8572,
      "owe": 8573,
      "blocks": 8574,
      "spanish": 8575,
      "demolition": 8576,
      "dre": 8577,
      "dign": 8578,
      "lind": 8579,
      "tension": 8580,
      "##lan": 8581,
      "tow": 8582,
      "doe": 8583,
      "##isting": 8584,
      "imposition": 8585,
      "theme": 8586,
      "crux": 8587,
      "invoke": 8588,
      "confess": 8589,
      "designation": 8590,
      "prevents": 8591,
      "customs": 8592,
      "declaratory": 8593,
      "revocation": 8594,
      "##nesday": 8595,
      "websites": 8596,
      "targets": 8597,
      "sustainability": 8598,
      "scenarios": 8599,
      "possessed": 8600,
      "woods": 8601,
      "hazardous": 8602,
      "vendors": 8603,
      "wednesday": 8604,
      "hen": 8605,
      "ip": 8606,
      "ort": 8607,
      "##arial": 8608,
      "##lla": 8609,
      "forens": 8610,
      "angry": 8611,
      "##ifiable": 8612,
      "ash": 8613,
      "abund": 8614,
      "disqual": 8615,
      "loop": 8616,
      "##unct": 8617,
      "leverage": 8618,
      "overd": 8619,
      "coinc": 8620,
      "joe": 8621,
      "minut": 8622,
      "charitable": 8623,
      "continually": 8624,
      "demanding": 8625,
      "credited": 8626,
      "metro": 8627,
      "salaries": 8628,
      "enforceable": 8629,
      "civic": 8630,
      "footprint": 8631,
      "measured": 8632,
      "introducing": 8633,
      "shareholders": 8634,
      "troubled": 8635,
      "achieving": 8636,
      "ethical": 8637,
      "litigate": 8638,
      "proximate": 8639,
      "arrangements": 8640,
      "omission": 8641,
      "dozen": 8642,
      "coupled": 8643,
      "jeopardy": 8644,
      "micros": 8645,
      "commodity": 8646,
      "endorsement": 8647,
      "cigarettes": 8648,
      "grandchildren": 8649,
      "cher": 8650,
      "lyn": 8651,
      "por": 8652,
      "tends": 8653,
      "thin": 8654,
      "hay": 8655,
      "##mental": 8656,
      "enab": 8657,
      "appelle": 8658,
      "unions": 8659,
      "hispan": 8660,
      "explo": 8661,
      "deterr": 8662,
      "##ighter": 8663,
      "carter": 8664,
      "custod": 8665,
      "competitors": 8666,
      "awful": 8667,
      "annivers": 8668,
      "collapse": 8669,
      "vacant": 8670,
      "foreclosed": 8671,
      "presumed": 8672,
      "occupational": 8673,
      "delivering": 8674,
      "dissent": 8675,
      "wireless": 8676,
      "channels": 8677,
      "contamination": 8678,
      "overlooked": 8679,
      "anxiety": 8680,
      "subpoena": 8681,
      "unacceptable": 8682,
      "delta": 8683,
      "consensual": 8684,
      "bil": 8685,
      "fcc": 8686,
      "loses": 8687,
      "##ga": 8688,
      "##woman": 8689,
      "##lec": 8690,
      "##mented": 8691,
      "cous": 8692,
      "##hers": 8693,
      "##ulg": 8694,
      "someplace": 8695,
      "##unic": 8696,
      "myster": 8697,
      "decree": 8698,
      "overlay": 8699,
      "specify": 8700,
      "meanwhile": 8701,
      "fundra": 8702,
      "childhood": 8703,
      "instant": 8704,
      "thoughtful": 8705,
      "dispatch": 8706,
      "reduces": 8707,
      "concludes": 8708,
      "behaviors": 8709,
      "ambul": 8710,
      "garc": 8711,
      "foreclosures": 8712,
      "guards": 8713,
      "occupied": 8714,
      "bags": 8715,
      "lifest": 8716,
      "households": 8717,
      "navy": 8718,
      "unwilling": 8719,
      "trauma": 8720,
      "narc": 8721,
      "deportation": 8722,
      "wholesale": 8723,
      "buck": 8724,
      "cd": 8725,
      "gil": 8726,
      "jen": 8727,
      "jose": 8728,
      "kr": 8729,
      "kicked": 8730,
      "tam": 8731,
      "##enom": 8732,
      "##ids": 8733,
      "##sters": 8734,
      "##estr": 8735,
      "fruit": 8736,
      "lex": 8737,
      "plastic": 8738,
      "considers": 8739,
      "##aped": 8740,
      "overarch": 8741,
      "informal": 8742,
      "##iley": 8743,
      "deserves": 8744,
      "honorable": 8745,
      "injust": 8746,
      "visits": 8747,
      "visiting": 8748,
      "northwest": 8749,
      "predomin": 8750,
      "punished": 8751,
      "flows": 8752,
      "deployment": 8753,
      "sleeping": 8754,
      "shooter": 8755,
      "barely": 8756,
      "theoretically": 8757,
      "catholic": 8758,
      "confinement": 8759,
      "ais": 8760,
      "bio": 8761,
      "gut": 8762,
      "linc": 8763,
      "mount": 8764,
      "terry": 8765,
      "##cut": 8766,
      "##itan": 8767,
      "##itter": 8768,
      "##rey": 8769,
      "##ird": 8770,
      "asian": 8771,
      "segment": 8772,
      "##iled": 8773,
      "chances": 8774,
      "knock": 8775,
      "outrage": 8776,
      "partisan": 8777,
      "decent": 8778,
      "clearing": 8779,
      "phenom": 8780,
      "smooth": 8781,
      "elabor": 8782,
      "ending": 8783,
      "##crow": 8784,
      "equation": 8785,
      "lesson": 8786,
      "competency": 8787,
      "humans": 8788,
      "purchases": 8789,
      "willingness": 8790,
      "filling": 8791,
      "efficiently": 8792,
      "counterclaim": 8793,
      "enhanced": 8794,
      "widely": 8795,
      "incorrectly": 8796,
      "##communic": 8797,
      "terrorist": 8798,
      "embry": 8799,
      "undermines": 8800,
      "pharmacy": 8801,
      "barrel": 8802,
      "stabilization": 8803,
      "tuition": 8804,
      "##stein": 8805,
      "dakota": 8806,
      "anniversary": 8807,
      "fuels": 8808,
      "greg": 8809,
      "##lates": 8810,
      "donation": 8811,
      "anytime": 8812,
      "apples": 8813,
      "unh": 8814,
      "##ibi": 8815,
      "ups": 8816,
      "perv": 8817,
      "amen": 8818,
      "##agan": 8819,
      "inviting": 8820,
      "boost": 8821,
      "parcels": 8822,
      "appealing": 8823,
      "operators": 8824,
      "wrongdo": 8825,
      "organize": 8826,
      "harms": 8827,
      "slash": 8828,
      "missions": 8829,
      "debtors": 8830,
      "franklin": 8831,
      "quarters": 8832,
      "gangs": 8833,
      "complexity": 8834,
      "jumped": 8835,
      "diagnosed": 8836,
      "printed": 8837,
      "inconsistencies": 8838,
      "tactical": 8839,
      "impeachment": 8840,
      "angeles": 8841,
      "overarching": 8842,
      "lincoln": 8843,
      "codes": 8844,
      "lacking": 8845,
      "tab": 8846,
      "##oll": 8847,
      "##case": 8848,
      "chip": 8849,
      "ads": 8850,
      "quit": 8851,
      "compound": 8852,
      "impart": 8853,
      "##away": 8854,
      "moore": 8855,
      "monop": 8856,
      "tenant": 8857,
      "locate": 8858,
[...]
