[PAD]
[UNK]
[CLS]
[SEP]
[MASK]
!
"
&
'
*
+
,
-
.
:
>
?
a
b
c
d
e
f
g
h
i
j
k
l
m
n
o
p
q
r
s
t
u
v
w
x
y
z
§
²
ø
ʻ
—
…
₂
七
五
八
##f
##e
##r
##i
##n
##g
##s
##w
##a
##y
##u
##m
##o
##t
##h
##j
##d
##l
##x
##c
##q
##v
##b
##z
##p
##k
##ø
##²
##ʻ
##₂
th
the
##at
##er
##in
##on
##en
##ou
##nd
##es
that
##ing
##or
##ed
to
##it
in
##is
##re
##al
##ion
of
##as
and
##an
##ar
##ent
##ic
wh
re
##om
be
##ve
##ct
##ly
##le
##ot
##se
##ut
it
you
we
##ll
ha
##id
##st
##et
pr
on
##ow
is
##ld
##ay
for
##ation
was
st
##ce
this
##ur
con
##im
not
##ment
cou
##ig
##ver
have
an
##ir
do
they
pro
he
so
de
##ith
there
com
##ere
##est
with
##ate
##ess
##her
##if
as
##pp
se
go
##ould
what
##ch
but
##ol
su
##ant
ab
##il
ex
at
##ter
##am
sh
##ge
##ally
##au
##ke
##ad
##ive
##act
ne
##ain
##ity
ju
##out
##ht
would
##rt
##and
if
##ul
##ers
##op
##ort
tr
dis
##ill
som
fr
##tr
##ink
##art
or
##ause
##ab
me
cas
court
bec
all
think
##os
can
##ight
ch
##ect
about
are
al
tw
##ac
##mp
because
##od
say
##iv
##end
##ence
ev
ag
lo
kn
from
##ore
##ie
##ard
##ose
case
##us
cl
##ies
##king
by
##ich
did
don
no
some
one
##un
had
##ous
know
##ty
just
##ial
any
ad
which
en
##ther
ar
qu
app
ma
res
##hing
out
le
##fer
were
sp
has
##ue
und
wor
##ict
act
##ree
when
comp
two
under
li
your
other
##ions
##ime
sa
part
##um
un
##oug
pl
##qu
get
rec
comm
our
##ok
fact
##ice
##ind
ta
##ib
##ist
been
those
##ff
##all
their
who
po
##te
##ud
then
up
time
per
##int
##per
##ated
these
like
##ack
pe
my
##ition
##able
##ip
##age
##ure
##one
imp
##ear
##ide
here
going
br
how
will
##ings
could
##ine
##ire
##em
##ople
ver
people
am
ac
##ations
int
said
##ance
##gu
##aw
##gr
state
them
she
off
def
where
##ord
##ether
##ec
##ough
##ame
dec
##th
inc
coun
quest
##iz
does
fou
##so
##uct
very
point
cr
dif
iss
now
than
##ans
##ary
well
##cess
look
te
##very
more
jud
##ber
right
need
##idence
us
cons
want
inter
ind
his
##erm
##ments
##ap
##for
##und
over
pre
co
evidence
##ond
work
really
bas
also
law
##ong
##el
way
year
stat
differ
##ific
gr
man
##ason
whether
##ast
make
##lic
rep
ve
disc
may
##vern
bel
govern
##ag
back
contr
##itt
question
every
even
distr
##ix
reason
##ied
somet
##ual
again
prov
exp
##ical
fir
into
##aim
##red
requ
##lo
##enc
sub
##ens
see
should
##fore
##ute
argu
three
claim
add
##ility
inv
mo
##sel
government
##tain
only
##form
sec
##pt
##ust
tal
##ousand
thousand
five
prob
##ach
record
resp
didn
##ade
reg
test
##ually
ser
district
pres
##are
dr
different
pol
first
things
##ace
pos
##ject
spec
##reat
something
##pport
##ory
issue
##ven
##iss
##ents
##ail
why
##eral
##ign
six
pers
##wn
##own
happ
##ro
rel
##enty
ob
##ision
##ors
before
##ass
##ting
af
judge
cle
new
##ild
thr
fe
##ound
##icul
##unity
conc
##vel
fo
##ep
##een
mat
belie
her
str
##ody
bo
thir
##ub
dep
bet
made
him
person
det
take
##ction
##ense
stand
actually
##ars
##ious
doesn
find
after
clear
put
being
##ving
through
underst
##uc
says
gu
##ome
##ient
cer
ord
doll
##ved
come
term
lot
##oun
acc
rem
##anc
cont
cor
hund
hundred
##ited
##thing
##lud
##str
##ress
sch
##our
same
jur
inform
##lem
##ks
##ise
##cu
num
agree
##ution
##ite
##og
ass
##way
emp
twenty
offic
##ities
import
show
chan
argument
try
##ative
mean
got
##ful
##ish
believe
let
##iew
##ning
jo
leg
understand
defend
##ublic
ro
happen
##ider
##loy
ele
four
##ible
mu
years
##body
sim
good
##ase
pay
much
##igh
##other
specific
cond
cases
day
op
important
##ult
down
##ple
certain
##its
##xt
saying
pur
par
mar
kind
information
##ily
eff
proper
##ked
dollars
gen
decision
employ
thing
call
##ile
cir
##ief
##ward
problem
fif
many
progr
eight
defendant
##ount
att
##oth
##ating
sc
serv
id
public
trans
bu
consider
##ought
##ons
##aint
process
bus
trial
second
never
##cent
##air
fin
contract
fed
##ea
order
number
giv
doing
support
##ia
##ret
##ys
##cept
##day
own
wr
particul
plan
ins
##ention
mem
##led
particular
exam
ph
des
federal
use
##orn
##eric
##ues
##ident
sy
percent
found
bill
##ool
dire
interest
set
mon
##ene
##oney
min
##ony
##ater
program
hon
based
##av
hel
hear
##mm
determ
school
help
money
med
might
allow
polic
##iate
includ
##osed
col
##oc
sit
sent
matter
americ
##ween
still
read
between
ent
##oss
long
##arm
##rect
##ically
start
##iness
yes
ke
tax
exper
##ness
jury
fund
##iol
stud
give
##ior
both
##leg
another
##oking
done
mot
##struct
tell
adm
sign
most
##ially
##hip
##ern
meet
standard
statute
address
##ivid
business
char
##stem
##gress
##ittle
little
##vers
invest
##ified
##ency
##self
##ission
car
##stit
system
compl
thirty
direct
anything
aff
##view
testim
##ates
##ont
##ational
aut
present
community
testimony
looking
requir
child
correct
seven
viol
today
##yp
individ
##ices
conf
contin
care
##ote
##res
board
seem
congress
lim
place
##urn
##ination
last
thank
##bers
talking
##be
trying
##ank
##uss
city
##ided
without
##ug
##kes
individual
##ouse
bene
prot
report
high
prod
commit
benef
great
##ety
sm
poss
states
job
ll
situ
fam
##ify
mill
##try
regul
ten
position
honor
brief
el
depart
policy
##ability
able
##eal
wasn
##ry
cost
##uring
compan
##par
##ize
##ably
discuss
end
##imes
##rop
real
##rem
es
require
##ced
##ges
month
##velop
nothing
##ick
its
having
counsel
concern
against
within
opport
loc
##teen
issues
##iction
ext
##ized
sure
##alth
develop
respect
protect
terms
##gest
invol
pat
simp
colle
agreement
maybe
certainly
##ady
ho
cour
##urr
ra
##igation
facts
##ances
given
deal
sort
review
build
purp
##get
hearing
inst
imm
property
town
appro
health
addition
typ
country
supp
such
##ket
house
##ffic
##itted
came
exact
lan
est
##ule
simply
alleg
##mpt
circ
change
##ages
##cr
form
happened
claims
comple
ret
##imin
situation
##reme
##ower
##hor
department
##ceed
making
##ged
##ee
##resent
appeal
home
hand
##ife
amend
##imate
##ave
regard
talk
course
oc
class
##ger
##ently
word
##con
dem
##vious
##tee
project
around
fifty
##sw
reasonable
cap
went
ple
##li
cred
rece
provide
answ
##llow
ed
level
author
docu
val
##lish
effect
##ibility
officer
thought
langu
nine
next
##ather
action
incre
##ts
conv
example
##les
##ope
opportunity
necess
language
questions
each
expl
disp
##ever
##less
getting
##istr
sev
##erg
general
circum
must
red
oper
judg
million
motion
##ft
##pect
amount
##ves
open
defense
##isl
rest
conduct
##ood
service
legisl
prop
circumst
ask
during
anal
united
basis
working
adv
##ready
already
police
committee
prior
##ines
perm
keep
av
members
used
represent
##orne
fil
bring
enough
side
least
result
refer
answer
someone
pass
##itness
inj
rule
sug
##ined
fac
better
##arr
##sec
complaint
##ropr
##stitution
apply
attorne
occ
fl
pa
##ised
wee
judgment
forty
##ature
equ
commission
proceed
wa
abs
follow
##struction
##gan
##urd
rele
opin
##allen
##ither
wanted
seems
applic
clearly
exactly
suggest
isn
##ures
##lement
##ways
cal
##ience
ref
witness
object
spea
##lus
##olog
fail
sup
subst
challen
big
forward
asked
somebody
pet
##ives
insur
cre
exist
priv
conte
##ull
whole
##ived
tog
product
##omm
eng
together
##ell
rul
##cus
##lt
##gin
required
too
##utes
##til
best
company
statement
##ital
supreme
commun
hist
bank
##iod
market
specifically
cover
non
list
period
##ru
##ian
beh
run
##ew
drug
everything
##ending
while
client
indic
educ
em
##alf
life
##itions
needs
ident
coming
##conom
econom
bl
met
saf
lead
respons
admin
secur
else
small
##ken
##ration
##ator
means
##ogn
less
recogn
always
##iff
art
circu
appropr
##ren
##iving
entire
hard
sur
move
lar
subm
goes
either
focus
told
tech
turn
area
prof
##acy
##ead
##icip
bud
makes
attorney
meeting
##isions
##wh
curr
##not
american
ear
sense
step
water
services
whate
whatever
opinion
##ces
account
appl
months
budget
took
inf
prosec
medical
family
notice
party
county
qual
administr
mis
access
techn
deb
signific
opp
children
pract
upon
building
request
legal
ris
fourt
##ork
away
complete
itself
cannot
limit
cent
##arily
hour
sever
comes
treat
line
exc
circuit
far
parties
president
estab
feel
fair
students
mod
##oup
wrong
##aining
fur
cause
amendment
nin
arr
subject
defin
##ides
section
##ences
circumstances
separ
asking
taking
activ
fut
##ession
further
office
additional
third
bre
offer
##ted
involved
idea
##viously
injur
##erc
probably
##aus
dam
##fficient
insurance
play
view
sen
##ergy
ess
later
finding
##oub
##nect
##ci
bit
##bit
security
##als
##itical
until
group
##man
agency
called
significant
energy
knew
establish
mr
##ended
national
sentence
taken
context
future
lit
once
##ural
except
though
maj
sixty
begin
##ner
appropriate
major
wouldn
control
tra
analys
crimin
hold
##ince
##ees
##ling
substant
constitution
##ics
sing
##entially
reasons
special
sal
##tern
purpose
interp
##line
absol
analysis
avail
ever
stre
pot
true
gener
##icult
##cil
grant
provided
officers
er
##iver
difference
##ange
##mont
speak
##ton
den
##iting
mater
occur
bar
##isd
doct
absolute
pret
few
continue
wal
including
neg
##ak
bro
##orm
##son
plaint
##ential
organ
plaintiff
times
design
##lect
connect
land
petition
##ization
mor
criminal
cho
harm
##osing
##atory
resol
however
hope
##ued
##aph
type
material
actual
##ateg
mention
##side
perform
elect
main
##uted
local
##rupt
diff
ir
council
respond
post
##ivers
days
##inc
past
financ
authority
jurisd
letter
##pr
using
##retion
basically
power
cust
##iding
expert
history
decided
discretion
proced
enter
week
##ost
words
##oses
##ification
page
relations
benefit
since
pretty
separate
courts
enfor
common
disco
compet
fun
dat
##vant
looked
presented
guess
world
accept
education
init
available
impact
##ath
expect
single
suc
ability
##aps
allowed
paid
##ging
fifteen
interpret
burd
sufficient
phys
##ively
##orth
effort
sta
rights
sol
kid
##amp
arbit
descr
wom
therefore
obl
everybody
brought
half
jurisdiction
private
reach
crime
hous
dut
cit
needed
full
##fully
seventy
left
yet
##mber
var
vot
##ased
##io
fire
risk
prev
##uce
ago
outside
credit
particip
##graph
absolutely
free
statements
broad
decide
benefits
caus
explain
rather
close
front
violation
vers
stop
sett
twel
super
dist
possible
street
##enth
quite
employees
impro
eas
##ison
considered
##selves
##istent
##ledge
##aud
communic
assum
##ten
##arch
famil
discussion
documents
sl
raised
filed
relationship
couldn
development
##bor
prom
determination
##icle
several
burden
belmont
intern
##onse
determine
##encing
intent
##ilar
necessary
couple
held
##ants
response
##lying
##lusion
obviously
strong
mind
opt
##ends
##ership
increase
application
mil
light
twelve
name
aw
document
orig
lear
ninety
##use
neigh
origin
war
##ources
financial
miss
##ilities
data
final
similar
ok
##omes
##ring
unf
recomm
enforce
along
guide
##imately
problems
old
##jud
tot
bey
value
##ield
beyond
individuals
difficult
gets
##endent
mult
##reed
##iple
##irm
##ference
##itive
sus
large
ult
vict
##atch
resear
##ipt
short
##osition
chec
success
assist
member
understanding
gave
instead
del
##ology
factors
remem
##ental
search
trust
pen
##most
testified
entit
##miss
indust
farm
##ulation
grow
remo
cut
lab
##por
chair
affect
ways
appear
fig
gun
safety
almost
minutes
##haps
perhaps
serious
programs
enc
construction
youn
##old
experience
remember
staff
acr
calif
californ
happens
indep
talked
personal
ground
started
seen
research
threat
road
california
shows
air
arguments
live
mid
vote
env
relevant
across
ill
fraud
america
limited
err
oh
##uck
summ
##ately
manage
##where
##pir
##ism
stay
defendants
conditions
kids
decisions
##itting
plac
top
consum
item
housing
related
received
citiz
##port
rules
force
definition
inte
heard
records
knowledge
victim
injury
hum
witnesses
nature
##sequ
dismiss
essentially
quote
##ising
requires
cross
medic
princ
##onment
prejud
provision
current
face
##hood
discl
##ric
express
envir
room
##avor
##br
##osp
necessarily
hours
##cy
sat
factual
discovery
others
##onder
arg
##oint
dispute
pie
condition
port
mer
sometimes
completely
doub
secret
bad
challenge
nation
approach
legislation
everyone
duty
vol
##itten
costs
sell
civ
convers
atte
##app
constitutional
prim
immig
lic
argue
collect
damages
fri
environment
purposes
arrest
laws
substantial
##ional
standing
##erv
adop
leave
alleged
##land
eighty
employer
sw
sentencing
##mption
mom
##ier
custom
##uced
##ici
requirement
liability
fall
##lines
economic
head
create
bankrupt
fel
income
##ying
##action
meaning
supposed
##ensive
dollar
entitled
occurred
written
concerned
applied
prec
treatment
morning
event
struct
companies
funding
mentioned
esp
describ
sex
##eed
soc
disag
##reen
gone
##ients
changes
bal
##ne
decl
##ash
areas
favor
##wise
eleven
dev
##ister
instruct
altern
##ecially
planning
especially
tre
saw
charge
asso
return
conviction
vis
exec
official
longer
creat
forth
bankruptcy
intr
civil
##wards
restr
families
##hold
ordin
##ake
##atic
##omp
improve
resources
purch
prosecut
##err
reading
young
due
extr
include
become
regarding
debt
accord
arm
investig
##ned
##of
remed
themselves
throughout
particularly
##ties
below
##gn
sk
neighbor
points
worked
##ediate
activity
##erve
##ension
investigation
##lier
##eter
##aged
changed
please
wonder
##ale
potential
raise
im
critical
traffic
##ender
##come
##utory
##iance
conclud
date
file
dan
extent
##acher
instruction
quick
requirements
##ators
justice
conspir
##ibly
convict
assess
##uff
##hib
works
anyone
##enses
directly
allegations
figure
space
book
mand
vide
detail
hosp
distin
trad
##val
billion
prove
relief
concerns
##iation
versus
standards
human
industry
flo
social
warr
anybody
associ
york
teacher
independent
dealing
haven
otherwise
giving
##no
##encies
cert
ap
jobs
women
##osure
submit
##lf
employee
statutory
regulations
likely
recommend
alth
although
blo
afford
aware
ultimately
##itary
##idents
##acter
hospital
##ock
moving
food
demon
##icial
immigration
veh
unless
demonstr
discr
key
contrib
##ph
obligation
included
thinking
##ark
##imum
administration
management
theory
funds
##igence
consistent
workers
##work
ann
testify
function
ful
price
appre
##ining
earlier
##ode
##ocr
rate
coll
putting
win
comput
parents
immediate
fal
disagree
##ained
foot
fourteen
settlement
##ina
adver
attempt
##gh
instance
##ament
low
##lict
conclusion
enforcement
fol
multiple
midd
cop
college
thirteen
americans
gas
lack
rob
lower
##pped
element
technology
false
meas
##alu
often
contact
practice
night
proposed
actions
center
prevent
guil
original
numbers
team
range
sho
##set
agreed
compar
takes
democr
##used
reven
##ured
terr
stuff
known
contro
fourth
##ang
behind
evalu
purs
arbitration
character
responsibility
folks
litigation
majority
safe
interpretation
sout
##now
##how
lost
draw
beginning
total
middle
lawy
transfer
body
norm
comb
loss
mess
##ral
finally
continu
employment
exerc
conspiracy
military
##room
payment
##bs
frank
created
##ories
established
pointed
physical
fees
maintain
press
superv
##az
check
##ott
proceeding
following
##co
tried
univers
properly
according
drugs
regulation
fa
somehow
di
doctor
encour
##ino
recognized
applies
##equ
compens
weeks
camp
manag
findings
limitations
##ck
##aid
implement
conflict
proceedings
exception
plead
failure
##go
stated
wind
intended
student
addressed
prejudice
piece
volun
declar
##ins
pan
capital
strateg
taxes
##aster
prison
looks
incor
error
moment
wants
provides
introd
story
##ired
##reg
determined
prepar
field
##eng
corpor
##izing
happening
##utions
committed
##lace
##ource
attention
mental
none
protection
pop
buy
submitted
categ
projects
##sy
sevent
watch
##fact
kinds
sound
ant
chance
distrib
okay
living
##ault
elements
interesting
princip
repe
##asing
warrant
neighborhood
love
coverage
affirm
reject
walk
reco
##licit
susp
vir
dom
sixteen
won
consideration
##ases
activities
##hn
citizens
argued
extra
plans
providing
assume
guidelines
##enced
existing
##ri
responsible
##atives
park
economy
political
unre
offense
policies
video
factor
fundament
showing
communities
transport
businesses
mist
commerc
##oid
failed
near
receive
phone
john
code
north
status
penal
pict
share
union
chairman
##ciate
send
connection
net
##ffer
white
death
rev
meth
age
contain
##itor
##ert
study
labor
alternative
danger
hig
reference
satis
kill
consent
##oper
telling
##eech
comment
tit
##orr
##ises
unc
prosecutor
speech
narr
resolution
spend
opposed
abuse
count
fully
award
crit
efforts
underlying
##idential
admitted
various
simple
##ium
##ufact
comments
passed
permit
facility
proof
role
training
choice
fix
preced
##up
pred
mass
weap
profession
gent
manufact
commercial
deli
shouldn
washing
among
knowing
dog
remain
higher
ball
note
##ists
men
ton
arguing
listen
identify
nat
cited
oil
rely
provisions
news
license
guilty
door
parking
aud
computer
understood
paying
##ley
deg
aspect
assistance
happy
pull
willing
administrative
primary
##uction
petitioner
secretary
west
ens
##xic
##cript
recognize
##ograph
panel
##eness
break
##eign
fine
grand
senate
consequ
prem
base
##ished
conversation
##anding
obtain
early
article
currently
calc
##que
##ortun
types
performance
satisf
##agraph
investment
clar
##ength
##pective
card
fight
##ters
termin
election
places
il
##eren
himself
qualified
##ctions
running
unfortun
tex
weren
trade
bur
##ron
green
clean
initial
probable
##ane
washington
knows
organization
suffer
paragraph
reflect
mother
partn
minor
violence
engine
generally
negot
veter
seventeen
tar
alone
sched
execut
faith
##ape
charged
##ats
agencies
objection
murd
aren
obs
regular
vehicle
ruling
illeg
drive
legislature
##ames
eighteen
pack
republic
mich
temp
interested
prosecution
doubt
lives
south
##head
immunity
denied
appreciate
concept
director
reports
##ground
spent
feet
##bo
intention
merits
##fect
ste
propos
##ams
cooper
indicated
gl
##ipment
##pping
##imination
black
items
distinction
gentlem
nobody
offered
select
discussed
title
speaker
quickly
clause
remedy
ban
behalf
##ops
agent
adj
minute
extreme
phot
table
wait
##pay
immediately
constit
quality
schools
##ering
residents
##chan
adequ
products
texas
gives
structure
worth
tonight
ur
##dd
##nel
##agu
covered
vac
##ove
div
har
perfect
emerg
##umption
plain
capac
##verage
scope
effective
equipment
balance
credibility
travel
felt
ge
sor
floor
issued
minimum
explan
arbitr
##uge
##ordin
shar
autom
ign
##ones
serve
opening
##ero
frankly
bott
troub
spending
breach
##ugg
rad
driving
ones
protected
restrict
glo
##isc
approved
grad
murder
revenue
##bal
##ush
incons
ready
demand
narrow
##urs
systems
hands
model
mort
##nes
matters
##itch
san
events
results
holding
webs
##ervation
hyp
sold
histor
basic
discrimination
sorry
moved
interview
controll
seeking
##aft
trib
##unction
friend
skill
ran
pick
##ouch
cell
behav
capacity
charges
acqu
target
clients
##know
teach
apart
##ots
consumer
amb
paper
procedure
parts
##istic
possibly
##ique
tele
method
infl
teachers
becomes
##ota
##aging
portion
instructions
homes
ach
##ored
attack
continued
##igu
dece
##tingu
owner
##oud
closing
recently
seeing
patent
debate
##uit
stage
##unch
entirely
carry
asse
lose
science
possibility
easy
exercise
avoid
illino
illinois
##eth
appoint
##ift
self
identified
acknow
talks
correctly
transportation
myself
payments
##icient
heart
##uth
relig
sitting
##ury
inno
taxpay
reduce
unfortunately
appar
engage
prohib
contracts
degree
##iber
scient
repeated
imag
relied
operating
achie
##vered
option
mere
##by
elig
customers
progress
hypoth
goal
exe
release
source
##itable
judicial
treated
pages
natural
##agues
probation
supported
fill
sales
##af
includes
retire
entered
compensation
##ump
direction
executive
squ
##oke
plaintiffs
lawyer
compon
contrary
starting
greater
jail
steps
organiz
jan
challenges
zero
legislative
oblig
accur
accomp
interests
calls
delay
sexual
showed
touch
sto
fundamental
disability
##unities
hasn
sep
university
turned
convicted
explanation
encourage
##char
##ls
inspect
infring
transaction
allegation
valid
focused
##ike
towards
distingu
lots
media
developed
granted
average
perspective
##tember
september
mc
##ming
meant
reform
ide
game
dead
judges
colleagues
fle
overall
firm
box
confus
successful
chief
involve
leadership
ded
sale
woman
mortg
huge
lay
designed
pain
became
reasonably
possession
opportunities
analy
##ah
##roper
purchase
##ler
improper
location
guy
potentially
noted
father
allows
##ster
truth
website
indeed
facilities
emergency
##uary
soci
log
incident
march
surve
ninet
unique
path
described
rates
recent
experts
barg
thousands
hypothet
caused
behavior
forec
picture
subs
illegal
summary
relative
fee
believed
##isp
mexic
ahead
bat
mus
assign
examination
cash
libr
##eme
accident
friends
unreason
##more
##aries
disab
##order
previous
increased
adjust
fairly
tradition
seek
regardless
circumstance
veterans
communication
usually
central
adopt
##ana
conced
##ried
foreign
manager
tas
##oting
joint
compliance
plea
production
##ishing
experi
bringing
##cer
##augh
gentleman
lines
##yc
statutes
liter
cand
vari
integr
flor
intell
##ilt
wel
text
register
normal
message
january
dest
##ommod
fit
fifth
##aut
##dict
accommod
procedures
##arant
agend
legit
international
wonderful
professional
shown
mechan
waiver
soon
mark
filing
cur
background
strugg
appeals
##erved
##estic
bottom
served
exclud
ensure
##tries
anywhere
comply
produce
loan
verdict
##ective
mandatory
pun
rout
##let
officials
precedent
adopted
tool
##astr
copy
##orrow
##jo
approval
ira
ine
##igan
differently
indict
##eless
options
led
deposition
guarant
objective
hom
track
operations
damage
learning
gar
##bur
##ulate
towns
precise
##pa
store
frame
subsequ
patient
association
prepared
december
site
perman
##sych
constr
considering
##going
##anch
expand
deliber
excess
previously
manner
##sh
##icles
added
agenda
wish
prices
participate
##aking
operation
measure
inside
advert
content
sust
rejected
##ra
dav
honors
proposal
emph
writing
domestic
organizations
defined
supplement
aside
max
ce
##iated
june
assessment
##issions
growth
gir
##izes
positive
nice
##oming
explained
link
choose
psych
meetings
ambigu
suspic
above
##ously
changing
explicit
briefing
speaking
affordable
late
realize
mistake
shall
learn
creating
desp
cult
society
situations
injunction
negl
fear
hot
estate
yourself
robber
anim
declaration
penalty
unreasonable
##vember
##ulated
november
occas
procedural
tur
plant
dismissed
concluded
imagine
iraq
built
levels
michigan
tro
obvious
ordinance
dangerous
forecl
##ront
affected
##point
##rep
undisp
emphas
oct
enjo
square
wall
substance
bond
advoc
global
candid
chap
indian
##atically
discip
undisputed
wife
##band
acting
sav
engaged
doctors
inqu
followed
rise
liber
population
hall
##dr
ordinary
reserve
brok
##amed
##ression
consumers
despite
##cket
##ida
quar
expenses
totally
partnership
##law
appell
confirm
flow
groups
continuing
inconsistent
##ober
##idav
countries
affidav
increasing
voting
consequences
##actions
ideas
october
##ucing
rich
plus
helpful
indicate
supervis
rational
shot
orders
host
##ery
##ened
indication
materials
environmental
incorpor
hypothetical
##fort
sole
smith
strategy
vo
##uly
presum
descript
volunt
analyz
attr
stra
##soever
scr
adverse
##iable
whatsoever
efficient
instit
##urch
reported
##reh
##ular
allowing
advant
parent
##ples
##ival
counter
construct
importantly
signed
size
uses
florida
rene
chr
somewhere
transcript
window
driver
reality
profit
bound
##rew
##umb
unit
recall
phr
tort
station
cam
presentation
##ester
agreements
gang
hit
mit
equal
adequate
intelligence
##anced
infr
senior
electric
setting
motiv
ongoing
hundreds
##erson
mach
reviewed
suggesting
legitimate
welcome
pic
mortgage
library
##ores
enh
attach
honest
##ball
helping
straight
residential
dise
mail
##licated
##ague
commitment
requested
doctr
category
bed
##place
##rees
dischar
church
elev
placed
personally
regulatory
exclus
sect
registr
##cup
##elling
custody
summer
##olid
climate
citizen
affirmative
ben
surpr
retal
missing
nineteen
religious
oug
tim
##back
began
anyway
consult
representative
practical
accepted
ought
um
##iar
save
acad
sides
elimin
permitted
properties
removal
corporation
infringe
pending
wide
reb
##ucture
##iciency
directed
produced
##read
##verse
alloc
complex
advis
communications
repeatedly
accomplish
contractor
determining
privile
learned
weapon
academ
##itation
testing
employers
foundation
conclude
recovery
##airs
assuming
##istan
kept
applying
disclosure
util
outcome
guard
addressing
appears
device
##ips
##aign
renew
infrastr
##aul
##uel
mart
buildings
representation
##isan
trig
entity
suggested
fre
##eria
notion
monitor
eligible
acts
scheme
attorneys
technical
##house
gradu
sens
july
practices
unfair
suspect
mal
##iations
##oning
imposed
apr
tom
chose
unus
pled
belief
au
mag
resolve
solution
reached
virt
##standing
heav
##aug
growing
nearly
infrastructure
##lection
speed
tells
waiting
influ
indictment
##town
exhib
##ades
adult
throw
extremely
subsid
pension
hey
occup
receiving
recommendation
##oring
truly
pattern
sil
clock
remand
victims
savings
active
internet
permanent
relying
agr
volunte
mission
supports
johnson
##to
somewh
crimes
mexico
doctrine
somewhat
##erce
conference
deep
##gust
former
##stitutional
associated
##ateral
infer
briefs
essential
##ets
##ifications
assets
china
compreh
bills
amended
package
guid
examples
millions
referred
trouble
incred
scen
removed
achieve
april
hop
uncon
opinions
guideline
arrested
invent
referring
incorrect
##hern
goals
severe
criteria
##istics
effectively
campaign
##aughter
agricult
prep
involving
accounts
august
aggr
tempor
robbery
demonstrate
guidance
email
pressure
patients
firearm
weight
##ifies
commerce
##ological
schedule
border
replace
definite
lawsuit
inquir
complaints
pree
withdr
impose
larger
principle
network
apparently
withdraw
units
limitation
##abor
##ude
violated
letters
retirement
##change
incent
seconds
senator
pursue
dedic
unusual
bag
##ny
##he
##lay
##iced
supply
expected
mad
instances
resolved
##light
##ream
revers
##ading
exists
medicare
agents
continues
briefly
gather
##lear
contest
calling
suppose
master
##eenth
brown
brother
termination
gotten
proud
##aught
match
qualify
visit
##ronic
acknowled
merely
advantage
sounds
push
##comm
##aving
phrase
race
suit
truck
##acking
screen
supporting
##iders
##ada
##issible
operate
evaluation
accurate
hur
##idge
polit
keeping
extraordin
registration
##iary
highly
imposs
voted
grounds
##iers
color
facing
##like
articul
walking
jack
excu
books
excuse
##here
consist
holl
typically
challenging
aggrav
##ij
wrote
surv
principles
ended
confusion
suspicion
##cell
unable
lands
internal
ultimate
##represent
##put
obligations
fisc
geor
description
rent
retr
ourselves
poor
positions
math
limits
familiar
sustain
beaut
distribution
principal
##tle
presumption
bush
approx
quarter
jump
clos
evening
version
controlled
dig
lif
##ening
##isis
career
released
initi
rail
inference
closed
stopped
##time
authorized
competition
army
chapter
listed
customer
chem
bi
##ma
##state
sudd
strength
misrepresent
sudden
jer
length
crisis
strict
##ancy
infringement
dil
##sey
recommendations
##hau
unlike
transm
elected
announ
flex
bargaining
enjoy
christ
sector
initially
names
cler
assert
advance
pursu
comfort
reporting
credible
negative
mechanism
affidavit
ali
anymore
exclusion
subsequent
seventh
largest
misc
irre
component
##wal
##ston
troops
##ipp
contemp
session
studies
competitive
##acted
##ortion
write
scientific
nor
##bors
##agn
upd
amaz
concer
holland
stip
twice
counts
violations
toward
draft
forms
hopefully
discrimin
surr
arch
command
##ibilities
impossible
##haust
stock
roll
retail
republican
##lin
##erous
##iny
contrad
certification
innov
remind
conversations
hus
##abil
series
broader
##active
trigger
da
mix
starts
injuries
pleading
music
bid
eth
rac
reverse
exhaust
located
neighbors
terminated
ey
##sight
##mb
percentage
collection
completed
duties
task
mic
easily
##appropr
bind
primarily
literally
conce
feed
##men
##road
raising
denial
selling
##enance
memor
minnes
vill
god
loans
##izon
extension
turns
double
clarify
##akes
ownership
seemed
weapons
precisely
inher
lat
river
train
remove
blood
introduced
exchange
traditional
bul
bip
##tts
##inations
##arks
whereas
##achuse
originally
##achusetts
sher
congressional
massachusetts
freed
maint
ut
##apers
depos
owners
reduction
priority
##whel
maintenance
ms
trem
complicated
overwhel
serving
discussing
respectfully
represented
discretionary
comprehensive
husband
conclus
anticip
fast
nurs
zoning
amendments
annual
##iju
##ards
secure
efficiency
confidential
applications
causation
terror
##na
island
hadn
governor
##ancing
amounts
##ijuana
compr
reply
assault
blue
eventually
details
skills
##iors
fort
afric
conducted
voters
hill
pros
##osite
guys
handle
increases
proposition
leaving
marijuana
ohio
inquiry
minnesota
brings
willi
relates
transactions
motions
reduced
distinguish
supplemental
frequ
scenar
tremend
##lated
retain
bear
notes
deciding
coach
personnel
educational
leaders
perfectly
variety
disease
rein
##artisan
branch
approximately
pub
club
quant
confront
equitable
injured
significantly
preclud
##els
regional
creates
##right
##atures
importance
estim
prevail
cities
vision
emot
causes
convictions
sources
##ologies
aspects
round
##hol
input
##iev
append
presence
violent
aid
worry
districts
freedom
cars
hearings
movement
schedul
divers
lived
pow
whose
waste
region
trail
poll
overr
depend
refused
disabled
punish
##rete
slow
camer
worse
stress
penn
debtor
diagn
enhance
mun
##yn
##over
const
sun
numerous
lawyers
taxpayers
sn
season
brain
miles
industr
fiscal
online
smaller
dram
satisfy
jones
##wide
##orts
##onduct
privacy
litig
trustee
maximum
turning
voice
appendix
bunch
cat
##ex
##der
recre
carol
generation
deny
attempted
##itude
forced
impl
claimed
downtown
helps
photograph
king
son
reim
recon
suggests
pieces
collective
definitely
neither
thinks
timely
depr
extend
suffered
relatively
negligence
transition
opposite
felony
guarantee
extraordinary
hun
shut
differences
##iolog
##lington
##ivity
implic
##ago
discussions
advice
connected
##ians
##igent
liable
interven
##rog
informed
opposing
airport
normally
##bru
febru
depending
indicates
february
##iful
values
instructed
evident
peace
insured
emb
prefer
answers
advisory
clin
classroom
effects
##van
reh
teaching
##iform
cham
entities
##ician
overse
afterno
insu
admission
participation
uniform
ordered
farmers
improvement
democratic
engineering
solely
bipartisan
ice
##greg
minim
falls
apartment
deput
biggest
leading
contradict
##ps
entry
resident
partner
##ounting
scale
investigate
arbitrator
restrictions
uns
recons
vermont
sets
occurr
deliver
misconduct
reconsider
##uting
claiming
depends
asser
secondly
barr
wild
introduce
village
je
##ico
##arth
##inth
fired
scene
##ception
developing
concerning
afternoon
sle
##oted
##iring
brand
afgh
representatives
sidewal
virgin
clerk
rid
temporary
bir
shif
substantially
easier
collateral
manufacturing
fuel
paul
subcomm
interpreted
manufactur
subcommit
hy
rap
analog
independ
named
spoke
remaining
departments
convention
ninth
##pl
##icians
voluntary
gain
##ulations
existed
strongly
##iner
possess
classes
ineff
daily
daughter
forces
##aves
disputed
representing
references
playing
cuts
discharge
yea
##icing
puts
applicant
illness
meaningful
block
recover
explicitly
sending
##face
killed
subcommittee
yeah
##ban
##ality
forget
##amb
spons
involves
permits
collabor
fash
default
attend
##lihood
impacts
fraudul
render
stories
detailed
watching
##ners
alco
##ensus
boy
legally
esc
absence
warning
exemption
beautiful
overwhelming
insufficient
diss
signs
ruled
enterpr
fashion
wage
##ef
##cing
join
carr
compared
taxpayer
tough
whom
acted
requiring
existence
solar
tremendous
municip
afghan
jour
disreg
##aced
##enders
coast
approve
seriously
cele
carolina
laid
soft
##iveness
##roll
protecting
permission
premium
oce
sought
exceed
liqu
admit
sorts
democrats
##book
pip
##cl
##ables
alle
##aces
substit
drop
markets
harmless
slight
##phone
uh
reop
oversight
influence
unconstitutional
surround
investors
disclosed
describe
losing
pocket
thanks
##iculty
persons
difficulty
satisfied
bon
##oph
mayor
extensive
preserve
addresses
carefully
technologies
radio
applicable
opposition
respondent
guns
predict
destro
warm
##iment
pool
licens
struggling
disregard
lie
inappropr
persec
survey
advertising
retaliation
rough
decades
investments
improvements
distinct
controvers
##riage
mau
##oles
stri
suggestion
houses
tribal
resid
expensive
helped
substantive
grants
communicate
jackson
stem
dispar
lease
capt
century
alcohol
inappropriate
##cher
shift
smart
extended
minority
supervisor
##gl
chic
##ustr
profits
feeling
motor
liberty
snow
arizon
homeown
revenues
republicans
pure
##lvan
##aine
##illing
tap
violate
dealt
expectation
promote
##sylvan
fixed
amazing
pennsylvan
fraudulent
arizona
sar
##bon
consc
motive
shooting
comprom
rat
tick
##yl
resist
reck
division
deference
detention
leader
contained
pennsylvania
sand
aband
justify
consolid
contractual
highest
commissioner
choices
older
appointed
maui
fem
papers
vent
inm
##ume
##teenth
examine
waived
challenged
constant
chicago
wat
##ieth
##ama
spl
miller
reviewing
##ucky
contribution
privilege
tomorrow
hired
excell
persu
highway
discovered
expressed
banks
attached
##iat
whe
##section
invention
drink
strike
sentences
valu
equity
publish
##omin
##ulting
english
settled
remains
framework
sheriff
sac
careful
corporate
fighting
chemical
pil
tradem
vehicles
intentional
east
defer
deem
##oked
install
measures
yester
unp
audience
foreclosure
williams
yesterday
sam
##aken
define
reliance
finance
ineffective
##aded
residence
stands
healthy
delivery
unlaw
confidence
requests
disclose
tools
concrete
phil
closely
reckless
##ushing
spir
worker
provider
prescript
accounting
offering
electronic
wondering
listening
##wr
shel
essence
combination
bench
cents
mary
wire
##sement
identical
treating
modern
jersey
deleg
expense
corner
failing
excessive
davis
##water
prox
compelling
focusing
medicaid
##omas
underm
likelihood
benefici
responded
calculation
irrele
cite
##lined
ther
forg
intend
##force
deploy
marriage
faced
tend
haz
conve
exceptions
dogs
adding
generic
promise
recommended
roads
swe
scenario
irrelevant
harr
vast
che
repair
rober
physician
partners
excluded
ow
##west
##tered
whenever
transpar
##cast
thomas
##itution
disapp
compare
coc
restitution
identity
performed
experienced
candidates
##asive
funded
bigger
relationships
devices
trafficking
sleep
virginia
##iday
gold
chain
plenty
##eline
relate
glad
eleventh
forest
cancer
##mpting
responsibilities
burlington
historic
deputy
bure
spread
detect
contractors
typical
surger
solutions
returned
telephone
comfortable
prong
star
conven
##unk
excited
exempt
closer
youth
plaus
foster
pleas
votes
suffering
timing
wood
##ware
##off
neut
complaining
modification
streets
harass
##iet
##esh
##ites
friday
##osen
belong
administrator
hurt
aven
##etic
colleague
resulted
similarly
institutions
aggress
expend
secondary
stream
label
transferred
pictures
temper
cooperation
afghanistan
lau
plants
bridge
##arsh
goods
passing
certific
culture
binding
bod
##bile
##tery
##abilities
spring
offender
schen
channel
finish
urge
automatically
acknowledged
catch
##itect
resource
offenses
equival
certified
anti
architect
gall
##ectady
solve
threats
contributions
shoot
bureau
schenectady
bab
##ires
##astic
owned
securities
innocent
occasions
courtroom
flight
stake
ballot
involvement
academic
die
fing
sister
##fe
grade
relating
deals
reimbur
gap
beach
repl
phase
##crib
arrange
categories
obtained
ambiguity
mitig
nuc
odd
rico
##do
##uses
proven
parks
confused
played
##ker
##iter
print
griev
fellow
ambiguous
presumably
electricity
aggravated
sports
defic
postal
attempting
appellant
sick
##ucks
offices
exhibit
madam
borrow
##ios
abstr
carbon
##resp
absent
comparison
african
bought
impair
conservation
highlight
walked
performing
datab
components
der
tied
tour
##yed
##care
##aled
sixth
topic
pulled
powers
enterprise
allege
toll
stim
##loc
transit
broken
ken
##iant
seat
##orted
worst
providers
standpoint
realized
patr
treas
evaluate
alien
hire
##ulative
reasoning
expans
salary
shared
earth
spok
demonstrated
constitu
emotional
coal
governments
eighth
authorization
diab
historical
cocaine
##cel
asset
recru
assistant
##ney
favorable
##holders
acknowledge
##ycle
registered
##oms
corre
equally
refers
drawn
copyright
mir
institution
jun
flood
fundamentally
machine
volunteer
substitute
mut
subjective
alternatives
conceded
nuclear
##pper
spot
exposure
specification
remedies
##ography
agrees
spect
plat
expressly
prohibited
david
discipline
##field
gross
formul
advanced
film
identification
armed
consistently
municipal
##ship
selection
trained
defect
checks
fortun
profess
expertise
compete
reaching
agriculture
fab
##omb
stick
speculation
formal
misle
strategic
penalties
knowingly
ocean
surgery
wear
withhold
boston
buying
useful
ignore
hoping
ment
coordin
believes
files
neighborhoods
accommodation
routine
onto
questioning
memory
bloc
neutral
et
disrupt
determinations
display
answered
hotel
diligence
celebr
shop
recognition
hospitals
##ov
##oned
fores
tests
reliable
pharm
membership
##iverse
combat
burgl
monitoring
unlawful
expendit
biolog
fish
##ford
##ole
weather
##irect
eliminate
prepare
objections
occurs
implemented
implementation
attrib
eur
ren
rental
##fill
##nings
##orter
asyl
errone
girl
animal
picked
politics
asylum
##gia
##icide
##ested
sentenced
complain
disputes
flat
adequately
ignored
construed
cart
cable
habit
isol
##osis
crack
dro
employed
leads
critic
sacr
chart
priorities
views
prejudicial
soldiers
telev
assemb
indiana
roughly
##kins
transform
capable
opened
participating
medicine
concede
integrity
emphasize
caught
##ays
decre
dependent
##resents
blank
stronger
dash
sad
wil
##lor
##pet
trip
denying
powerful
trees
restriction
occasion
misrepresentation
published
trademark
abstract
##raid
##ecess
decides
medication
exclusive
chamber
fault
thus
height
##olution
undert
contention
signal
authorities
winter
democracy
excellent
##note
##ado
cold
afraid
fails
##aker
succeed
switch
mandate
intentionally
dedicated
diversity
spirit
core
##ertain
shape
nev
elections
uncertain
scrut
incredibly
preemption
mond
##yal
##ka
conver
une
impression
##ansas
represents
assigned
valuable
##erves
##orage
##robor
household
marketing
electr
died
fresh
western
split
europe
native
heat
chosen
thres
herself
terrible
constitute
virtually
pursuant
dict
##vereign
sovereign
justification
##tees
drivers
southern
deemed
band
##wood
##yle
spr
finds
processing
flexibility
sidewalk
ep
wages
##wor
storage
recip
interv
directors
affects
footnote
cards
nevada
threshold
considerations
mont
accountability
distance
therap
divid
pump
##med
consequence
equivalent
om
##aur
##den
map
##stru
renewable
heavily
persecution
television
los
##osures
bright
hero
boards
protections
proceeds
##elled
threatened
incentive
landsc
monday
pal
vet
##alid
dress
informant
pleased
begins
younger
appreci
analyze
slightly
surrounding
##ez
storm
soph
invalid
cutting
route
georgia
camera
hor
nut
##nal
##itors
instru
forum
charging
ends
reducing
creation
mitigation
certificate
dream
##inent
fell
largely
##ai
##limin
wealth
disaster
alj
##unt
counties
sympt
recognizing
appropriations
surface
risks
functions
causing
surveill
constructive
reversed
harris
mine
porn
web
stations
user
species
genu
produc
regulate
oppon
physically
images
inspection
beat
oral
regards
valley
combined
photo
sharing
filled
disabilities
##held
initiative
dial
nur
va
##lishing
##bing
##etes
tail
responding
documentation
negotiations
recreation
reopen
saras
genuine
sund
offers
claimant
separately
creditor
satur
purchased
logical
evidentiary
birth
liquid
surveillance
spaces
greatest
maintaining
deliberate
burn
gate
##urally
workforce
passage
appropriately
immigr
testifying
acquis
martin
conclusions
rapid
venture
misleading
erroneous
lake
##antial
prelimin
cool
manif
concent
married
locations
operator
rehabil
avenue
leaves
pointing
corrobor
##print
formula
games
##mploy
##arden
affairs
##ifying
credits
refus
articles
competing
creditors
elementary
motivation
incredible
##ows
sue
##usion
##apt
suppl
seniors
punishment
##aks
##enger
worried
intel
database
diabetes
preliminary
lou
rare
vital
##ble
##itate
reve
magn
recorded
rock
sanctions
plausible
amp
sir
defe
corresp
assumption
targeted
correspond
tenth
##wer
busy
protest
shortly
micha
adjustment
incorporated
sections
becoming
flag
lesser
significance
solid
reflects
carrying
battle
nav
recyc
recording
committees
raises
controlling
confusing
ship
entr
##eland
harder
apolog
allocation
innovation
foresee
unemploy
fat
##inson
conting
hears
##ulus
##ulating
additionally
referenced
runs
feels
participated
improving
encoun
dismissal
allegedly
managers
proposals
girls
sensitive
horr
ven
overcome
objected
engaging
settle
automatic
spoken
bes
nas
##etary
perpet
cook
signing
passion
sufficiently
functional
predic
discriminatory
utility
industrial
overseas
software
compromise
prescription
pound
##het
stuck
sued
explaining
promot
heavy
female
haw
##aylor
bylaw
estimate
pak
follows
terminate
adoption
township
conscious
dark
tv
forever
moral
entering
animals
wheel
scrutiny
acquisition
##see
statistics
subd
departure
##apping
experiences
replacement
transmission
expansion
sarasota
nort
nations
##iles
overt
mov
thoughts
circumstantial
permissible
contempt
saturday
pakistan
breat
##bel
unan
corrupt
healthcare
noneth
characteristics
journal
platform
louis
nonetheless
##bi
sem
remote
finished
speaks
marketplace
circuits
territ
articulated
##down
##lex
unn
planned
mostly
observed
inconsist
ranking
advocate
weigh
resc
conserv
contracting
monthly
fairness
prosecutors
contribute
premise
accommodate
exclude
voc
yield
remarks
roof
margin
desire
emissions
participants
appearance
eligibility
retro
digital
##acting
stating
pays
processes
meets
passenger
controls
petitioners
##etera
categor
delivered
rationale
railroad
deficit
cetera
taylor
rising
superint
volume
reflected
assignment
bedroom
asserted
##isa
atm
##forward
##ensity
invited
detective
limiting
entertain
appeared
scientists
suddenly
##linary
intellect
unanim
advers
span
incidents
regulated
restaur
requesting
centers
prevention
guilt
messages
supervised
awarded
vacation
straightforward
agricultural
baby
##oman
##illion
nowhere
proved
probability
capability
facil
generate
assumed
sanction
sophistic
dur
male
wisc
##ding
##bed
##areness
##icut
noticed
preserved
##onsin
peters
designated
connecticut
physicians
awareness
apparent
enhancement
controversy
michael
apologize
wisconsin
rog
##iven
lob
perce
acres
repeat
pornography
nurse
hiring
pu
vice
enorm
decade
##theless
crow
covers
nevertheless
##iana
recognizes
implied
alter
cruc
arguably
struck
boys
selectmen
distinguished
adults
##ax
anderson
chines
arise
reput
##ressed
charter
proposing
jurisdictional
merit
universal
occurring
chinese
born
yard
##hand
ath
param
administer
deadline
honestly
sunday
lunch
zone
##ipped
##with
##oration
justified
##erman
afterwards
viewed
interpre
missed
balancing
confirmed
temperature
manifest
pac
pushing
pray
##verty
sees
users
interior
features
identifying
mixed
nursing
reimbursement
grievance
holid
marsh
##iability
##coming
seiz
trash
apple
accused
remark
carp
fourteenth
exciting
urban
hazard
##rum
examiner
keeps
modified
generated
supervision
garage
##paper
depositions
symptoms
atmosp
bless
hol
##oline
incur
argues
moot
examined
periods
errors
collected
battery
candidate
broker
memorand
withholding
northern
##anes
doz
dish
manual
placement
representations
broadcast
copies
fields
##aneous
constitutes
constituents
##enn
stores
poverty
grass
##retch
presenting
refund
newspaper
terrorism
##each
cry
boil
sites
budgets
drawing
homeland
advertise
psychiat
cultural
rebut
announced
tact
##ux
bell
asks
trucks
##under
insist
indicating
organized
acceptable
creative
image
distribute
inventory
update
harassment
burglary
rand
vul
stretch
unw
##uctions
indirect
accessible
minds
multi
describes
firms
mutual
tree
##fall
##cc
##anor
spouse
publicly
arrived
discover
teams
appointment
estimated
fly
jap
##erving
inch
interstate
interrog
beneficial
handled
racial
finger
cycle
unqu
impeach
##ensions
strange
answering
acceptance
##ervations
structures
gentlemen
selected
subdiv
dad
sum
resulting
impr
lawful
##load
deserve
elsewhere
barred
institute
surprised
homeowners
pill
tight
##iest
##iency
cast
compel
wanting
columb
tennes
lock
players
expectations
lights
negotiated
boxes
crucial
tennessee
mile
##gs
##zz
forfe
chase
outset
overl
governmental
investigating
distributed
calculated
engineers
veteran
unnecess
##uing
##icks
##orders
joined
carried
producing
judgments
expression
computers
campus
divor
scheduled
kenned
intervention
han
ped
rig
reaction
sequ
trau
##abl
actively
saving
offset
coff
discount
detain
problematic
violating
dispos
operational
relev
distur
disagreement
glass
bargain
memorial
waters
kennedy
taught
vend
juven
##trial
enacted
manip
expanding
score
counseling
methods
improperly
struggle
frequently
dramatically
inn
implicit
incar
consensus
pretrial
grid
accountable
structural
religion
torture
firearms
aggressive
superintendent
epa
abused
feas
objectively
returns
voluntarily
announce
bother
##istry
##ille
expired
alleging
blind
prosecuted
financing
farmer
purchas
managing
engineer
arbitrary
volunteers
hearsay
dates
kick
kitch
lying
rural
##itr
##acc
everywhere
firef
stayed
gasoline
contains
obligated
curious
stipulation
carrier
sophisticated
vulner
jim
upset
driven
edge
responses
proffer
maintained
preparing
mistakes
disciplinary
picking
nutr
incarcer
lad
##ham
reward
indif
schol
protective
conducting
prevented
harv
pilot
memorandum
eat
kent
kansas
rain
weak
commissions
wherever
concurr
classified
mississ
successfully
negotiate
tribe
##after
windows
graduate
virtue
inherent
enormous
##gers
##ateful
trillion
paral
individually
retired
improved
##apped
declarations
unclear
clarification
bias
##ippi
feedback
photographs
ticket
maryland
renov
##ableness
mississippi
##iating
##ouri
billions
calend
impacted
missouri
shoes
##board
historically
incentives
sustainable
strictly
pursuing
nurses
independently
purely
stimulus
shore
##odes
##ealth
irs
implementing
preparation
baseball
psychological
negligent
manufacturers
sample
correction
fabric
assembly
louisiana
din
paint
wed
welf
committing
moves
boat
serves
prosecute
misunder
separation
breaking
losses
corporations
traveling
subsequently
deeply
shifting
dropped
welfare
cab
confer
frustr
transf
handling
explore
submission
burdens
superior
accordance
mistaken
survive
drafted
spectrum
professor
electrical
cul
ru
##well
##stone
##ett
##lder
suicide
moreover
prescrib
relation
##ountain
complained
affirmed
manufacturer
opponent
grew
##late
##aling
outstanding
imposing
grown
planet
definitions
variance
broadly
preponder
constantly
transparency
atmosphere
##arian
quot
perception
defenses
wrongful
barre
licenses
domain
regularly
recycling
dimin
mountain
##eper
stability
##aming
disorder
workplace
preservation
misd
falling
continuous
surprise
expenditures
preponderance
##inct
whoever
##cuff
##ogue
holds
supposedly
professionals
attacks
expanded
george
eyes
precluded
jeff
shelter
hud
##ington
notwith
mobile
understands
royal
threatening
executed
encouraging
photos
machines
contested
intellectual
calendar
notwithstanding
bare
##ipping
##mond
##bre
##erpt
##icious
reloc
noise
exposed
propose
excerpt
competent
promised
investigations
strategies
walker
diagnosis
intervene
tolling
habitat
bay
##essions
##amation
##aware
contrast
relies
programming
authorize
hardship
furthermore
barn
fulfill
##azy
inmates
convey
seizure
##nch
partial
brady
grab
exped
marks
inspir
##ocol
admissible
invested
modify
iran
totality
consultation
eye
rendered
crowd
athlet
dip
vary
##po
stabil
ange
twent
tested
presents
developer
voter
describing
conflicts
exclusively
inherently
tape
treasury
kitchen
gift
thor
##aska
ham
conform
canada
lied
interm
interaction
availability
granting
heads
arms
contacted
logic
destr
inferences
dramatic
dyn
##aff
##umpt
theor
##eds
##key
orient
arises
grateful
managed
distress
##aret
parole
plane
colleg
complied
handcuff
constitutionally
prompt
farming
felon
football
popular
wilson
gender
##tieth
##lord
stood
champ
adjud
##ipts
##eping
##uesday
captain
senators
checked
kel
tuesday
wise
##lim
##asion
doors
subsection
bob
deter
materiality
analyzed
destroyed
delegation
dialogue
rehabilitation
reputation
alex
extern
##acing
enem
recol
rulings
entirety
infect
##incing
demonstrates
bonds
abandoned
relevance
ram
##uits
##anda
clark
deficient
overtime
speculative
violates
observation
deadly
initiatives
quantity
strikes
patrol
landscape
rub
##life
##ented
##icking
abus
reasonableness
admits
classic
approached
suspended
colorado
drinking
dynam
faster
song
tiny
##uild
##da
##pass
inade
solicit
thereafter
##ictions
invite
assure
letting
minister
investing
flu
presidential
accepting
massive
steel
mexican
appellate
wearing
inadequ
bath
tries
timeline
addiction
fox
jurors
confession
lane
convincing
enforced
participant
staffing
comparable
ensuring
##ographic
accomplished
assertion
independence
recruit
unemployment
fits
gre
theories
habe
stol
nov
teen
reliability
##ounded
contam
certainty
confident
landlord
airlines
attempts
licensed
beneficiary
columbia
thorough
census
lucky
##sa
nex
questioned
signature
moder
entitlement
portions
pleadings
engagement
exhibits
articulate
industries
adjudic
habeas
dump
hurr
##organ
##anger
##eters
shell
sheet
interference
regime
establishing
##ompass
functioning
preempt
analogy
arrangement
theoret
fant
##outh
novel
intim
interf
repr
##ocation
advised
permitting
waited
encompass
topics
antitr
interviews
uncertainty
pacific
unnecessary
antitrust
##gment
##com
##ander
proving
reviews
demands
deliberately
dedication
warming
disparity
territory
##iqu
##mas
##erry
##essel
##urning
sea
suff
wells
overlo
operated
farms
paperwork
richard
hostile
conservative
colleges
hate
##fol
##eing
thurs
##isher
##oma
loved
individualized
formed
oppose
weekend
affecting
exercising
diet
domin
##riend
instrument
recollection
thursday
aim
fest
fence
samp
tun
ye
##ses
##ville
##ze
##ald
shots
##actor
reservation
unequ
pertain
defines
auto
shopping
methodology
silent
anticipated
conventional
licensing
ample
dinner
stolen
ca
loud
russ
upper
viable
##my
##stream
quiet
incomp
affil
stops
integrated
##rais
flexible
override
implications
roberts
pleasure
besides
juvenile
hurric
pricing
steal
corners
monetary
applicants
erred
slide
##holder
firefigh
misdeme
nexus
jes
##nown
##known
##iture
##ann
stamp
chronic
intersection
pregn
specified
protocol
capabilities
explains
contributed
oreg
vessel
##gun
##ob
##kers
evol
interrupt
parcel
symp
patents
receiver
faces
waive
qualifications
technically
medications
models
supervisors
litigated
forgot
therapy
incurred
oregon
ec
##reach
offenders
crazy
bases
repay
repeal
avo
covering
citizenship
unfortunate
homeless
divided
concentr
innoc
garden
german
ride
##ulty
unknown
thirtieth
faculty
educate
declined
preventing
safely
contemplated
clinical
supplies
external
innocence
elder
furn
institutional
##ivoc
baseline
##elle
feature
remained
phones
dealer
suppress
flaw
nonp
curricul
connections
degrees
cells
inspector
fortunate
nasa
coffee
transfers
sessions
##vin
##inite
inability
concess
##ivation
desk
smoking
situated
briefed
##craft
necessity
advise
irr
unrelated
revis
magistr
inmate
replaced
pitt
till
##nic
##we
##wealth
##tent
##ha
discour
drove
passes
refuse
arts
fewer
commonwealth
promoting
evaluated
exhaustion
clinic
robert
launch
hawai
vocational
interpreting
cryst
diction
congr
##outs
##acies
##gry
refin
embr
documented
facebook
rooms
devast
investigated
##aneously
stopping
bullet
awards
hind
rose
##ris
##night
coup
##opard
cloth
lee
##inton
crash
##ensively
memo
promises
favorite
execution
restrictive
escal
capture
beneficiaries
pounds
kentucky
du
ease
nomin
##uate
##mark
compact
governing
sometime
guest
scott
trials
investor
handed
broadband
assessments
universities
suspension
calculate
mcc
emphasis
subsidies
christmas
residual
bodies
veto
bow
lady
ray
##gen
##ki
##ench
inacc
##idden
##olic
##rof
detained
greatly
purported
complet
neglect
figures
illegally
motivated
utilize
gathering
confronted
minimal
inaccur
##la
##celer
conj
consec
acceler
defending
scores
congressman
realistic
generations
iron
sexually
confirmation
magaz
philos
##works
venue
inadequate
magistrate
consecut
cig
##mon
##ena
soil
abortion
scar
eastern
optim
investigator
exercised
pleaded
audit
narrowly
utilities
occurrence
tie
theft
alive
demol
metal
breaks
illustr
visual
democrat
pulling
linked
##claim
heroin
holiday
subdivision
twentieth
ble
cum
dna
hang
ij
nar
##fl
##sbur
##comes
knoc
ours
decline
server
proceeded
blow
specialist
difficulties
nationwide
characterization
mathem
jeopard
mitigating
imprison
congrat
mouth
##front
##isons
hamp
##amine
##iel
factually
appealed
balanced
adjustments
guaranteed
withdrawal
premiums
dot
jew
lender
tip
##icked
saved
usual
drain
depression
detr
operates
trustees
videos
lowest
prisoner
mcd
screening
micr
nutrition
yellow
pin
franch
arising
carri
circle
exceptional
checking
airpl
recovered
validity
mortgages
throwing
retained
collaboration
celebrate
biological
perpetr
destruction
dim
mur
row
tu
reiter
stone
anx
excus
commend
##inez
strip
killing
acquired
proxim
philosoph
dup
##ey
imped
##eman
interfer
##apse
thrown
contend
courage
##fficiency
projected
convince
thirds
holder
cooperate
brothers
scholars
##ca
##bl
##kin
clot
groc
graph
smoke
patri
england
hourly
broke
namely
prejudiced
robinson
greenhouse
confrontation
deprivation
corruption
parameters
intimid
buc
##anks
hair
commod
craft
extending
involunt
establishes
harmed
jurisdictions
approaches
##iciencies
structured
prisoners
shares
rebuild
preclude
proximity
auction
bike
dance
mac
rating
rape
ske
void
##ms
##just
##irt
docket
abet
load
clinton
quoting
plate
accus
simult
admissions
##ologist
merch
secrets
clarity
interviewed
incorporate
remarkable
dictionary
##ky
##aly
##asc
##antly
actor
##berg
drunk
endor
runway
collecting
execute
##insured
audio
presume
martinez
malicious
remanded
stipulated
preferred
escape
impairment
overturn
bathroom
curriculum
carriers
##bac
reorgan
##lel
congest
##illed
enable
underne
subcon
deport
corrections
commissioners
subjected
staying
mandated
obtaining
plainly
eliminated
persuasive
convenience
horse
kelly
underneath
subcontr
oath
##rig
##ba
hell
trick
compelled
##umn
universe
##text
##ordination
shoulder
medium
surge
investigators
contacts
characterize
troubling
accurately
touched
wishes
magic
pushed
lengthy
anticipate
prevailing
pollution
pipeline
consolidated
disappear
decrease
vulnerable
tens
oftent
shoc
alab
quo
underwr
##aping
finder
payroll
bump
petitions
earned
portfol
purchasing
skin
squarely
discharged
estimates
trailer
intervening
defeat
movie
duration
crystal
cigaret
oftentimes
aiding
bol
van
##lation
prime
##atell
outdo
unders
index
indef
readily
experiment
plays
encouraged
introduction
revolution
panels
divide
progressive
##burg
richmond
triggered
categorical
restaurant
sympath
alabama
diverse
ps
pod
tank
##mer
##matic
##atr
##ica
##ilton
returning
##while
establishment
salv
harmful
crossing
concepts
urg
delayed
surprising
academy
lifet
deprived
disappoint
pittsbur
bail
ties
##iety
##uous
wet
style
upgr
pretext
ideal
feder
billing
developers
objectives
morgan
respondents
searching
moments
restraint
paragraphs
southwest
radical
affidavits
diseases
tickets
conjunction
pittsburgh
nom
pace
satell
thomp
notices
##ivol
##agon
scan
determines
simpl
walks
posted
##amphet
communicated
combine
compensated
watched
methamphet
premises
achieved
innovative
undermine
montana
unanimous
divorce
##umptions
##iques
fbi
##inced
ang
franc
frivol
casino
##uels
consumption
##apol
considerable
capit
receives
receipt
suggestions
profile
collectively
experiencing
dipl
thompson
methamphetamine
dun
hat
kil
##pan
##orous
alt
coordination
gray
seeks
string
examining
##roph
hook
productive
lessons
communicating
disclaim
investigative
analyzing
##chers
bodily
lobby
interfere
consecutive
cy
lift
rod
##father
##hs
tobac
prud
stable
##olly
verify
hole
sugar
substances
listing
secured
modest
separated
enforcing
expecting
aircraft
contributing
robust
declared
warranty
observations
unlikely
aliens
updated
prospect
wildlife
##ambigu
blanket
entrance
foreseeable
elderly
tobacco
vig
exchan
##ivable
outreach
sake
unjust
unambigu
perj
##emn
intoxic
reads
techniques
treaty
mechanisms
residency
psychiatric
fantastic
eating
hal
hide
sinc
##hed
toler
##ales
whist
##ifice
##umin
preference
serge
locked
lighting
assessed
critically
negotiation
prohibition
retirees
barriers
bonus
excerpts
intermediate
misdemeanor
completion
bucket
diver
rush
quoted
maker
safer
acre
issuing
medically
funny
citation
silence
asserting
homeowner
junior
immigrants
refusal
adversary
mathemat
bart
dw
sight
##otics
##utor
notification
##iling
##uls
offensive
basket
grat
drives
agreeing
joining
directions
##bell
convinced
explos
modifications
cites
disclosures
conflicting
appointments
christian
pipe
facilitate
novo
frivolous
dental
##plus
##att
wholes
lev
##uces
corrected
protects
winning
laboratory
vacc
prohibit
suspicious
allocated
implication
isolated
borders
lenders
rot
##lets
thereby
##child
##ung
reserves
imper
counted
strick
specifics
compliant
surely
respects
surplus
causal
mandates
demonstration
pursued
sustained
subsidy
strengthen
ethnic
transparent
laund
culp
sant
alarm
enroll
liked
##allow
statist
fires
subpo
attended
reductions
defining
searches
sworn
characterized
driveway
prohibits
construe
rolling
conceal
reconsideration
collaborative
indifference
unequivoc
citing
##obile
##lson
reass
##ste
pride
reserved
outs
outcomes
empower
possibilities
restore
flip
absurd
financially
observe
reversal
rapidly
bylaws
random
parallel
indefinite
lifetime
francis
sergeant
bomb
lies
ox
sli
vague
ward
##itated
##omfort
goog
trump
knife
usage
invasion
posed
alleges
focuses
viewpoint
conditional
sky
certify
comparing
##engers
##box
exhausted
stakeholders
japan
jesus
concession
clothes
abetting
punch
vi
##fast
sewer
abroad
##keeping
arose
undo
firing
obstruction
joy
attending
mediation
playground
precinct
evaluating
safegu
cooperating
sharp
friendly
skilled
latest
cameras
recreational
hyd
deployed
sacrifice
perceived
sequence
portfolio
cure
density
osh
pitch
##tes
bears
suing
##icted
consulting
supportive
visa
visible
videot
naturally
harbor
advocating
contempor
microph
correspondence
encounter
predicate
involuntary
ii
##rage
##advant
disadvant
mel
adapt
recess
incumb
adds
publication
smugg
passengers
crew
multip
placing
civilian
revised
commentary
amongst
accuracy
traditionally
advocacy
increasingly
consultant
prosper
analogous
unquote
gear
ring
##aked
##bar
##otic
##ouses
unil
inclusion
##lemaking
fifteenth
suppression
legislators
arrive
##akers
kidn
missile
removing
adopting
disagreed
warranted
listened
chambers
inconsistency
caf
gul
hiding
james
mol
##fr
##itively
##urance
seal
##amm
makers
overb
backup
desper
endanger
developments
technological
trading
auditor
##author
##statement
sidewalks
gallon
hanging
rulemaking
franchise
scholarship
google
cath
iep
wisd
##nis
##gg
##ingly
##antic
##trak
unex
uphold
amtrak
##ordan
discon
##ager
backwards
mob
speculate
matth
marine
effectiveness
initiated
remedial
##itorial
##afting
hypothetically
iraqi
appellants
destroy
resistance
miranda
horrible
nonprof
osha
wisdom
gamb
ramp
segreg
outlined
plug
recession
brid
india
##assion
corr
auth
lists
blame
responsive
touching
reforms
##ahoma
maxim
beliefs
aggravating
frequency
consolidation
promotion
enemy
clothing
tang
##lahoma
toxic
pron
##urity
casual
##ieve
enact
actors
liabilities
##bert
thirteenth
disposition
priorit
holdings
oklahoma
delaware
lawsuits
breached
inflation
literacy
walls
partnerships
mitigate
purchaser
quotes
revisit
matthew
lending
lakes
tables
##isite
notified
org
resign
upheld
##ustration
drilling
legacy
posture
warnings
associate
buyer
negotiating
tracks
emphasized
utilized
severely
bulk
barrier
unpre
bia
cub
jordan
tear
##iments
meat
aggreg
donations
spin
specificity
classification
wake
insurer
choosing
warrants
calculations
stepped
banking
ignoring
truthful
micro
overlap
inaccurate
lord
tender
##eding
##imental
trend
alaska
##ibr
brad
brave
intense
dry
owns
player
rejection
tribes
inspections
meantime
visitors
enjoyed
sponsor
sponsors
controversial
firefighters
outdoor
satellite
cere
lope
##igr
proc
deed
seats
trips
click
apprais
intensive
grams
accidents
corn
column
courses
format
##lusive
earnings
figured
heading
ordinarily
afforded
seventeenth
remainder
radiation
grades
acquire
teaches
accompan
infringing
deduct
sooner
misrepresentations
bearing
liquor
rogers
lopez
tack
##rich
##ym
##yan
##ered
inject
##ulous
alert
ages
yours
directing
config
confine
basement
girlf
privileges
graduates
minimize
contingency
feasible
magazine
imprisonment
disconnect
fitness
##onom
forb
sufficiency
shield
courthouse
##acle
overnight
symb
##cripts
peter
turner
generous
manufactured
reconcil
attendance
chemicals
routinely
congestion
cyber
tor
##cle
theater
##orters
ster
prol
##chec
traged
##acent
rede
refuge
economically
strongest
alternate
accordingly
container
geographic
targeting
adjusted
tasks
inev
voices
boundaries
deposit
striking
fatal
hamilton
incompet
incumbent
bars
baker
fisher
nerv
##inter
##igently
complying
unac
willful
incon
drag
##ogether
assumptions
transcripts
retention
educated
recommending
conversion
grandfather
automobile
literature
constructed
achievement
emails
ethics
slowly
shifted
disruption
refusing
retroact
ladies
dynamic
caution
boss
hidden
merc
pose
tons
wides
##hen
##vent
##pread
ree
##stated
underway
likewise
imposes
verbal
deficiencies
crop
discrep
backed
syn
founded
locally
approving
generating
summar
assessing
foods
networks
grandchild
bird
installed
owed
fingerprint
festival
altogether
nervous
widespread
gates
len
##rics
##yer
##ta
heating
atl
##ador
##aband
allen
allud
cloud
league
spill
statewide
interact
contraband
facial
connecting
seller
faa
restricted
attacked
delays
permanently
attract
retali
coaches
contradicted
exemptions
coalition
isolation
criticism
puzz
interrogation
dar
ell
##yard
dele
withheld
loose
##qual
brit
intending
##anship
cogn
repairs
empty
muse
disprop
restoration
internally
similarity
dismissing
approaching
cooperative
##aho
affirmatively
pledge
pleasant
contingent
dozens
cumulative
whistle
microphone
dia
hes
lod
luc
mans
nan
##ooth
##tal
##verly
deeper
button
uninsured
overhead
testifies
depth
parade
imminent
worksh
revol
adjacent
vacated
mechanical
malpr
islands
scheduling
recipient
misunderst
hurricane
mcdon
airplane
pronoun
retaliatory
aust
gm
gif
sits
##stairs
stages
anc
aging
lew
unbel
recl
crops
veget
governed
##onym
administrators
uncomfort
manufacture
cleaning
closest
##ortionate
sponsored
chev
immigrant
retroactive
unambiguous
gulf
unaccept
museum
malpract
earm
fought
las
wy
wid
##inated
##oul
inad
react
##iration
dean
golf
meals
export
drill
obst
concert
marked
attitude
buses
projections
earn
searched
##lands
populations
deliberations
africa
catastr
classrooms
journey
convenient
appreciation
magnitude
inches
hawaii
murph
simultaneously
diplom
unbeliev
malpractice
ware
##ius
hamm
ford
trag
complic
unint
implicated
probative
sixteenth
fines
realm
hob
operative
economics
bread
landown
expressing
##insic
occupation
epis
prescribed
federally
perjury
girlfriend
uncomfortable
murphy
aver
fishing
nu
yards
##east
##iences
##lean
##cels
notify
delt
seized
##oln
tag
grave
contents
extensively
identifies
submitting
practically
weekly
annually
worthy
consistency
earthqu
shoreline
royalty
grocery
bridges
dak
drew
foss
ga
luck
mike
##mal
##erted
ingr
##isible
shr
shorter
resort
compassion
defective
counting
consens
newly
##veland
opens
signals
practicing
specialized
chooses
campbell
breakfast
clarified
routes
inex
latin
prospective
overrul
sweet
owe
blocks
spanish
demolition
dre
dign
lind
tension
##lan
tow
doe
##isting
imposition
theme
crux
invoke
confess
designation
prevents
customs
declaratory
revocation
##nesday
websites
targets
sustainability
scenarios
possessed
woods
hazardous
vendors
wednesday
hen
ip
ort
##arial
##lla
forens
angry
##ifiable
ash
abund
disqual
loop
##unct
leverage
overd
coinc
joe
minut
charitable
continually
demanding
credited
metro
salaries
enforceable
civic
footprint
measured
introducing
shareholders
troubled
achieving
ethical
litigate
proximate
arrangements
omission
dozen
coupled
jeopardy
micros
commodity
endorsement
cigarettes
grandchildren
cher
lyn
por
tends
thin
hay
##mental
enab
appelle
unions
hispan
explo
deterr
##ighter
carter
custod
competitors
awful
annivers
collapse
vacant
foreclosed
presumed
occupational
delivering
dissent
wireless
channels
contamination
overlooked
anxiety
subpoena
unacceptable
delta
consensual
bil
fcc
loses
##ga
##woman
##lec
##mented
cous
##hers
##ulg
someplace
##unic
myster
decree
overlay
specify
meanwhile
fundra
childhood
instant
thoughtful
dispatch
reduces
concludes
behaviors
ambul
garc
foreclosures
guards
occupied
bags
lifest
households
navy
unwilling
trauma
narc
deportation
wholesale
buck
cd
gil
jen
jose
kr
kicked
tam
##enom
##ids
##sters
##estr
fruit
lex
plastic
considers
##aped
overarch
informal
##iley
deserves
honorable
injust
visits
visiting
northwest
predomin
punished
flows
deployment
sleeping
shooter
barely
theoretically
catholic
confinement
ais
bio
gut
linc
mount
terry
##cut
##itan
##itter
##rey
##ird
asian
segment
##iled
chances
knock
outrage
partisan
decent
clearing
phenom
smooth
elabor
ending
##crow
equation
lesson
competency
humans
purchases
willingness
filling
efficiently
counterclaim
enhanced
widely
incorrectly
##communic
terrorist
embry
undermines
pharmacy
barrel
stabilization
tuition
##stein
dakota
anniversary
fuels
greg
##lates
donation
anytime
apples
unh
##ibi
ups
perv
amen
##agan
inviting
boost
parcels
appealing
operators
wrongdo
organize
harms
slash
missions
debtors
franklin
quarters
gangs
complexity
jumped
diagnosed
printed
inconsistencies
tactical
impeachment
angeles
overarching
lincoln
codes
lacking
tab
##oll
##case
chip
ads
quit
compound
impart
##away
moore
monop
tenant
locate
objects
treatments
viewing
crossed
merger
visited
silver
frustrated
pregnant
psr
lewis
forensic
ba
gal
lump
##une
enrich
resume
sport
factory
defr
preserving
obama
signatures
##parable
absor
electron
assisting
distinguishing
forecast
libraries
accommodations
withdrawn
concealed
resisting
cheap
impaired
tailored
##anese
disappointed
configur
fossil
cod
gary
hub
rivers
sed
tall
prisons
doc
tracking
clim
imperm
impress
cru
expiration
invitation
differential
servic
insight
##cedented
authorizes
propri
damaged
interpretations
collector
prosecuting
daniel
narrative
fixing
eliminating
privileged
patterns
hopes
contradictory
exceeded
disregarded
recklessness
mentally
expenditure
incarceration
congratulations
philosophy
dwelling
statistical
unprecedented
fundraising
garcia
flying
rh
rip
sends
##ded
##bage
unav
interface
##ceptive
admitting
benefited
policym
deme
accessibility
stays
devoted
constituted
##aham
acknowledges
confidentiality
heightened
undertaking
converted
harvest
concurrent
samples
germany
devastating
reiterate
reorganization
dent
fasc
mall
nist
wave
##ries
##ik
##mart
##mother
##oft
##za
##oral
##itative
inequ
rewr
forcing
cancell
chea
alam
likes
##umes
unm
brian
deficiency
famous
regulators
extends
dealers
##atories
artific
hardly
array
speakers
headed
vacu
inspectors
##backs
rentals
gains
pockets
ratio
derived
announcement
capitol
disclaimer
francisco
incompetent
cheaper
fisa
hoc
vic
##dy
##caster
##onial
neck
closure
partly
poly
interactive
grace
wording
peterson
responders
victory
concluding
evaluations
constraint
advocates
liberal
surviv
beauty
carries
conveyed
architecture
mentions
undertake
##working
revealed
breathing
rescue
entertainment
pills
dispositive
harvard
aggregate
minuteman
injustice
vacuum
egreg
gay
pant
ryan
##rimin
##ationally
procl
fred
align
upcoming
deck
craw
talent
reluct
paychec
studied
highways
costly
amending
filter
qualifies
versions
suscept
##bridge
declare
traveled
curve
william
reconstruction
reimburse
blocked
sacrific
spray
administered
tragedy
egregious
doug
fals
hi
##dale
ascer
frustration
partially
interim
grav
griff
governs
colomb
erisa
solving
swim
demonstrating
appreh
grandmother
irreparable
schedules
instruments
vendor
incarcerated
rubber
recruitment
chevron
porch
narcotics
ascertain
fusion
kore
##fund
fore
##atement
##ifer
french
clay
lean
subpr
##roc
cleared
accum
defender
mining
median
appropriation
morris
reaches
disagrees
footage
continuance
admittedly
packages
stepping
vacate
explanations
acquitted
variable
suspected
gathered
matching
surrender
reminded
emotion
airports
occasionally
reprod
whistlebl
defraud
bp
fan
ic
lam
mas
pause
tired
wip
##fth
##bally
##burs
##part
##eda
wash
shame
loaded
maps
compuls
##quar
poison
brut
overly
overview
regret
relatives
fold
bull
caring
metrop
damaging
worldwide
airline
minorities
steve
guarantees
triggers
hyper
mirr
weighed
traumatic
russia
embrace
##apolis
lifestyle
pervasive
subprime
cater
fid
fiction
hitting
harsh
##nam
##oly
rear
##utable
anth
sham
adams
commence
##istically
shelf
juror
contracted
##eav
ordering
endeav
respected
##pected
advances
insurers
inflict
criminals
competitor
twelfth
roadway
nationally
measuring
comparative
interestingly
##shore
renewed
graduation
jumping
frequent
dependence
belongs
bureaucr
absentee
pharmac
producers
roger
rebuttal
alexander
abusive
aimed
undersc
gifts
ingred
hispanic
aisle
metropol
dir
vested
##lie
##list
##cile
##bration
##inished
conn
##andez
framed
altered
leases
inclined
##uctive
wellness
backyard
everyday
cleveland
deported
##leman
cares
formation
blown
meter
misled
##auses
resolving
mentioning
privately
milk
unfinished
pressing
diam
##aughters
attractive
advantages
extraordinarily
chemistry
reconcile
conscience
blocking
convert
prayer
cabin
patriot
basketball
kidnapping
alluded
alamos
bin
fer
katr
rack
ul
##sp
##pat
##pire
##ato
wholly
##sections
stig
proactive
##gram
incap
##agger
accr
eighteenth
##aterally
presentations
documentary
appearing
threaten
collaps
deaths
premature
calculating
curb
incorporation
qualifying
commander
quantities
deferred
forfeiture
disturbing
champions
moderate
preempted
avoided
strickland
ambulance
wrongdoing
katrina
cree
gaps
hits
hurd
lens
pig
shipping
peak
repet
drafting
##ancies
download
kinderg
buffer
writ
exams
keys
autism
feelings
##iox
assisted
figuring
punitive
brokers
discriminate
illnesses
celebration
golden
attributed
restaurants
barrels
solicitation
duplic
corrid
warehouse
metropolitan
kindergart
ber
oak
viet
##can
##esis
##alia
forem
##vert
comed
##ola
##umber
brick
##iculous
strain
finances
studio
regulator
handful
exploration
aviation
debating
rises
easiest
penny
chairs
headquar
continuation
##cover
ignores
laying
surveys
garbage
allocate
politicians
reimburs
european
producer
produces
gateway
consciousness
breath
misunderstanding
oriented
knocked
urgent
pond
##ss
##las
##inqu
reed
##otyp
##igible
disse
##ieved
braz
incom
induce
##apes
parked
taxing
regulating
honored
discusses
misappropr
practition
era
organic
commonly
cleanup
troubles
acquies
fleet
nineteenth
indicted
##shire
supervisory
malice
speedy
prescriptions
concentration
encountered
dishon
feasibility
renovation
hudson
discourage
easement
hampshire
nonprofit
unbelievable
henry
cancellation
foremost
dual
daughters
lond
tony
##inal
##inating
##lete
##idal
##owa
##anted
melt
alumin
upward
##grad
teeth
coerc
bold
##iously
corps
roc
attacking
specialty
walmart
landfill
midwest
##brid
wins
ballots
satisfaction
bottle
politically
latter
##rogen
motorcy
grievances
wealthy
japanese
guests
scared
unexpected
bradley
phenomen
dirty
incomple
london
aluminum
gard
nail
slo
wing
##hill
threw
##ese
weig
gosh
##chool
meal
##endum
evolution
arlington
maple
resent
unt
plas
impressed
acid
questionable
subur
arguable
obstruct
condemn
idaho
objecting
earning
materially
brook
personality
balances
pursuit
continuously
compensatory
virus
breakdown
emerging
telecommunic
muslim
script
contesting
hazards
rescind
rigorous
weakness
burdensome
hindsight
skept
symbol
disproportionate
mcdonald
catastroph
lexington
incomplete
lapt
nic
nich
ros
vibr
##aven
##uity
##ox
##lers
weird
##owing
suits
abilities
exit
shirt
spends
undue
expire
subset
relax
specifications
scream
directive
authorizing
passive
flavor
profound
watertown
applaud
subjects
postp
citations
neighboring
globe
measurement
graduated
transformation
stealing
overruled
bite
backing
raw
##gas
##win
##marks
##onic
stad
allies
clauses
unlim
inclusive
belt
regions
fool
downward
lastly
##connect
referral
witnessed
supers
##orthy
penet
swarm
distinctions
incidental
psychologist
flowers
advisor
influenced
uncontr
branches
shifts
replacing
flags
boiler
purchasers
diminished
orientation
angle
gambling
weighing
unlimited
bic
bible
iowa
vou
vit
##gender
##mony
##lia
##ata
##entions
beg
stack
stro
##irable
##ppy
suic
truc
##osh
chron
adam
intends
incrimin
straw
assurance
screw
##onsc
phill
confined
equipped
organizing
promulg
shortfall
doubled
apartments
##charge
integration
robberies
umbre
renewal
discriminated
distinguishes
hunting
municipality
oceans
pilots
fabulous
coordinated
birthday
perceive
athletic
underwriting
sincere
wyoming
##patient
kindergarten
stadium
bang
cau
hip
jet
pit
vind
##pe
andrew
##enter
alike
evil
loves
spite
spell
requisite
claimants
##arson
assured
understandable
##otech
respective
harmon
finality
lacked
newsp
scratch
borrowing
municipalities
fortunately
deterrence
cousin
impermissible
susceptible
cow
gym
tire
vest
##far
##eas
##tail
##icate
beer
dod
nelson
untr
##grap
needing
intermed
purse
transgender
monitors
studying
credential
valued
failures
irres
freeze
assumes
warn
successor
swing
intrusion
ordinances
conspiracies
compensate
rejecting
destination
bidding
clubs
sweep
deficits
cartels
reveal
detainees
misunderstood
tragic
dreams
catastrophic
umbrella
cos
cats
ol
pink
rom
rif
rank
##eet
##comp
##eday
##ano
beating
##uten
couch
anonym
asia
abuses
someday
##acles
##mpl
parte
##oga
monu
kevin
dispose
disputing
##arrass
denies
declining
creativity
##factory
suspend
unreli
shareholder
revoked
obser
urging
accidental
intelligent
bounds
powder
embarrass
disparate
manipulation
implicitly
avoiding
furniture
perpetrator
subcontract
mathematical
videotape
ceremony
douglas
vietnam
stroke
dated
roles
sny
tul
##ture
##person
disorders
canad
cha
ark
proves
invo
minus
minors
colors
tenants
caps
redress
emer
misapp
salt
designs
initiate
intentions
##appy
arresting
grandpar
ranges
lays
constrained
cambridge
motivating
churches
lifting
feeding
utah
anticipation
hung
sanders
persuade
wiret
gallons
highlights
movies
marshall
pertaining
repayment
elaborate
irrespective
ling
lut
rab
sink
##nett
##giving
##ystem
##oz
##iti
stew
tres
lever
spine
peers
##thr
believing
corp
scoring
careers
refiner
severity
broadcaster
sellers
arrests
cops
murders
jointly
subsidiary
precludes
ridiculous
deriv
patrick
criticized
handcuffs
excused
interfering
intoxicated
santa
discrepancy
dignity
unavail
griffin
dishonest
newspapers
arkansas
astr
cyc
giant
holes
qa
wounded
##oe
##inity
##onz
stars
deceptive
chat
loving
underground
acute
judged
discrete
expires
moon
##erald
taxation
charities
extrem
##urring
generalized
redistr
##security
artist
freely
summons
badly
swallow
bloom
pressed
fax
countless
precedents
burning
arbitrate
murdered
exempl
concedes
struggled
disciplined
##aults
sensit
sensible
quarterly
captured
highlighted
dictate
unanimously
advertisements
proffered
conferences
felonies
nuis
proclamation
fiduc
headquarters
plasma
trespass
diox
fallen
fda
honey
jam
migr
rice
wag
##word
##lam
##laughter
shock
trace
france
reservations
leap
##ferent
spouses
untime
pec
judici
indians
firsthand
beforehand
##ourse
purview
sciences
commitments
smell
waivers
releases
reflection
productivity
debts
arran
pretend
posting
labs
functionality
copying
mothers
executives
hearts
nineties
machin
contemplate
distinguishable
wastewater
hunt
bonuses
forgive
sisters
undertaken
navig
foreseeability
advertisement
conforming
##weigh
vaccine
endangered
manslaughter
impartial
artificial
korea
phillips
qaeda
bund
borr
cup
dust
dying
gib
hart
mistr
pensions
rum
torn
via
##va
##vable
##itz
##itating
begun
##lements
##estion
spots
lien
willfully
verification
issu
schem
legs
servicing
memories
thankful
counselor
completing
edwards
passport
##ewitness
accessing
debates
physics
slip
maintains
distributing
hallway
incorporates
sectors
eyewitness
reinv
implaus
persecuted
boils
champion
theoretical
ecos
merchand
concealment
maximize
procure
unintended
gao
demeanor
suicidal
stewart
refineries
borrower
bern
roman
tying
##han
##vens
##born
##erb
stall
##imp
neur
fraction
##aco
reset
outer
plot
##idem
##ixon
addict
recordings
presidents
boom
juries
wrap
longstanding
escrow
educators
slides
##missions
favorably
transferring
windfall
unconsc
automated
layer
painting
analyt
hotels
exclusions
peaceful
embod
persuaded
spreadsh
films
dropping
epidem
landscaping
disposal
correctional
forgotten
intimidation
sympathetic
prudent
smuggling
##unctive
microsoft
pantry
canadian
judiciary
ast
eg
fart
pad
sizes
taint
##gom
##oqu
##tw
##atible
inel
inner
##arked
pra
islam
helic
seize
butler
##ami
twin
brush
offshore
whereby
interactions
interacting
reporter
backs
herit
booking
propon
budgeting
mode
contexts
hopeful
guessing
risky
warned
multif
labels
consuming
prosecutions
humanity
encourages
nearby
uncle
satisfies
counterpart
deprive
lieuten
abandonment
benchmark
aggressively
architectural
coordinate
montgom
supplied
psychiatr
insisted
jefferson
relocation
expedited
athletes
richardson
overturned
levy
earthquake
constraints
colombia
snyder
farther
montgomery
fli
lect
pard
sib
tent
##inge
##ora
##ito
##iser
aspir
seg
##cho
abide
chick
evans
outline
intercept
intertw
reasoned
accru
insert
endors
patch
circular
##liers
filings
refrig
meters
breast
streams
resolutions
procedurally
solved
researchers
consume
colloqu
buyers
containing
uncomm
preceding
predecess
pathway
flowing
scenes
hurting
##amble
coastal
thanksgiving
abandon
temperatures
fingers
appreciated
corresponding
forfeited
landlords
refinery
podium
contemporaneous
redevelop
episode
joseph
brazil
trucking
incriminating
ecosystem
helicop
dhs
ferc
gi
lux
pc
pent
pair
wol
warden
##iree
##itarian
haul
stan
##actic
nepa
cann
chest
loyal
outweigh
undergrad
pell
coh
##elt
##elph
grain
##agers
goodness
paraph
cared
redirect
flash
delight
remembered
sells
prima
gases
nights
arena
packaging
imagination
deadlines
subscrib
assignments
homicide
ceo
chris
diligently
stipulate
conclusive
aids
sunset
hybrid
deferential
##offs
therapist
omitted
indifferent
inspired
affiliated
irrational
detrimental
explosion
imperative
culpability
##authorized
reconciliation
inevitable
outrageous
monopoly
stigma
comedy
dissem
nuisance
dioxide
heritage
refriger
##elphia
dc
dair
gree
wound
##itably
prote
##terson
##acters
franks
##acon
mah
##uez
upstairs
pepper
amm
cooking
processed
particularized
allowance
charity
characters
testimonial
presently
continental
retreat
accounted
arriving
mainly
promising
constitutionality
floating
terribly
characteristic
precedence
terminal
arbitrators
globally
controller
analyst
unreasonably
deliberation
obviousness
elevator
utilizing
guardian
campaigns
lifted
transmitted
rolled
assaulted
hills
coaching
deputies
overwhelmingly
enterprises
predicted
proxy
detection
defects
sadly
burned
passionate
predicated
remotely
deterior
paycheck
telecommunications
derivative
fiduciary
paraphr
fles
gained
md
rus
##aire
##ygen
##eterm
stored
prostitution
heck
undercut
imply
cra
rightly
##licited
##loaded
subordin
preschool
thrust
herring
##uccess
payable
scary
publicity
wrest
monies
##ocks
systematic
realizing
patterson
supplier
referencing
equities
indications
treats
halfway
slope
falsely
satisfactory
travelers
deduction
societ
tortured
subsidize
transmit
utter
catal
unsuccess
installation
platforms
broadcasting
diminish
moderator
surgeon
desperately
british
landowners
ultr
corridor
motorcycle
unreliable
grandparents
untimely
machinery
uncommon
carm
dating
dys
gaming
kicking
os
ross
wires
##iably
##hr
##erate
tower
##urer
atom
##adelphia
fright
cance
cancel
evid
composition
unaware
unauthorized
##inder
##ibles
peer
##berry
##ensed
invasive
speculating
accred
marking
marital
phases
retiree
proportion
promoted
similarities
instructional
continuity
repeating
transported
containers
steady
tribun
integral
inventor
poorly
implicate
philadelphia
odds
stimulate
opponents
lobb
carpenter
graphic
unequivocal
atlantic
lynch
bacter
dp
dancing
gau
mud
rhet
sque
tone
##rence
tooth
todd
##sell
stab
stark
shed
shops
nebr
alliance
arab
howard
graham
##ensible
informing
parity
wright
examinations
##avors
motives
seemingly
advancing
refres
economies
artists
singular
enters
shortage
midst
envision
lacks
winds
steering
selecting
soldier
excluding
trooper
descriptions
subsidized
retailers
contradicts
exceeds
attributable
sadd
photograp
holidays
blessed
handcuffed
flawed
escalation
nominal
drainage
accusations
salvador
safeguards
authent
appraisal
summarize
intertwined
rhetor
nebraska
bone
nick
pars
##gor
##tc
##dom
##lings
##atis
##inn
##itiveness
##ette
stitch
anom
dear
orch
chir
##okes
lawrence
governors
##encer
concuss
condomin
tennis
simpson
formally
displ
dispers
restored
pets
indicator
metrics
movements
breed
maine
encl
grounded
meaningless
warren
associates
principals
consented
terminating
terminology
executing
selectman
demanded
squad
behavioral
fears
inquire
boundary
consultants
graduating
temporal
madison
diligent
trains
disparities
diego
seattle
corroborate
wheeler
watershed
exchanges
unequivocally
indefinitely
oxygen
embryonic
unhappy
servicer
championship
misappropriation
implausible
merchandise
ineligible
lieutenant
condominium
cord
dies
soul
tanks
zones
##ien
##liness
##eries
##storm
stup
trends
entries
recoup
intimate
teens
##issue
##cumented
roots
eighties
carve
counselors
supporters
calci
privat
specialists
designing
competitiveness
susan
##isms
lovely
titles
prosecutorial
stevens
prohibiting
organizational
integrate
richards
invented
survival
diversion
oversee
possessing
reopening
compromised
excellence
shelters
charts
stormwater
horizon
beaten
burns
territories
promptly
concentrate
undocumented
prosperity
mobility
retroactively
deleted
luxury
calcium
les
larson
mi
ron
tan
##fold
##gar
##drop
##power
##utical
noting
notably
##atemal
sealed
##keeper
alibi
##ivan
loading
##usive
leasing
sheets
interconnect
molec
##aceutical
guatemal
writer
founding
readiness
systemic
lanes
##liance
receivers
facie
severance
definitive
definitively
hospitalization
collins
terrific
pressures
northeast
menu
divisible
pickup
ceiling
confirms
bennett
hoped
retros
jerry
contradiction
conclusively
reinstatement
reinstated
trademarks
delegated
labeled
pharmaceutical
corroborated
marginal
categorically
teenagers
jewish
shocking
safeguard
unilaterally
scholarships
cybersecurity
inconven
orth
configuration
fascinating
dairy
iv
kir
mason
riding
yelling
##manship
##erated
##ashing
reall
prere
##owed
##uries
sew
##ched
##andal
##opr
noon
reside
facto
verified
##grams
shep
##izations
wellstone
interag
distracted
securing
##achel
drops
clearer
##rett
insider
minne
mills
formulation
handic
exploring
permiss
turnover
generator
electoral
victor
seriousness
headach
visitor
consequently
observing
scientist
##afts
animus
updates
sherman
quantify
polls
implies
raped
tendency
displayed
rarely
disturb
bothered
varying
pertains
subcontractor
duncan
rodrig
gratitude
overbroad
tangible
tamper
crawford
intermediary
luther
sensitivity
minneapolis
bom
kar
kim
nancy
ty
yoga
##oon
##hot
##lain
##incent
##asy
rever
##leep
healing
seed
##chester
butter
exac
ships
##ortions
##osity
##iston
brill
incomes
cruel
repose
discred
##lock
##rook
hern
lottery
scre
reader
taxi
taxed
carl
costing
redund
waiving
technique
debated
alongside
dangers
exercises
commercially
buried
steam
##payment
breaches
uniquely
friendship
conceding
turb
accomplishments
commands
racism
tremendously
overseeing
allev
predictable
distinctive
unpaid
belonged
mutually
coordinator
biology
attribute
defeated
settlements
marshal
tactics
laundering
disadvantage
workshops
enrichment
reluctant
reimbursed
laptop
vibrant
screaming
colloquy
pentagon
interagency
rodriguez
exacerb
fans
laugh
wishing
##ae
##master
##lied
##itud
reef
prize
asleep
suitable
abst
attain
triv
trunk
dism
envelop
particles
theirs
brib
crude
##ondition
defenders
parenth
considerably
syr
caret
respecting
handbook
handwr
regarded
##liest
injunctive
releasing
educating
hardware
submissions
stephen
miscon
fargo
holders
##athan
minded
booker
copied
supervise
revise
encouragement
markup
measurements
links
mailing
mailbox
elevation
reversible
polling
diagnost
snap
surrounded
printing
recruiting
complainant
recipients
unquestion
divorced
foxbor
evolved
matthews
microb
prolong
impressive
rewrite
gravity
anthony
penetration
##otechn
chiropr
ax
bones
ee
jane
lin
rated
sons
##turn
##dad
##inform
##onments
whit
hab
##etry
stairs
anger
extingu
##acts
orange
##ivably
bypass
apportion
##oker
defamation
##izz
crying
interchange
coven
##ogs
officially
buff
motors
referendum
##iano
hardest
surg
turnout
qualification
landing
harmony
prominent
awa
environments
seventies
preceded
premised
ignor
fathers
taste
fitz
troop
adversely
picks
conceivably
boyf
benchmarks
wheelch
adversarial
indirectly
enemies
ministerial
thoroughly
hurricanes
unilateral
unavailable
accrued
akin
cot
dall
dave
fm
fled
gest
hug
lu
lung
mild
na
pier
wars
##eb
##rix
##iates
thick
deline
sull
##amin
##opher
##arded
##unition
reserv
undergo
##earing
persist
condo
downs
downturn
gene
transl
realities
locker
suppliers
redo
mindful
groundwater
trades
associations
supervising
telecom
stole
logically
consulted
sensors
surviving
amazon
conceivable
conclusory
reinfor
overrule
clinics
rehab
wilder
wheels
forgiveness
prongs
avenues
coordinating
neutrality
disasters
railroads
relocate
fluid
greens
suffers
dominant
protocols
##obiles
intoxication
laundry
segregation
revolving
proprietary
whistleblower
cosm
anonymous
spreadsheet
pardon
ammunition
authentic
##otechnology
boun
caut
gig
nose
naked
omissions
pine
pile
tat
tub
wine
##avery
thread
toile
##itious
inso
##omed
##otive
weeds
couples
##olved
abr
##iece
clust
arc
resil
unco
myers
lawn
gro
province
invoked
talented
drum
##icular
boats
guided
scales
##eak
writes
planner
eliz
elimination
patience
openly
propensity
advent
equate
##ologists
indicators
profitable
budgetary
literal
morr
##olds
ports
intrinsic
wondered
shoe
laboratories
alternatively
obsc
radar
inflamm
equality
temporarily
bagg
acknowledging
survived
assertions
rounds
hungry
rendering
warmer
tapes
ratings
undermined
##respons
correlation
disruptive
freshman
sovereignty
margins
overlapping
infection
ramifications
dynamics
pregnancy
detriment
authors
puzzle
pronounce
obstacles
swimming
resentencing
nichol
endorsed
unsuccessful
bacteria
insofar
dots
echo
pas
pave
##ray
##ias
##atus
##esign
##orum
##ita
##rel
##alone
##stand
##etown
##ifier
##ils
##ulp
##abeth
chen
##unning
output
##icting
unified
defensive
crane
preamble
static
backdrop
thrilled
feat
strang
boot
genetic
scat
translate
percentages
setback
monster
carved
careg
languages
dispat
##lessly
proposes
waverly
centuries
##prod
milit
grows
expressive
restruct
blog
affordability
robb
camps
parker
iraqis
enjoying
hosting
virtual
matched
updating
freedoms
fema
celebrating
dictated
palest
unemployed
bedrooms
russian
crafted
stringent
culpable
slipp
fingerprints
breadth
linda
sedent
diamond
monument
redevelopment
stupid
miami
boyfriend
bent
dere
hed
hors
lun
nons
##nament
##asp
reauthor
##leans
##stering
stere
suited
shipped
neat
tri
orleans
ada
adoles
enth
perkins
judic
poses
standalone
root
translation
processor
wrapped
respectful
healthier
complement
receipts
appropriated
mainstream
warner
trusted
##ucker
civilians
affirming
auditors
pulls
cleaned
ranch
fleeing
paths
##lett
advisors
prevailed
hunger
embed
wildf
##arthy
consolidate
unlawfully
certificates
babies
volunteered
liquidated
rescission
frustrating
suffice
mccarthy
knocking
rebuilding
nomine
appellees
custodial
pharmacist
rocks
tulip
psychiatrist
predecessor
undergraduate
canceled
evidenced
tribunal
lobbying
squeez
trivial
dallas
sullivan
elizabeth
sedentary
bucks
fd
fet
gins
nixon
pere
pants
ranc
##ih
##mar
##lu
##brook
toss
onset
stead
anne
deception
butt
##adow
##acular
noble
adap
spain
undoub
yourselves
##acks
ambit
indisp
differentiate
relator
relieve
booth
parad
marry
##aires
planes
##aterial
cargo
corrective
suppressed
projection
refuses
hardworking
misuse
settings
narrower
mortality
legitimately
incorporating
matches
christopher
negatively
reminder
rivera
litigating
spiritual
disturbed
adjudication
vigil
diverted
austral
prerequ
undoubted
aer
bub
dame
dining
fy
germ
hend
od
tier
##uitive
##pill
##iners
##esity
toy
inh
##opes
chunk
undercover
commenced
pert
indemn
coleman
governance
##roit
obesity
thrive
imported
fifties
particulars
confuse
lasted
handing
judging
restoring
fluct
noncomp
indicative
mainland
responds
freez
consumed
draws
revital
reflecting
restricting
layers
hometown
constructions
transmitting
concerted
bids
deposits
comprised
watson
wheat
recklessly
borrowed
databases
junk
cartel
succeeded
interpreter
manipulate
illustrates
prioritize
##onomy
refugee
caterpill
invoices
palestin
caterpillar
pto
vagu
##iac
##oy
##bound
##atable
rect
##ller
foref
anten
hem
##ules
frag
fruits
froz
##tress
twitter
donate
whichever
arson
factories
verb
induced
discern
##usted
perspect
matrix
detroit
contends
##plex
parlia
genoc
buys
##ceptions
millenn
develops
simpler
immune
circles
furtherance
posts
powerpoint
closet
slam
knowledgeable
soccer
humanitarian
winner
drawings
commented
nato
cleaner
##iscl
deceased
##afe
excludes
unfairness
throws
fiscally
misrepresented
contemplates
clarifying
bullets
##iology
dissolution
treasurer
expansive
bands
corroboration
beside
promotes
semin
rewarding
conveyance
greet
tunnel
nominated
shocked
mathematics
birds
cognitive
polygraph
sacrifices
compulsory
mirror
incapable
caucus
##through
epidemic
surgical
wilderness
stereotyp
frozen
cav
dor
dive
dug
fern
faul
ig
mens
nit
nig
rib
##lining
##erting
##isen
##alc
##ione
ital
forr
prostit
##amus
shaw
allied
justices
enables
resur
perry
intersections
##licate
vegas
marit
marath
transpir
insign
inspire
desirable
mineral
charles
extensions
##urray
restatement
mister
wrongfully
impacting
recommends
precious
instructive
certifications
territorial
narrowed
ranging
avoidance
apparatus
painful
verdicts
parenting
occupancy
inquiries
commanders
trails
uniformity
labeling
tours
flooding
etc
complains
decreased
decreasing
holistic
paraly
mountains
wisely
infected
encompasses
irrigation
optimistic
cogniz
inadmiss
enabled
amenities
dentist
hockey
endeavor
ingredients
arranged
hernandez
robbins
enthus
undoubtedly
perspectives
cp
cem
fiber
null
ted
wiring
##nas
##uated
##cation
##isk
##otom
##utors
##urable
proclaim
whatnot
##osion
donated
justifies
underp
williston
wellington
matt
##ublish
guiding
parental
orderly
handgun
disposed
rests
legislator
facially
##ologically
currency
establishments
walter
successive
disclosing
doubts
environmentally
extrinsic
speeches
selective
emergencies
geograph
automobiles
modeling
welcoming
mechanics
planted
##took
races
overwhelmed
reopened
flights
dividing
##affirm
songs
tune
dimension
hello
tricky
upgrade
kilo
exchanged
hydrogen
segregated
deductible
retroactivity
mystery
fertil
coercion
issuance
reinvest
dpw
##atisf
displaced
slippery
ginsburg
vagueness
parliament
cemeter
fancy
ns
pt
rick
sier
tips
tires
##wall
##cence
thumb
##isanship
##anna
##ctic
sticking
exon
shred
anyways
leban
worship
compart
commits
pel
amic
drought
mature
defended
rocket
scot
desired
determin
taxable
limine
hood
edition
actionable
circumvent
petro
histories
earliest
competence
preval
broadway
mindset
milest
successes
winners
##amento
principally
commenting
glenn
interviewing
linking
planting
rebate
speeding
inferred
rolls
triggering
retaining
stressed
constell
preferences
defaulted
valuation
goldman
springfield
architects
sacramento
recipe
corroborating
battlefield
journalists
jimmy
painted
inspiration
firefighter
dimensions
disappeared
desperate
accompanied
tackle
workshop
earmarks
diplomatic
hammer
enabling
cdc
climb
survivors
icann
commencement
skeptical
procurement
siblings
delighted
protein
craig
diagnostic
habits
wheelchair
cautious
pertinent
genocide
insignific
fitting
jess
kath
lend
lined
rf
##ek
##rals
##oot
##houses
reaffirm
beings
##owers
congreg
anch
dock
thereof
##amo
##aun
trap
tractor
##illary
evac
##iels
donald
adhere
quorum
appr
leak
undertook
recourse
interc
talib
##rove
clearance
assaults
joke
parish
caller
inserted
entail
experiments
fundrais
benefiting
realistically
supplying
##atherine
redesign
waterfront
accountant
designate
weekends
internationally
remembering
volt
intrusive
remediation
texting
urged
bargained
legitim
backgrounds
wallace
hostility
honesty
unfairly
suspects
preex
hydr
sacred
sweeping
repaired
gallery
constituent
professors
attributes
heroes
shipments
ladder
royalties
reprim
vessels
evolving
launched
sympathy
reassign
forbid
ancillary
bilateral
vicar
falsity
hurdle
practitioner
phenomenal
suburban
condemnation
promulgated
observer
mistrial
tainted
multifam
receivership
parenthood
unquestionably
horses
embedded
maritime
constellation
aqu
cs
cake
lately
mos
mend
pi
porter
sin
##filling
##mill
##mates
##makers
##hdad
##lar
##inate
##ener
reent
beverly
##otal
##imeter
degr
##estead
##ilation
shake
quint
actu
differing
grapp
registry
sixties
boeing
##itement
##ishment
lets
eleph
parse
desert
##ontested
regulates
retiring
homework
editorial
misstatement
wrongly
denver
organisms
irrespons
councils
commonality
portable
mandamus
johnny
uncontested
awarding
firmly
homestead
garner
construing
advertised
fearful
advocated
hypotheticals
counterfe
monitored
baghdad
strengths
latitude
deposited
reinforce
transitional
tourism
spectacular
switching
interventions
genuinely
blessing
pedestr
abusing
flaws
congratulate
enrollment
cafeter
diaz
reclamation
disqualified
cherry
appellee
##funding
brutal
wiretap
russell
brilliant
##itudes
##ublished
taliban
reprimand
pedestrian
borne
eve
gord
horn
jay
ly
lag
oven
pir
pione
##eus
##ns
##wich
##aver
##lies
##inger
token
##anity
##sets
##estation
##ilized
##ader
##uliar
triple
chasing
alice
spelled
spencer
recycle
##ffick
intensity
##izar
tea
##unded
coin
##astically
backp
distraction
##log
##loading
substitution
empire
paris
scored
cola
hoff
immaterial
forming
cream
infant
traffick
purposely
barnes
accepts
expects
variation
missiles
volumes
socially
extract
quicker
viruses
precedential
stewards
narrowing
accomplishing
variations
foreclose
liberties
digging
strengthening
advancement
scientifically
##books
bona
unpublished
journalist
grabbed
sampling
ironic
interfered
bolster
urgency
wetlands
exploitation
biof
bailey
electronically
emotionally
credentials
chaos
peculiar
praise
segments
chicken
rhetoric
permissive
envelope
australia
insignificant
preexisting
multifamily
catherine
elicit
gonz
jenn
lap
pate
pend
tissue
tucker
wider
waves
##mons
##drew
##pm
inaction
reactions
withdrew
##chez
##illy
excel
##oped
twist
##mph
logo
cliff
outright
leon
bry
decor
interception
subtr
##ensen
##rocket
relinqu
genius
ministry
allowable
smile
honoring
dealings
increment
flour
larry
excise
trusts
summit
portray
bald
traditions
centered
compensable
transporting
packets
michelle
banned
bottles
sanchez
logs
batter
textual
accommodated
struggles
cease
occupants
incentiv
bullying
recovering
collaborate
destroying
lieu
sarah
grossly
combatant
cracks
switched
invalidate
ampl
consciously
sums
pediat
fabricated
prescribe
instrumental
ironically
restraints
empowered
resignation
torres
austin
hobbs
jenkins
absorb
cruz
sincerely
broadcasters
kirk
covenant
cotton
noncompliance
italian
inadmissible
dime
dues
dick
glean
hence
hans
jams
kle
latch
mitch
piv
piano
rushing
##opp
##dle
##xon
##cs
##viol
##vals
##burn
##kward
##orously
##aring
##ican
reyn
reagan
##omach
beef
stomach
heaven
dea
##esting
seated
sud
##antan
##terior
trier
##arted
##icho
enacting
outpatient
##istol
peril
grasp
manh
##ittal
subtle
addicted
##seless
foia
deposed
meanings
daycare
purple
fedex
founders
startup
##ontin
locks
nonviol
metric
misinform
excitement
futures
analyses
criminally
connects
freeman
awkward
misses
merr
precip
visibility
skip
fulfilling
contacting
combining
dilem
breakthrough
geography
muscle
accidentally
flores
inefficient
academics
utilization
inventors
lifel
jericho
racist
reinstate
kingdom
unsafe
stems
sandy
delegate
criticize
sprink
dressed
storms
liquidation
manifestation
discounted
advisement
anxious
skyrocket
disadvantaged
obstacle
shrink
gilbert
voucher
sierra
amicus
cafeteria
jennifer
reynolds
cens
dirt
favors
gist
hr
kiss
pul
ridge
riley
sized
vene
wes
##nell
##mo
##lating
reapp
##sect
##etr
stocks
##igm
##herent
sealing
seeds
shack
chilling
##ected
alito
resides
residing
outbre
lip
saves
vert
overs
secre
drastic
happiness
guantan
##cule
assur
##loyd
payer
servant
translated
experimental
correcting
explored
referrals
petra
indicia
emission
debris
offerings
generates
irreg
poster
oldest
portland
visitation
restraining
extraneous
##phones
continuum
uncondition
predatory
packet
southeast
obliged
touches
flee
liberally
##rehensible
##umble
retaliate
occupy
hurry
exclusionary
snaps
seasonal
intervened
philipp
fortune
mootness
stabilize
prompted
adjudicated
affiliation
stamps
impediment
enrolled
diplomacy
racket
creek
gardens
wagner
schemes
gauge
concussion
guatemala
reefs
fmla
pavement
##ulpatory
cemetery
prevalent
elephant
gordon
patel
guantanamo
petraeus
aunt
bou
bizar
cb
cope
cured
dwell
gaining
hog
jon
josh
liv
pand
packing
rosen
##worthy
##me
##min
##meal
##cles
##pret
thorn
##ati
##enuous
##omer
weaken
##eree
exagger
shy
shir
##ulates
##ortional
disav
##illa
canal
hereby
brig
vermon
##group
##ecd
inciner
gra
##lication
bog
deserved
restroom
calm
takings
##apsed
solitary
unfold
unfunded
remembers
livelihood
provisional
conditioning
devoid
warranties
revision
ensures
calculus
reflective
tribute
ranks
ideological
cultures
phrases
retaliated
freight
##lights
hurts
biased
terrorists
shuttle
wealthiest
semi
sanctioned
puppy
flyer
vulnerability
fabrication
duke
bleeding
pinpoint
merchant
prudential
stricken
##frame
sponsorship
inevitably
britain
diagram
inexp
towers
binary
maplewood
rescinded
helicopter
atomic
realloc
eeoc
uncovered
faulty
legitimacy
irresponsible
hoffman
mitchell
dilemma
assurances
bend
dorm
fha
iq
lone
naming
oun
renders
sket
wished
##uition
##lass
##xual
##corn
##bank
##play
##inos
##rell
##icit
##icable
anecd
dol
dose
sel
abiding
shipment
##adows
disres
looph
knee
leaf
compels
unity
timeliness
needle
workload
gran
manners
##look
##enson
additions
moody
testament
##strong
rooted
condem
marg
scout
complies
directs
tenure
instability
supporter
appealable
incremental
password
refr
bankers
economists
submits
excav
arrow
subjectively
nationality
substantiate
settling
improves
easter
roadm
collectors
forthcoming
armstrong
robin
comparisons
predeterm
graders
layout
truthfully
musical
expands
occasional
confirming
instituted
christians
ethan
enhancements
reconstruct
pipes
stripped
modernization
detectives
borrowers
professions
heights
dictates
pumping
horrific
wedding
mistakenly
embraced
accelerate
blowing
jewel
endorse
nomination
vigorous
hesitate
gregory
compounds
repetitive
vindicate
rifle
loyalty
flesh
headaches
alleviate
microbes
forefront
transpired
secrecy
irregular
loophole
aest
bachel
cushing
dumb
elicited
ger
hou
hatch
ka
nerve
ot
pest
rink
rents
rationally
viability
yep
##gy
##sen
##will
##bone
##bons
thro
##oria
##alt
##anges
##ared
haiti
priced
sticks
stagger
sov
shout
disbel
disallow
canine
enum
resem
twofold
upside
brack
bruce
incoming
consists
indo
basing
lawfully
questionna
mock
polar
persistent
relay
feld
strive
coral
informative
##ogical
simmons
##ighters
downstream
downstairs
attitudes
insuring
admon
standardized
congresswoman
companion
holy
builders
approvals
rested
proportional
refined
runner
identifiable
blur
responsibly
surf
arrival
eric
performs
slice
youngest
devote
extrapol
floors
messy
checkpoint
distributor
prediction
administratively
descriptive
motivations
exclusivity
eliminates
dedicate
renters
clerical
reminds
latino
overriding
##plate
##plain
bono
resisted
drinks
plausibility
harassing
diabetic
displays
symptom
cooling
protesters
semester
forfeit
discounts
scholar
renovations
inspiring
overlook
concentrated
airplanes
surprisingly
auditorium
casualty
vegetation
complications
abundance
bicycle
corpus
cycles
wolf
syria
paradigm
marathon
lifelong
bizarre
bachelor
questionnaire
bm
eag
gor
hier
hump
la
nond
wig
wings
##iage
##norm
##gate
##bling
##zed
##esa
ink
inception
##alo
italy
prest
wasted
storing
##urp
heated
seam
exxon
##tering
##kee
##keep
oranges
alan
unse
upstream
##onel
tempt
interd
cock
##ensional
##rock
relieved
strides
stranger
##ours
conduit
insure
##entional
examiners
allowances
##armed
costa
extortion
dealership
demographic
dispens
legislatures
flower
paving
refine
identities
qualities
practiced
futile
erosion
dennis
designer
performances
iras
funeral
stakes
slower
optional
summers
piecemeal
distributions
breaker
premed
preparedness
enhancing
allocating
##walk
archae
racially
conceived
publ
litigant
transitioning
shutting
unsu
ineffect
dissatisf
pools
cheer
treasure
palm
magnetic
paramount
refunds
bothers
##annon
evolve
accelerated
magazines
groceries
commodities
podcast
cuba
mercury
leniency
clouds
lodge
landowner
aligned
##atoes
accrual
collapsed
##eastern
redistricting
paraphrasing
extinguished
dereg
buttons
bubble
palestinian
nsf
roadmap
houston
fencing
ftc
sut
vincent
##iot
##iaries
##gle
##wan
##yles
##uation
##och
##lif
##zuel
##any
##anne
rez
reid
##lev
##leum
seaf
abnorm
trim
frames
fringe
beck
alph
algor
clue
claire
enlar
unsec
unreg
plumb
##ibble
peg
myth
##izer
##izable
foul
usable
manpower
##liciting
reps
expended
##redict
mood
drastically
##ounding
fostering
mattress
parap
marines
progression
scouts
finite
finishing
charl
charlie
autonomy
positioned
costco
purport
circulation
capric
amounted
openings
lineup
separating
##ciation
bitter
substantively
singled
expectancy
housed
awes
olds
multim
customary
ski
mandating
##aza
##azz
gentle
worthwhile
arbitrarily
grading
inspected
deductions
subscript
batt
adjusting
centralized
mechanic
garlic
##shot
shotgun
attachment
elevated
marta
browns
aggravation
jumps
clerks
mixture
seasons
hunter
embass
fashioned
exceeding
inappropriately
spreading
harassed
recruited
vetted
pakistani
marshals
randy
impeached
subdivisions
rigid
contaminated
refinance
neglected
linkedin
cigarette
enactment
synth
lucas
hobby
survivor
mask
bureaucracy
underscore
duplicative
superseding
untrue
emerged
proponents
utterly
tampering
screens
dismant
baggage
restructuring
ranchers
petroleum
vicarious
jonathan
algorith
apt
bits
gill
jason
kat
sided
tile
##ni
##yers
##uating
##mat
##mare
##oir
##hal
##bury
##era
##isph
##reated
##arter
##icated
reception
bee
##otion
forc
converse
doj
##olar
abd
##ila
shaped
alerted
##ivals
##unctions
spare
##uman
unacc
commem
##ipher
decis
##berger
workable
##vernmental
expose
regs
specially
##ailing
clem
##eploy
depre
depose
juris
insult
setup
medi
medina
policing
lasting
instinct
handles
edges
redacted
redeploy
flies
accessory
technician
exculpatory
modifying
brewer
breyer
purposeful
barbar
funnel
initiation
slavery
multitude
researching
midnight
volat
structurally
disagreeing
nightmare
capitalism
watches
revoke
titled
cooperated
harness
controllers
naturalization
##character
variables
sustaining
nicely
rebates
achievements
inventive
##heard
digest
evidently
deliveries
sandwich
unpredict
undermining
junct
converting
reveals
administering
manipulated
dumping
accusing
simultaneous
heller
dunn
prospects
tolerate
nonprofits
mercy
vegetables
boilerplate
unconscious
analytical
subordinate
refresh
molecules
toilet
misinformation
sketch
hierarch
publisher
unsecured
awesome
bop
eb
horm
lor
riders
##naires
##tim
##lair
##best
##erts
##ara
reins
wasting
stair
ante
exterior
atroc
##adays
framing
orally
##oding
##oded
outlines
outlook
spelling
unduly
unst
peru
##onell
briber
amy
intact
nowadays
##apor
coins
basics
wayne
grief
discarded
mole
probate
poland
imports
roy
goodman
daylight
insanity
desires
colonel
mattered
longest
studios
llc
allegiance
communist
budgeted
misinter
barb
irish
##prud
sliding
delinqu
illicit
illogical
medicines
conditioned
collections
headlines
precision
##aley
functionally
computing
footing
conflicted
conceptual
steep
sanct
acquiring
deceive
logistics
cultiv
bonding
counterint
profitability
beds
benj
suitcase
consisted
amazed
msba
sunsh
minimis
possessions
sponsoring
capturing
##iateness
installing
forests
floodplain
mislead
burglaries
sprint
##owski
remarkably
detainee
concurrently
purportedly
illustrate
##flow
sinclair
atlant
inadvert
averaging
overdue
galax
electronics
rhode
ingredient
connor
chronology
photographer
awaiting
reservoir
morrison
inflammatory
dispatcher
prerequisite
compartment
batteries
philippines
incinerator
disrespect
soviet
capricious
jurisprud
bribery
bf
banc
ced
cott
dense
eager
fond
fake
gam
hint
hana
kay
kend
laur
mural
pd
pistol
serm
tink
uk
##eu
##aa
##tis
##hart
##ds
##die
##bow
##pc
##aters
##itis
ingen
##ares
##around
rewards
beth
prizes
stal
notre
notable
comcast
##esty
asph
seating
shining
##opsy
##abis
casinos
chees
closes
justifications
enlist
arctic
spur
compost
compatible
plural
commut
intake
themes
crown
consort
conserve
co₂
coer
basin
makeup
backbone
questionnaires
goodwill
paramed
informational
genesis
highland
realizes
hollow
projecting
legislate
policeman
injure
equals
absences
periodic
blast
surcharge
barry
wallet
negate
developmental
airb
deviation
armor
humane
strategically
popcorn
penalize
penalized
kills
cardiac
faithfully
cooperator
ambass
probationary
marching
managerial
ledger
emphasizing
candidly
chapel
attracted
freest
sensor
occupations
silly
volunteering
inventions
pushes
consisting
retrof
mathis
##ipper
emotions
diagnose
uniformly
residences
cornerstone
vastly
tournament
criticizing
palmer
horiz
webb
protests
venues
juveniles
kickback
fulfilled
teenager
##annie
interrupted
acceleration
patriots
tolerance
multiply
upholding
accompanying
disconnected
hesit
nanotechnology
abundant
coincidence
predominantly
vicinity
apprehension
wipe
repetition
postpone
navigate
eggs
saddam
anomaly
disturbance
redundant
ignorance
tatto
hedge
hemisph
fernandez
sudan
vermonters
ineffectiveness
juncture
benjamin
jurisprudence
hemisphere
cf
cant
cad
cave
dow
fannie
gee
hiv
kings
keen
lugg
sab
##sm
##worth
##ya
##math
##oo
##tz
##hur
##lice
##zer
##piece
##ala
andre
##vey
conject
anno
asbest
abortions
exigent
frisk
allerg
chin
chips
quad
leaks
spi
liz
partisanship
poetry
##tell
amt
cro
crafts
rightfully
maneu
contrace
expun
subsections
servers
posing
posit
##roach
##roots
newman
##velt
depressed
aftermath
importing
finest
foundations
colored
entre
carpet
smarter
policyholder
builder
instantly
##stitutionally
applicability
runoff
blat
blade
mischaracter
arrives
singing
varied
opted
appearances
portal
adopts
swift
headline
preclusion
demonstrations
anna
sounded
antibi
newslet
premier
faithful
minimums
acquittal
accomplice
delaying
validation
ideally
candy
variances
scrap
unconstitutionally
articulation
renting
enjoyment
miscarr
estimation
trailers
dependency
slowing
minimizing
brandon
compromises
ratification
persuasion
miracle
davidson
scrutin
springs
losers
appreciative
holly
institutionalized
salvation
##attan
reassess
sterling
prolifer
refugees
discrepancies
earthquakes
lamar
wiped
practitioners
weaknesses
supersed
subcontractors
embodiment
retrospect
handwriting
foxborough
wildfires
backpack
manhattan
venezuel
snapshot
##timore
counterintuitive
sunshine
asphalt
coerced
luggage
contracept
aus
bust
cpa
dy
dv
ditch
egg
jama
ter
toug
ug
wre
wow
wand
##eon
##wart
##bu
inpatient
##ani
##anors
regress
iter
##star
##step
stern
##amount
shaking
##ula
trav
fract
meg
chave
alley
##osevelt
mae
underinsured
poem
##ember
##awn
indigent
yearly
backward
shoulders
##ptic
specifies
contending
contours
understandably
roosevelt
setbacks
patron
editor
generals
runners
blair
accountants
risen
generators
pastor
##prene
interpretive
broadest
optical
financials
doubling
sword
preca
hospitalized
collar
collision
disagreements
revisions
##erto
ballistic
##apeut
gloss
restricts
gradually
acquaint
ideology
flew
chiefs
muscles
contentions
contentious
psychology
emphasizes
enjoys
chaplain
mailed
timber
guardians
marty
exhibited
acknowledgment
rented
familiarity
announcing
mixing
fastest
publishing
disregarding
modernize
therapeut
detector
shootings
beaches
transformed
invalidated
rapids
cookie
puerto
grassroots
insisting
unnecessarily
concurrence
jeffrey
##breaking
athletics
angela
dumped
dimensional
underserved
geared
cafe
molok
cabinet
troublesome
foolish
vouchers
shortfalls
dishonesty
honeywell
subscribers
societal
catalog
carmen
interconnected
shepard
handicapped
turbines
ambitious
indispens
ribbon
lebanon
biofuels
klein
gravel
margaret
abnormal
unpredictable
molecule
atlanta
entreprene
chavez
bish
cip
cia
curs
dub
hing
lining
lighter
poth
rally
rats
sorn
soup
sno
##function
##gi
##table
##dated
##erton
##ona
##ingenuous
reacting
##lyn
##otte
weed
weld
prag
isra
dos
seism
abatement
##kel
##oping
tracy
disingenuous
albe
casey
dono
adher
queen
mapping
outlets
worn
compounded
undergoing
unr
recited
recount
##oken
tai
brakes
sheer
offend
incurs
reporters
backlog
mold
newborn
acca
informants
empir
simon
opio
efficiencies
genes
genet
##ysis
owning
readers
confines
courier
rais
appealability
classmates
sidebar
paved
privity
engages
behave
behold
appropriateness
##notes
accessed
technicians
viewers
broch
landmark
slot
lightly
warf
removes
roadways
merged
baltimore
favored
hospice
hospitality
contributory
shovel
rejects
networking
##ertime
licensee
##boards
banning
adjour
worthless
harlan
##charged
infringed
assigning
disabling
curative
curios
feared
doctrines
registrations
academically
males
speeds
approximate
bidder
inherit
quantitative
estimating
worrying
##iological
deployments
harrison
chains
streamline
streamlined
mentor
electrons
tailor
predicates
hawkins
breathe
facilit
tactic
expedition
crowdfunding
infections
incompatible
concessions
bowl
blew
revolutionary
capita
imperfect
slipped
melting
resigned
earmark
laser
confessed
overdose
custodian
configurations
inflicted
incapac
writers
oakdale
acquiescence
addictive
flipping
stitches
dispersed
privatization
inconvenience
indemnity
millennium
actuarial
feldman
plumbing
subscription
misinterpret
inadvertently
tinker
asbestos
tougher
israel
albeit
curiosity
alec
bt
cinc
cms
cunning
dare
gd
jar
jere
jaco
lamp
lisa
lapse
murray
nap
pts
rust
sau
tast
tense
zeal
##tures
##vy
##kinson
##enas
toys
betr
beans
soy
seld
##amer
shores
##gement
##adition
tract
##illo
somalia
courtes
##ighting
alv
alban
##osexual
leagues
worries
unpr
##ibution
timeframe
impropr
bru
##emic
intimately
##grown
deced
interject
indig
lawmakers
statutor
manages
##forming
serial
presc
presumpt
thriving
depot
contended
##ressive
##ouring
##ourcing
legion
opm
marcus
contractually
insol
programmed
medit
colon
compliment
thankfully
briefings
builds
immun
housekeeping
formulate
disprove
servicemen
proph
equivoc
engines
covert
eman
infinite
miscell
mispl
practicable
versa
recommit
researched
argent
swear
youngsters
collusion
measurable
##sett
declaring
doorway
westwood
grandma
cardboard
observ
template
banner
sanitary
organizer
tasked
supplemented
hosted
##umbling
phrased
discharges
impossibility
contemplating
reminding
snitch
barring
boyd
dissol
radioactive
ratified
justifying
detecting
surgeries
##ova
transformative
tailoring
encounters
nasty
athlete
prayers
seizures
##ennial
discovering
quotas
relocated
crowded
ramsey
solicitor
adjudicate
unequal
affiliate
misdemeanors
jesse
nonpartisan
##weight
illustrated
excuses
indexing
upgrades
barton
statistically
adaptation
spinal
ancient
compassionate
lynn
ripe
policymaker
accumulated
hurdles
obstructing
brooks
counterparts
cannabis
dysfunction
frightening
accreditation
##innati
enclosed
strangers
scattered
paralyzed
cognizant
ptab
determinative
milestone
jessica
quintess
nonviolent
jewelry
staggering
enumerated
prestig
seafood
barbara
unstable
kendall
cheese
miscarriage
indispensable
sorna
cincinnati
cunningham
ptsd
statutorily
miscellaneous
aug
bor
berry
cuff
dum
gh
jac
kit
mim
oly
rug
sou
##ran
##gone
##gerald
##aved
##ders
##ingham
rea
##imilar
notifying
heal
deeds
therein
##estock
##estra
##anth
##ulator
trench
disen
##tric
eviction
clip
reson
upwards
myri
brag
offs
usda
intergo
coat
mayors
exports
presided
maturity
strips
boots
cerv
marie
transitions
particularity
carn
locom
##gery
demograph
##arranted
commissioned
blount
blunt
blows
metlife
waterways
misstate
risking
separates
differs
slap
missp
unfavor
entitlements
removable
summertime
##ashed
devil
armen
traded
preventative
camping
panic
distributors
warrantless
unclean
critics
westmin
consequential
##anean
tarp
radius
imagin
jails
##ahan
savage
constructing
attachments
elevate
surprises
accomplishment
quarterback
bikes
discriminating
bipolar
anticipating
blueprint
prevails
carson
cattle
cataly
photographic
##rogate
partnering
asserts
abandoning
detected
plausibly
fellowship
patrons
decreases
reciproc
entrap
vocal
facilitating
unwarranted
disposable
reiterated
excusable
philosophical
underwriter
simplest
vigorously
bartlett
prosperous
ellis
misunderstand
coincident
counterclaims
servicers
policymakers
inducement
symbols
postponed
bicyc
##people
exemplary
lecture
refrigerator
mahoney
wrestling
fitzgerald
caregivers
judicially
nominees
aerial
anchor
vertical
livestock
consortium
freestanding
venezuela
jacobs
misplaced
olymp
myriad
westminster
auctions
bak
bapt
fu
gore
hond
kagan
mig
mack
mars
moses
nod
nih
pestic
sid
siding
xv
##eering
##ram
##si
##haw
##bie
##erable
##orate
##iters
##asi
##sex
weaker
##idiv
##store
##etical
soliciting
shorth
##ulu
trop
fried
memph
##using
justifiable
outlet
unarmed
recap
recidiv
upfront
##agement
offended
needy
overst
coherent
subgroup
positively
newer
concur
joinder
roomm
downloaded
scandal
insiders
##eney
motel
directives
purports
handout
injunctions
equip
calories
petty
##ella
periodically
metab
arthur
debatable
salmon
resolves
interprets
cutoff
encroach
threatens
frauds
prejudgment
discloses
expressions
merge
felons
deviate
imbal
daniels
robbed
lowering
combust
exceptionally
revive
audits
grandd
tariff
illegit
vacancies
capacities
arbitrations
automotive
modeled
patentee
heartland
##aha
incidentally
punishing
psychologists
turkey
disciplines
inquired
seniority
withdrawing
reversing
retailer
pollut
rehearing
wildly
dissip
highlighting
derive
mentors
celebrated
pharmacies
carts
assembled
pumps
manifested
fatig
promotional
renovate
barns
homelessness
leeway
accusation
merchants
bathrooms
upgrading
halt
buckets
rushed
ethnicity
punched
##franch
pronounced
luckily
ipad
predominant
underscores
##umbered
misapplied
bundle
proponent
aspirations
greek
greece
analysts
societies
parsons
orchestra
orthoped
bribe
reauthorization
##luent
henderson
freezing
##aunting
voltage
traffickers
pediatric
condemned
ethanol
throat
hierarchy
seismic
courtesy
intergovernmental
shorthand
memphis
bore
cind
cush
hers
hort
jag
lav
malf
monell
pork
roth
tamp
vicious
vandal
##match
##inence
insect
onerous
stove
##imm
##ira
deer
##estri
goody
abol
exert
##opath
chill
##acious
evading
aged
knees
##ieving
##ardo
adul
energ
arisen
spar
spark
undef
liar
plum
plates
recurring
comma
pole
imputed
##idel
##eck
decert
##think
indec
##eling
##aga
presiding
##arez
coron
numer
shower
happenings
downside
marc
##othy
scroll
desc
keith
carriage
##bean
endless
essex
estopp
classify
worded
generality
openness
forwarded
##eller
educator
eminent
economist
blake
metals
smallest
treaties
futility
moran
morator
finalized
shortages
humble
##ervice
instructing
restrained
##erranean
conspired
contributor
checklist
pleads
populated
sounding
domest
satisfying
clarifies
packed
conception
glac
##changed
hypocr
tribune
teachings
inflated
hypothes
directional
hotly
turf
chapman
counterv
reneg
rebu
heavier
digit
rounded
diagnoses
sniff
snake
snipp
implicates
insureds
attendant
substituted
predictability
caption
alcoholic
philanth
swept
##cribed
spokes
forums
revealing
alteration
altercation
refundable
discoveries
twenties
destructive
fantasy
tuning
concentrating
crashes
duplex
nara
perpetrated
intimidated
contemporary
forbidden
willfulness
reeves
embryos
policymaking
inequitable
apprehended
leaning
defrauded
phenomenon
begging
romantic
lingu
unconscion
ultra
bombs
prolonged
linear
gesture
nonsense
squeeze
nitrogen
forrest
geographical
kilograms
grapple
predetermined
ambassador
therapeutic
donovan
decedent
mediterranean
quintessential
unfavorable
entrapment
estoppel
philanthrop
ah
aed
eld
elo
fate
fare
greed
herald
laug
merg
nun
naz
piz
pope
rival
ripp
tut
ucc
useless
wo
wives
wals
woke
##uk
##oen
##patr
##inently
##enforce
tox
inverse
##asse
##icism
reun
beacon
##otes
##utch
pry
##ayed
sting
ank
proct
##estar
seizing
suz
atkins
disney
##acurr
clips
quasi
composed
unlic
##quer
##inding
##iplinary
brien
intol
##econom
overc
overreach
##astics
regimes
reliant
schip
maria
feds
insulation
memos
phel
carroll
systematically
confed
confron
continent
prototyp
locals
sorted
##getown
substation
##rup
proficiency
mismatch
injurious
morale
financed
dutch
distant
originated
succession
staffed
humor
crosswalk
##bra
extracurr
certifying
annuity
comparator
urges
vacancy
bottled
glove
##isciplinary
deceit
avoids
hypothesis
mcm
pains
textbook
curtail
indictments
learners
chapters
hostage
tortious
attaches
mails
martha
magical
campaigning
madoff
survives
georgetown
poorest
lengths
powell
stressful
shutdown
ratios
splitting
repairing
erroneously
isolate
dicta
palau
rehabilitate
protesting
brokerage
manuals
glasses
distressed
preemptive
hawaiian
devastation
kilos
prospectively
crews
molestation
gamble
reconciled
summarized
microsc
billy
krist
monopol
coding
compulsion
creep
andrews
discredit
caretaker
pierce
featured
adolescent
perez
##market
adapted
antennas
##otomy
fundraiser
counterfeit
unconditional
boulev
inexpensive
ugly
raisins
jeremy
albany
argentina
cervical
laughing
##patrick
unlicensed
confronting
ak
batch
dich
dix
danc
duly
eis
ears
ferr
garr
ire
lac
mouse
olson
puc
ral
tant
tac
yar
##rb
##iper
##uously
##mad
##vis
##bc
##bles
##bott
##build
##zman
##atur
##atim
##inous
inhib
revel
begs
weber
##stop
washed
stap
anton
dove
##iltr
shine
##adicted
julie
##opy
fry
allison
alber
logan
knit
ard
outf
outdated
spo
unden
unenforce
plow
recite
commons
##istence
brow
##berries
preach
cohen
##elines
statistic
mann
veil
discontin
distract
moist
talents
obey
clever
newest
stray
##ubst
assass
##ishable
roster
paygo
marion
genital
scare
wrapping
founder
continual
boarding
departed
sorting
estates
edward
valent
##lesex
muster
advising
flush
suggestive
suprem
privy
ems
blend
misbe
legality
arraign
grouping
nationals
interplay
barber
connector
slate
burdened
awfully
illustration
collects
moms
eventual
warriors
apa
middlesex
momentum
mentality
containment
consenting
uncomp
professionally
listeners
adjo
agendas
homosexual
linkage
enjoined
presuming
attracting
timet
influencing
hopkins
jacket
biking
innovations
inputs
ridership
possesses
predicting
surveyed
motorist
owens
equivalence
antiqu
mitigated
flatly
transforming
dictators
nuts
gatekeeper
rehabilitated
entrusted
altering
rewarded
fabricate
domains
conformity
encompassed
repealed
devastated
bulletin
imprisoned
loads
salvage
wetland
simplify
rotation
playgrounds
prioritizing
fatalities
reeval
puzzled
lodestar
reclass
tragically
inextric
amenable
mirrors
##space
collapsing
relaxed
uncontradicted
cowork
observers
tornado
asth
stanford
ultras
arabia
nicholas
chenery
steadily
verbatim
minerals
enthusi
wesley
racketeering
bmc
unsupport
clemens
delinquent
ingenuity
conjecture
antibiotics
demographics
illegitimate
countervailing
eloqu
pizza
unenforceable
inextricably
cv
cyn
hu
huff
lud
tig
vouch
yan
zip
##eem
##oa
##ti
##hore
##dings
##cas
##vency
##bian
##page
##erog
##orse
##itian
ingest
##arians
rethink
bean
hampt
prerog
atf
shapes
fruition
##abouts
##osc
cans
canon
evan
byprod
spaced
lia
unres
uncover
recitation
perceptions
##intosh
verizon
decomp
crab
crunch
inducing
overcharge
coy
repaid
replete
invoking
##ache
believable
guise
guides
importation
parades
employing
synd
##park
endure
counseled
patio
formulated
cape
edison
refining
##gins
##tilage
lifegu
misread
modes
salute
potter
generosity
erad
negatives
landed
harming
kidney
varies
frontage
slots
##boro
chairwoman
personalities
airspace
illumin
crosses
expresses
skate
trader
winston
norms
universally
windmill
fixes
commercials
fights
objectionable
packard
appointing
scienter
mcne
flet
layperson
musicians
integrating
curtilage
dangerousness
enjoin
chrys
recalled
motivate
unusually
hopeless
norfol
ethic
denials
wasteful
photography
uniforms
disservice
bonne
watkins
shelves
disappro
floods
disrupted
burglar
entertaining
tighten
tightly
lockdown
pedestri
firefighting
renovated
prescribing
diminution
bobby
abuser
teenage
discouraged
coupon
escalated
microman
skew
shocks
bumps
bumper
simplistic
hatred
stringer
explosive
subpoenas
bombing
appraiser
dragging
criticisms
reclaim
complicity
endeavors
pharmacists
muslims
pinkerton
embarrassed
rabbit
stanley
anomal
sewage
tyler
##productive
fdic
##isclosed
aquatic
outbreak
thornton
bracket
indoor
embassy
depreciation
redeployment
hesitant
bishop
gdp
alvarez
bakery
fatigue
moratorium
domestically
renegot
aedpa
walsh
dichotomy
ireland
ultrasound
byproduct
norfolk
pedestrians
bos
cze
das
fences
gps
icon
ja
kah
kicks
mish
nl
rings
rides
vars
##fa
##evelop
##cro
##cpa
##vity
##ini
##onte
##orph
##edi
##isers
##ari
##eted
sober
delicate
##oluted
##terian
##aman
shaping
shadow
##adata
neph
##ulators
##ophe
disf
meadow
allot
chand
cheney
twisting
knitting
justin
leaking
hass
undes
underwater
liver
sail
##istak
implying
bric
amanda
offending
crises
crafting
##ansing
usa
usc
interloc
indones
##apore
overcrow
graves
reprehensible
presby
preserves
drb
concise
strand
clearest
remod
remorse
##ourced
fours
downloading
buzz
phoen
mini
schooling
sentine
congresses
protectable
patric
approves
esteem
circulated
retard
departmental
homegrown
handheld
editing
conventions
convoluted
displace
conducts
wax
metadata
artif
arthr
infiltr
administrations
debbie
litter
singapore
purposefully
morals
localities
commonplace
fung
fireworks
superf
awake
unfounded
shorts
swiss
restrain
investigatory
##alez
booked
keyboard
contributes
##phi
preventable
compares
##aze
killer
killings
fixtures
delivers
ballpark
audited
burst
automation
religions
validate
mclean
cashier
welcom
registering
curtis
garn
##shell
waller
indianapolis
hallmark
richest
rationales
bedrock
complexities
formerly
inquiring
initiating
##roads
brains
depriving
exempted
streaming
stakeholder
derives
mentoring
succeeding
liquidity
naval
cookies
journalism
##lexia
yields
intellectually
sophistication
atmospher
holt
stretched
announcements
culm
hardships
iranian
captains
quietly
mccain
optimism
drains
perpetrators
impede
impediments
viking
hyde
contemporaneously
cafa
tendered
tackling
injected
dragged
disproportion
mcdonnell
kramer
northwestern
smoothly
unmistak
reproductive
accrue
coercive
gardner
brooklyn
screwed
leveraging
cohes
dyslexia
accredited
retrospective
shepher
chiropractic
reinforced
complementary
vigilant
fragile
cavity
gonzalez
anecdotal
unregulated
conversely
decisive
volatile
taiwan
empirical
unprot
equivocal
misstatements
migration
granddaughter
orthopedic
tampa
rebuilt
unconscionable
boulevard
adjoining
unsupported
hampton
bonneville
czech
varsity
nephew
presbyterian
phoenix
aha
cures
capped
duck
daunting
fist
hires
kal
lg
nest
penc
ponz
rou
rays
wend
##fts
##ement
##nals
##gates
##yon
##mail
##oin
##but
##bok
##pic
##oured
rey
reper
reactive
reactor
##leen
##utation
staged
stale
##urg
solem
solicited
gov
tricks
##oski
evade
clif
arsen
appli
underw
underc
underhill
partition
unaff
recalc
upload
timeout
brace
##guided
incidence
cox
presumptions
boone
##ountry
remiss
schm
informs
assuring
showcase
daytime
marvel
effic
transact
##erick
helpless
sentiment
carib
directory
presentment
sma
elapsed
patently
immedi
legislating
propag
passions
existent
artistic
hardy
applause
opposes
pretending
powered
broaden
delphi
trustworthy
manageable
visually
detailing
apologies
copeland
robbing
transferable
parkinson
audiences
willingly
terminals
divisions
harvey
travels
gloves
methodist
progressing
reforming
socio
taser
storefront
##anche
ceased
##hernalia
aggrieved
proudly
comfortably
stipulations
archives
exhaustive
retains
diversified
peacekeeping
minimized
journals
disparaging
snowm
conscient
females
piles
delegates
conveys
harrington
catching
constituency
floodgates
sticker
perpetuate
roofs
duress
dishes
interrogated
relevancy
concurring
conferred
bayfront
intermitt
contamin
aiming
furnace
furnished
refinancing
vetoed
bowman
bleed
nutritional
cloture
disappointing
ideals
unambiguously
cuban
intensely
steroid
redeem
reebok
lenient
delete
ancest
width
catastrophe
episodes
averages
abundantly
mysterious
reimbursements
forego
accumulation
prematurely
writings
islamic
helicopters
markings
stabbing
handicap
reverend
discredited
naive
translator
cluster
resilient
reentry
pendency
bryant
subtract
incentivize
latches
gorge
humph
archaeological
sutton
paraphernalia
forcibly
commuter
maneuver
seldom
impropriety
dumont
disenfranch
locomotive
goodyear
extracurricular
ralph
asthma
fletcher
##eveloped
sentinel
patricia
welcomed
disproportionately
ponzi
solemn
appliances
immediacy
aided
berg
cfr
dart
fighter
fidel
hust
hanc
jazz
lateral
livable
lloyd
mck
ripped
sip
yale
##ridge
##gent
##sc
##wa
##oons
##obe
##hes
##horn
##cers
##cies
##country
##vability
##bt
##bled
##zel
##pend
##isco
##alified
##aning
##aro
##arity
##ariness
reex
##eto
prince
foreman
stif
stump
styles
##urate
heels
withstand
asp
seas
septic
disgu
disgor
frost
##about
##osi
##acety
##endo
agu
casework
nobel
anyhow
arn
quash
resumes
outp
spike
undisclosed
lips
plaza
commens
perimeter
##acked
impending
branding
##ecca
crush
overpayment
pref
manning
##licity
exposures
subrog
invocation
invisible
##ustomed
poles
##issibility
herr
strat
boyc
goodby
maraud
marri
secondhand
planners
insular
phony
colton
colonial
admissibility
businessman
##ypical
congressmen
lasts
beneath
reviewable
typing
supposing
effectuate
sidelines
##arried
flame
flsa
flashing
waving
refute
refuted
behaving
economical
blink
artwork
waterway
misguided
thirdly
trapped
irene
competitively
succ
distances
improb
growers
illus
humil
bankruptcies
creature
civilization
conspirators
bloody
folk
nighttime
diacety
factored
criter
balls
auditing
stein
radically
ranked
patented
prohibitions
touchdown
mcken
mcco
subsistence
accommodating
markers
deliberative
halls
rebecca
influences
comprehend
advantageous
lifes
feeds
inherited
trainer
retainer
coached
quantum
##overted
sunlight
snack
contradictions
unsp
exceedingly
stemming
##ylactic
philip
cheating
##locked
seatbel
stickers
dashboard
wintertime
sophom
invalidity
vitality
recycled
alterations
rebutted
insistence
unqualified
pillars
columbus
kickbacks
rainbow
grabbing
ramos
suffrage
escalate
escalating
scarce
intimidating
upgraded
nominations
angles
diploma
tolerated
vaccines
collaboratively
cubic
tears
paychecks
foregoing
fleeting
sloppy
skepticism
rosa
dissemination
bootstr
##isclosure
seminar
stereotypes
underpin
kathy
hansen
dwellings
disavow
kaiser
nondisclosure
##keepers
battles
tattoos
opioid
ghost
pesticides
tropical
metabol
kristen
alberts
supremacy
unresolved
mcneil
disfavor
unprotected
efficacy
caribbean
hancock
diacetyl
ain
cort
cbo
dice
fier
gome
gsa
hats
ix
jolly
mue
mour
mush
nord
slic
tuc
tensions
tipping
vine
zoned
##eens
##rative
##non
##gill
##mes
##dled
##low
##card
##bring
##bucks
##esar
andy
reap
reacted
bees
##uts
##llis
haitian
forged
forgery
stones
notation
notifications
anew
##iral
coma
seaw
##olo
##anton
atoms
atypical
juice
cashing
castle
alumn
alerts
donors
##unks
rescu
outlier
leach
compiled
unin
unwork
unknow
uninter
recites
commute
perse
perpend
peps
brun
brows
verge
amate
intang
declines
thanking
interple
copper
gramm
mank
##lical
replicate
expon
expiring
##ensated
##ustain
differentiation
thrift
fever
strained
depended
afterward
accustomed
##ogen
lethal
publications
transient
translates
insulated
phasing
helen
signage
autopsy
counsels
locking
supplements
formality
homebu
authored
valve
proportionate
filters
facets
caliber
calvin
##ello
marketed
blues
qualitative
oppression
legalization
severed
modifies
playoffs
performers
iris
irony
supermarket
slaughter
lightning
enforceability
summation
merced
meritor
secretly
volition
meaningfully
favoring
instructs
tread
forthright
conspirator
footnotes
preventive
combinations
pressured
capitalize
degener
panelists
bury
blacks
photoc
divis
##uitous
reformation
pathways
batson
librarian
intelligently
shallow
occupant
unconv
inventories
strengthened
racing
conceive
villages
recreate
implant
preferable
unsustain
fraudulently
beautifully
dissu
softball
pipelines
residue
femin
sammy
generically
starbucks
wooden
belonging
impairments
acknowledgement
displaying
biologic
bandw
dividends
magnet
magnific
perpetual
morales
pupp
enormously
bells
weddings
relocating
dominated
festivals
loudly
concentrations
hawaiians
optimize
demolish
jews
outdoors
experimentation
federation
southwestern
lobbyist
divert
alarming
joyner
multiplier
mobil
plugged
maximizing
toxicity
procured
accompany
injection
darn
mansfield
unbelievably
disqualify
unwillingness
mounted
climbing
alignment
filtering
poisoned
uncontroverted
trespassing
gibson
##itzer
eyewitnesses
bernard
intercepted
envisioned
molecular
exacerbated
handwritten
foxboro
chiropractor
pronouncement
caregiver
greeting
prostitutes
cpac
pelosi
reassignment
precipitation
pandemic
refrain
dissatisfied
##lifting
alpha
reinsurance
horizont
spikes
roommate
numerical
ripple
##economic
antonio
chrysler
arthritis
clifton
arnold
commensurate
goodbye
improbable
criterion
gomez
mueller
alumni
unworkable
perpendicular
pepsi
meritorious
ail
bot
bap
cc
erect
etern
fiance
gum
hid
herman
hilton
lid
lah
mounting
nt
nud
nether
oz
pap
pup
ric
rider
rav
sally
tin
tide
ticking
ump
vel
zim
##fish
##ros
##iators
##gre
##maker
##tings
##dling
##pas
##psy
##inational
##itism
##iscr
##reet
##anied
reuse
hack
##ceivable
conso
notions
dement
delic
##chem
##olulu
abbott
juli
##tro
##abul
charm
chased
alb
twea
twomb
##ivities
byr
donor
ener
enron
enlight
leash
underage
unle
unfor
uneth
unsett
pla
impet
impunity
ammon
intents
##gues
offsets
##ethered
conspic
indul
coe
grange
exposing
addendum
invar
recordkeeping
regain
drafts
polite
##roe
standby
guam
remanding
empath
joanna
inserting
honolulu
##occup
readings
keller
conflated
departures
enduring
endured
realization
patty
hooked
raid
classifications
credence
mustard
##lton
blah
submar
turnaround
misstated
substantiated
salad
bark
barrett
##aky
morph
councilor
competed
participates
settles
unfit
researcher
shortcom
staffs
roadside
fallback
##ompanied
extracted
conspiring
assessor
winchester
lowered
shoots
messaging
continuances
antagon
affirmation
parkway
unrebut
uncor
narratives
fixture
burbank
veterin
packaged
southeastern
propositions
tablet
adequacy
vacating
divine
traveler
organizers
touchstone
inspecting
mcintosh
layoffs
texts
professionalism
cement
turp
analyzes
scrub
picnic
timmy
allocution
renewables
comprehension
masters
binders
utmost
##holes
sunny
harmlessness
predictions
stripping
ventures
deferring
benches
owes
convene
catches
sickness
juniper
spotlight
biologics
epile
dressing
gamesmanship
defeating
recycl
promotions
seminal
conservatives
superintend
laden
ecological
discourse
launching
hinder
dui
jeopardize
impeding
rotary
trumps
symbolic
inconceivable
lucrative
exploited
deterrent
cousins
hubb
williamson
patriotism
acquiesce
promulgate
embarrassing
emerge
misappreh
migraine
bundled
gibbs
rumor
outweighed
subordinates
apportionment
buffalo
cosmetic
adventure
judicata
nominee
antenna
enthusias
relinquish
skyrocketing
hogan
reallocate
iqbal
rezoning
unaccompanied
hormone
laura
sermons
caveat
newsletter
hollywood
wreck
snoop
prophylactic
jacob
catalyst
baptist
cushion
vandalism
moisture
valentine
conscientious
contaminants
unsustainable
console
twombly
unethical
shortcomings
unrebutted
aet
berm
cess
capping
cba
celt
ego
gses
hicks
lions
lazy
nitr
ore
py
pud
pouring
rer
saud
senses
sba
tum
tacking
woe
##fig
##gal
##oard
##top
##lash
##cking
thy
##instein
##itiously
##isure
##alities
##arf
hav
##stead
isis
deaf
##ppers
##cha
shade
shannon
##gel
##actical
##aina
julia
traced
tracing
cass
casting
canv
knight
quibble
appall
leisure
complicit
liens
unchanged
commanding
tags
bricks
verbally
amn
offhand
defies
wherein
##solete
##uctory
cros
crank
usurp
interre
##eled
distractions
subpar
moham
dried
drying
drilled
polish
##igned
##roid
obsolete
fog
strings
striving
accuse
##cuous
joey
payne
opine
scalia
transpl
bug
busiest
##identified
programmatic
mighty
longtime
correctness
citywide
positioning
##pared
reviewers
##tsdale
necessities
redef
perme
##arran
witnessing
insurg
noncon
listings
metering
lessen
profiles
infants
misman
debil
bites
mri
pretenses
connectivity
opting
multinational
groundwork
victimized
secretaries
visas
extraction
extradition
armour
skating
collaterally
drawer
introductory
soundness
chancell
unreal
##ups
gentr
licensees
burma
executor
regularity
temple
mortar
##afta
picket
telephones
innocuous
naturalized
probationer
infringer
mcn
reformed
marker
curry
homer
garrett
hotline
animosity
torts
allocations
tomatoes
inferior
replacements
##hearted
contests
screened
retrieve
bushes
railway
transmitter
stockp
bulbs
fastball
dependents
punishable
slowdown
cameron
stresses
pennies
sunr
litigants
barric
slightest
captures
snowstorm
splits
replen
replied
spotted
omn
omaha
nutshell
webpage
holmes
stretches
stretching
interrogatories
impractical
eaten
##etta
handcuffing
ministers
robertson
stamped
suppressing
revisited
bowling
raymond
accelerating
courageous
##ascular
congested
radicalization
explosions
empowering
viewpoints
multiplied
rampant
unprepared
tragedies
ellison
##istingu
ortiz
hayes
riverside
propriety
unmarried
reluctance
##funded
poisoning
oakland
acquiesced
vitally
caucas
faxes
flipped
ecosystems
subscribe
wounds
paraphrase
karen
exacerbate
misconstr
axis
ignorant
abraham
tossed
vigilance
germane
nigeria
scottsdale
mendez
pioneer
shrinking
brigade
ounces
aesthet
eagle
interdisciplinary
cheerle
atrocities
proliferation
potholes
incursions
misinterpreted
reciprocal
xvi
combustion
cindy
ankle
confederate
misbeh
timetable
liaison
indonesia
gorgeous
humphrey
marriages
mccoy
lifespan
amateur
intangible
mercedes
energet
impetus
invariably
hubbard
enthusiasm
mohammed
bif
burr
cec
cute
fape
fighters
ist
ku
kl
kos
kap
moss
mamm
ny
rim
rope
rash
rode
sizable
vant
vag
vets
vapor
wool
##fire
##eous
##iances
##gie
##wick
##uities
##mind
##ooski
##dc
##cuss
##kids
##onge
##eno
tomm
##itar
whome
whites
revert
##idt
##idious
##idency
##ettered
prin
prone
stub
conway
##imen
noticing
##igated
##verted
dodd
proact
##gee
disgr
disincent
friction
meyer
alf
alston
evasive
##ousal
resell
outgoing
leased
lemon
undeveloped
compressed
unb
impasse
brend
amuse
amorph
##awa
cres
cram
consign
indulg
indistingu
overe
overstated
cob
grill
graff
gracious
discreet
evenly
distracting
exposes
subc
regan
presidency
differentiated
##reatment
afoul
believer
herb
boating
thirties
takeaway
##ucive
guerr
accent
contigu
informally
muham
conducive
parr
parale
kindness
scand
transc
finra
##iah
percentile
monica
##aterr
##weeney
admiral
carj
##onto
placebo
##beat
protr
realt
esco
countrywide
handy
classical
sideline
flint
flavors
waist
waits
lessor
proficient
budd
infill
infusion
activist
ericks
denomin
designee
morally
competes
distort
unfettered
assistants
entitle
badge
switzer
structuring
instructor
creator
extraterr
remedied
demonstrative
collisions
winooski
middleman
comparability
terrified
combines
messed
corporal
predisp
massage
commercialization
menus
cardio
burger
illegals
conceptually
cooperators
harry
murderers
deceived
imagery
progressed
fills
logging
variant
welch
curtain
deliberating
psychosis
suspicions
negligently
savvy
attrition
equalized
sectarian
sensing
pledged
subsidizing
withdrawals
politician
colorable
retrial
retribution
biotechnology
miscalc
contemplation
discriminates
binder
concealing
hillary
brainstorm
shuts
brands
forgetting
escaped
dissimilar
##cla
substitutes
surroundings
motorola
taped
resistant
watts
deems
installations
spiral
modernized
forgiven
conveying
coca
tourist
specter
habitual
wilkinson
signaling
defeats
darkness
overturning
pillow
mileage
blindly
upsetting
rainy
stabilizing
infectious
interrupting
interruption
coupons
easements
completes
optimal
impeded
macro
underwriters
bumped
satellites
simplification
randomly
oxford
iii
smugglers
organs
tearing
steril
loosely
overdoses
exploit
bait
insights
artificially
sprayed
whistleblowers
shameful
cabinets
suburbs
laptops
uncontroll
tirelessly
untruth
redistrib
gibbons
stalling
astounding
outweighs
frightened
caretaking
tubes
rectify
forrester
prostitute
kathleen
rfp
intercourse
stewardship
baldwin
pivot
sprinkler
bogus
disbelieve
tempted
gentlewoman
dismantle
algorithm
cottage
stalking
positives
blatant
guardianship
entrepreneur
cursory
hinges
zealand
prestigious
sparse
undefined
decertification
snippets
pryor
unmistakable
intermittent
subrogation
illusory
lahaina
netherlands
aetna
chancellor
unrealistic
sunrise
whomever
proactively
amorphous
indistinguishable
contiguous
muhammad
erickson
bans
cables
dn
fi
fau
fict
fec
fert
gant
kin
kipp
klan
lanc
nathan
ost
pv
rud
rachel
wit
wired
yell
zo
##fty
##rad
##net
##ntain
##say
##sky
##upp
##member
##overs
##hop
##hetic
##lly
##link
##pb
##pin
##pro
##ko
##atural
##erity
##enz
##isy
retry
rejo
reese
##oway
starr
stumbling
##urge
progn
sean
##chs
##olitical
##olph
exotic
##terr
##amil
shakes
##aines
disper
meadows
chop
ally
alge
##aca
##ivia
##ardi
adren
resided
outward
spacing
##ueling
compression
sap
sachs
unim
unitary
unloaded
##ibration
poised
upstate
upshot
timelines
peripher
pear
bron
amber
sheep
##izers
fountain
cripp
needless
conspire
interacted
overh
cole
grip
grove
grips
provocation
##ached
presley
##issory
relators
newsw
deple
putative
guitar
cercla
termed
corning
schiz
rox
mull
condos
downplay
atten
attest
scam
ids
helm
medal
signatory
smoked
departing
policyholders
companions
surety
alleghen
##eek
receivable
authoritative
exploded
dispense
facade
betterment
equitably
referee
pete
emily
identifier
buddy
misn
dams
bitch
salient
absolve
barc
walden
timesh
choir
locality
superfl
##teness
promissory
delve
farmland
removability
definitional
trev
creators
restructure
skipped
float
apology
apoll
affords
vehement
terrain
campuses
winding
panama
antith
repeats
walkway
northbound
grandson
grandkids
selectively
plains
arbitrated
grader
gradual
janus
adoptions
ambiguities
learns
forecloses
flowed
presumes
attraction
infraction
subsidiaries
silic
deepest
politic
renter
closeness
strengthens
concerts
musician
trainings
husbands
nursery
frequencies
precluding
roundabout
reconfig
##iologist
insufficiency
##places
substituting
captive
consolidating
shelby
deploying
sweat
shooters
fellows
abstraction
copyrighted
formulas
foresight
##roborated
thresholds
dialysis
sundays
rocky
corresponds
michaels
horror
vocabul
adversity
facilitated
reputable
lunches
blinds
paintings
conferencing
transferee
quotation
dominate
hangs
patriotic
intimidate
reorganized
surgeons
pretextual
scanner
gratification
vaccination
outsourcing
punching
precincts
adaptive
##ggling
prioritized
toronto
fishery
hesitation
lodging
unintentional
instantaneous
coded
cruise
unavoid
inequity
inequality
sacrificed
bureaucrats
accrues
slogan
profoundly
penetr
spells
rifles
redressability
lingering
leveraged
jamie
rumm
pcp
cannon
fleshed
catalogs
stabbed
orchestr
interconnection
cruelty
redundancy
steadfast
revitalization
seminars
geographically
censor
exaggerated
unfolded
lonely
ounce
##lassified
excavation
premeditation
deregulation
mediator
barbec
galaxies
allergies
scrutinize
contraceptive
jamaica
molokai
unrestr
prescott
dissolve
augment
malfunction
toxins
tantamount
uncompensated
syndr
nlrb
retardation
pencil
repercuss
undercount
schmidt
disgorgement
persever
mankind
homebuyers
unconventional
magnificent
horizontal
dementia
uncorroborated
turpitude
epilepsy
superintendents
saudi
energetic
vantage
tommy
switzerland
fictitious
prognosis
disperse
allegheny
superfluous
vocabulary
aj
ald
avery
aston
bau
baked
cep
cows
dian
fame
floyd
gem
gel
hod
jaw
kios
lur
laps
lamb
lumber
mm
ming
nc
natives
oli
ply
pau
pamp
pike
ruth
rita
sore
sorrow
sotom
tt
tally
wart
wang
wander
##ega
##aism
##ypt
##ua
##uations
##ho
##hots
##cal
##cated
##vised
##bin
##bag
##pi
##atts
##oni
##onies
##onia
##esc
##inghouse
##orious
##itous
##itized
inapp
##ali
##anas
##icides
receptive
##omon
beam
beard
beams
##leton
##otine
##lli
##idth
##stance
##stick
isa
ish
##ayor
stear
stee
stagn
steak
congl
ana
sosa
delet
##ifiers
seals
goose
##olta
shadows
shipper
##aulic
##opic
##oples
tru
disloc
##inkle
orr
orland
mega
castro
allstate
alliances
chew
chocol
albert
##endous
##ousing
appra
appoin
resched
outlining
leaked
composite
underlies
##umed
unra
reciting
##ibus
##istical
##tegr
perverse
peel
peoples
bray
wherewith
incurring
##ucted
judy
judaism
interoper
indiv
overp
overcoming
precon
grit
gram
discomfort
contraven
dragon
##acey
##issued
##owned
understandings
rooft
rochester
happenstance
payback
downhill
marx
employs
servants
insane
deserving
foundational
mines
ministr
##atern
signify
##version
carving
carney
carlson
affluent
confisc
millimeter
respectively
hoops
immense
immunities
completeness
##concil
leveled
circumv
##ftime
paia
waking
refoc
wholehearted
runaway
identifications
blended
safest
artisan
surre
surpass
module
wrongs
activated
brew
traits
pots
##lected
posters
solvent
solvency
frontier
documenting
unfamil
gunpoint
personalized
groundbreaking
midway
swat
swed
swings
precurs
visibly
civilly
imaging
bookstore
mandel
socialization
winters
centerpiece
teamwork
##angers
##azing
pops
nearest
netfl
audrey
westinghouse
ensured
burke
##boy
##boat
geom
geological
arbitrability
cellular
imagining
salespeople
jailer
jailers
stopp
logistical
candor
destinations
garment
excessively
psychotic
counterproductive
benign
timothy
consultations
renewing
martial
deepwater
articulating
approxim
closures
announces
christensen
irreconcil
stockholders
innovators
comprise
diversify
overrides
slowed
drama
unscr
unsolic
brandishing
dissolved
controversies
smartphone
valuing
unprof
staring
convened
aggressor
fingert
correlated
assemblies
tripled
therapists
webster
sarasot
gatekeeping
cooler
corroborates
solidarity
navigation
horrendous
industrialized
saturdays
yielding
blessings
tightening
nutrients
frustrate
crowds
tuned
##obil
inaccuracy
consecutively
demolished
pinch
interferes
auctioning
kilow
perjured
halftime
##uminous
christianity
sliver
joyce
videotaped
videotapes
disadvantages
kidnapped
casualties
ceremon
incompetence
fishermen
cautioned
alluding
spills
earmarked
widow
lindsey
lindsay
predominance
fascinated
freddie
sacrificing
surrendered
brutality
folded
duplicate
corridors
landfills
nails
nicotine
harmonize
swinging
smells
hartford
egypt
tentative
hauling
photographers
recoupment
lessee
ronald
headache
bribes
bounce
morrow
wildfire
annex
tiered
resurrect
proclaiming
apprent
fundraisers
hydraulic
degraded
reprimanded
reapply
cbp
aesthetic
disallowed
extrapolate
purporting
synthes
paramedics
retrofit
##smith
wandering
megaw
precautions
pragmatic
genetically
warfare
adjourn
lamps
insolvent
hondur
imbalance
tutoring
suzanne
dancers
yarn
enthusiastic
eloquently
cynical
##croft
interlocutory
artifacts
superficial
cohesive
transactional
fidelity
mckin
bandwidth
puppies
umpire
nitrate
woefully
amnesty
debilitating
caucasian
indulgence
algebra
unavoidable
sotomayor
wherewithal
ministries
wholeheartedly
unfamiliar
netflix
irreconcilable
unsolicited
bing
bun
birm
boring
bunk
bacon
cage
dill
emm
gab
haley
ib
ipr
iphone
jill
jake
kod
lansing
mound
nico
paw
pav
paus
poul
rv
rend
rios
sweeney
tethered
wong
wick
wards
wagon
wanna
##eets
##national
##making
##hl
##col
##vascular
##pen
##ping
##post
##orism
##edia
inactive
##requ
##rection
ofac
whim
whip
reen
##ometer
beast
beverage
weaver
##etric
##owler
##owitz
fork
forge
stance
stroll
##ceived
conquer
##ima
##imer
##iga
##vertent
sox
##erees
seab
##chap
aboard
##ando
tray
ornament
becker
chess
chef
##acity
##ivious
##usal
donna
noaa
engr
arrog
archer
queens
resale
spont
sphere
sponte
spousal
compilation
underwood
liby
unl
unch
##quet
tapping
##ista
popped
wills
intens
decipher
##sover
lookout
overheard
workman
bass
baseless
wayside
stature
##licable
vein
mayfield
belg
subchap
##ensical
invaded
respir
presupp
##issa
##issance
##ignant
happily
reliably
##orship
feather
focal
detox
hundredth
assent
showers
joking
opa
kindly
scul
phased
syrup
billboards
##ocese
kemp
businessmen
carver
affair
autistic
confessions
##bezz
milligr
tenuous
##kett
formative
retesting
handlers
demotion
explor
##lessness
restart
proportions
workings
filming
sidewall
passages
flown
refile
##lush
##lusions
banker
runways
embezz
blamed
metr
metco
infrequ
breeding
##ercing
majoring
trait
singh
potatoes
moroc
##rupted
postmaster
##pring
##oster
womack
fullest
slurs
milton
penological
affection
forcefully
crossings
crossroads
preclusive
favorites
devised
deviations
instructors
intric
skipping
apn
keystone
comparators
combating
compensating
campground
windsh
capitalist
preparations
balloon
driveways
radios
narrows
methodologies
obligate
validated
layman
layoff
marched
adjuster
florence
registers
loaned
townsend
advertisers
supplementary
institutes
reportedly
counterterr
constructively
##ersonal
enhances
bedford
accomplishes
magically
reverses
mastermind
colorful
biases
##ippers
norman
roundup
preferential
occurrences
reconsidered
##ambling
##ophren
motorists
ventilation
owing
owls
derby
tourists
transitory
kenn
spokane
flooded
celebrity
converter
brightest
nurt
burner
passionately
memoranda
randolph
unwanted
bothering
engineered
disorderly
recruiters
dominion
affiliates
crashed
nominate
visuals
mcdan
reorganize
smuggled
molested
prioritization
deductibles
tackled
fisheries
inadvertent
earnest
nuances
loopholes
haynes
tabled
rhy
rhodes
colombian
harshly
bureaucratic
niche
vitamin
pitcher
vindicated
romero
chaotic
invoice
##words
rumors
analytics
chickens
disseminate
deterioration
deteriorated
wrestle
nickn
tanner
inconvenient
reallocation
friendships
interchangeable
interchangeably
resilience
obscene
inflammation
dispatchers
blogging
benton
lungs
odor
inhum
fertilizer
reinvestment
exonerated
piercing
piracy
amplified
pivotal
pulse
cocktail
dispensing
premeditated
brownsberger
algorithms
cedar
andrea
teresa
regression
travis
brochures
presumptively
trenches
carnival
bicycles
friedman
recidivism
indecent
linguistic
mcmurray
revelation
dovetail
outfit
dictatorship
prerogative
skewed
chandler
undesirable
displacement
succinct
interpleader
delicious
subparagraph
gentrification
misconstrued
bifur
cecil
carjacking
escobar
cardiovascular
##proof
schizophren
syndrome
repercussions
stearns
unravel
indivisible
##aternity
birmingham
subchapter
windshield
bould
bates
dau
daw
dread
dunk
dixon
eu
fug
fta
fowler
hos
hij
jc
jog
jokes
ki
kk
kud
kyle
lion
laud
lends
mb
mant
masc
nash
nafta
pm
ppm
rans
sway
tand
tended
tutor
tighter
visions
ww
yelled
##fi
##felt
##rally
##nn
##ski
##hy
##hoe
##di
##car
##cents
##clusive
##zie
thwart
##ativity
##inces
##enous
##enary
##enuously
##oust
toes
ina
##isites
##aser
##asher
whis
weiss
##idity
forties
stool
notary
##igate
prover
heed
##estim
##essed
##oled
aber
##keley
##activity
neal
##outing
##andi
tracts
truman
##abit
##osa
chester
alright
alerting
twins
##ivian
##ivables
##endi
loveland
knives
knox
##uson
donating
##ousy
##oused
justici
quid
query
mak
mapped
levin
compute
underpayment
liking
unheard
plots
plowing
commended
poet
uphill
peas
brake
bryan
##emen
intuitive
statehouse
whereabouts
cracking
overthr
coch
workday
stats
reposs
##agen
backtr
contrived
evenings
providence
##loat
##love
arguendo
adduced
invalu
secular
afield
newton
strenuously
##ubs
depiction
detaining
##anca
##ogens
legend
sims
simulation
payers
payoff
scant
ida
transnational
dese
billboard
##ava
##ivided
invests
##bee
smok
smelled
smoker
immoral
supper
circling
forma
demar
credibly
receivables
editors
disposing
dispensed
restate
followers
forwarding
marketable
blaming
blanche
##white
stephan
miso
severability
subjecting
activists
viewer
specialize
potable
##icultural
erase
designers
designating
petitioning
performer
localized
physiological
solomon
superiors
communicates
slips
slopes
finalize
chaired
humve
dismisses
voluminous
##apper
swap
swelling
swenson
headlights
favoritism
armored
floated
totaling
messenger
checkbook
declares
preparatory
distributes
domino
unrep
unreview
fundamentals
northeastern
predator
##aney
blackwater
##payments
vacations
harley
perfection
breaching
acquit
infliction
heartfelt
salesman
salesperson
##charges
illegality
battal
unreasonableness
adoptive
joints
destabil
foreclosing
libert
voiced
attaching
discharging
religiously
comprehensively
pushback
suitability
bios
misrepresenting
latent
reinvent
diversification
stressors
sunni
snatch
voicemail
##agov
intervener
oversees
jean
slee
afghans
dropout
destroys
sheriffs
installment
tendencies
forestry
convening
prints
tolls
kenny
formalities
cracked
dictating
recipes
darker
semic
conservator
crowley
##zzy
pedoph
sequencing
sequester
coffers
manipulating
frustrations
ruin
barnett
grabs
expedite
angelo
rubric
dumpster
encompassing
dominican
incomprehensible
bleacher
microw
involuntarily
tanker
bailout
diverting
sighted
levine
alarms
gears
endangerment
unexpl
tangential
spinning
columns
inconclusive
bosses
attracts
daring
diagrams
lucy
vegetable
conveniently
hammond
ashamed
buckley
jenny
jennings
guts
sporting
absorbed
forecasts
inequities
frederick
hiking
accumulate
reproduction
lambert
catering
connell
collapses
pigs
piggy
strains
ponds
meltdown
stacked
scratching
gymnas
embarrassment
astronom
arranging
bernstein
multifac
sibling
cohort
flashlight
deteriorating
rhetorical
abstention
abstinence
attainment
delineate
persistence
redoing
nichols
luna
nonsensical
squeezed
flourish
gleaned
shackles
shirley
pests
multimedia
synthetic
sanctuary
galaxy
paramedic
indigenous
##hawk
descend
merging
intoler
overcame
lifeguards
renegotiate
garnishment
steroids
dumonts
marauders
sophomore
uninterrupted
exponentially
album
ammonium
cessation
celtics
interrelated
kaplan
extraterritorial
entrepreneurial
depleted
attenuated
misnomer
antithetical
unrestricted
diane
oliver
pamph
rooftop
precursor
fingertips
sculpt
apnea
counterterrorism
invaluable
stephanie
gymnasium
ace
bhs
cim
dens
dale
flem
iac
kong
lime
laf
lester
lilly
lighters
mice
mons
ng
oira
pact
pale
poured
rome
tased
vad
vault
vaugh
wade
walth
zer
##fs
##few
##rose
##raged
##iator
##gence
##green
##aith
##uates
##hi
##lance
##cen
##cam
##cester
##vest
##bab
##pit
##onaut
##enza
tomp
##itas
inund
##rels
reissue
##oto
weconnect
##idences
##eties
ons
##ura
##urb
##estab
asc
gosp
abrog
exor
exiting
##amatory
shin
shod
##kef
##aders
neil
##ulin
disbur
megan
meek
cane
canyon
chor
evapor
agitated
looming
##ieves
clo
##uniary
quota
appliance
outlaw
spat
spice
sparks
underfunded
lihe
unum
unbi
uncharged
plastics
recital
recuse
factions
##ibur
popping
pointer
upcountry
peck
##ipe
implements
brink
bravery
willis
amos
acoust
##aways
##thood
incline
crate
consular
wanton
##aphor
overton
overflow
preview
coke
cooked
##elf
##elp
statue
grind
rephr
discounting
belly
belied
backlash
expropr
subt
mooted
testifier
drank
speculators
##assing
afloat
clears
newcom
takeover
##ounced
remarked
##ogy
chang
##nington
goodwin
genus
scoot
publicized
processors
secondarily
wrist
insulin
federalism
entice
standardization
##verson
carlin
affinity
testimonies
limb
##bersome
reportable
typo
exacting
operandi
advises
calder
##elli
blot
metaphor
surrogate
stepfather
infirm
misper
miscommunic
debr
debit
legalize
limitless
##essional
damning
barney
moreno
postage
letterhead
##athom
fronts
slave
awaken
multid
shortcut
gunshot
encaps
roadb
consumm
##ointed
portra
swore
fallout
intrud
danny
socialize
computational
walkers
killers
ballast
ensuing
breakout
breakup
terminates
burton
greenway
initials
glaring
gloria
blackwell
selections
banging
explanatory
##isticated
prohibitive
retirements
squir
infringes
truths
logged
librarians
foreigners
destiny
mechanically
curfew
guarantor
tracked
##burst
operationally
bonded
globalization
liberals
hallibur
hosts
stationed
timer
academia
pledges
scenic
emailing
weights
borderline
hurley
biom
enjoyable
exhausting
mickey
##naments
scheduler
overrun
punishes
punishments
sneak
seasoned
deprives
unsoph
birch
analogies
independents
collaborations
carrie
coastline
distinctly
detectors
belongings
streamlining
##door
stimulating
copyrights
sticky
assemble
freshmen
epic
dividend
vetting
appreciates
liquidating
sirens
tenths
movable
weighs
unanimity
reputational
applewhite
holistically
randall
pillar
pedig
detainer
kitchens
quotations
patrols
shells
aims
repealing
unknowns
discouraging
duval
bleach
cumbersome
dotted
franchising
maliciously
bumping
bolton
exchanging
slipping
recessed
dispositional
sterilized
cautionary
ellen
revolver
museums
exporting
averaged
disqualifying
instantaneously
phenomena
propriet
griffith
reproduce
anthem
berkeley
astray
extremism
swallowed
traceable
pecuniary
embodied
lectures
aspirational
parsing
concussions
breedlove
ivy
sewers
victorino
lutheran
apportioned
gestures
luke
delineated
geneva
bounced
tube
militant
diamonds
prerequisites
milestones
entails
gonzales
twisted
bryce
incrementally
breakthroughs
outbreaks
restrooms
surfaces
eagles
temptation
dissatisfaction
enlarge
charlotte
lori
disrespectful
ausa
fracture
tastes
betray
souls
coincidental
fuzzy
##opathic
adulthood
marcotte
dixie
genitals
arraignment
antiquated
hassle
fungible
shepherd
wendy
reyes
marvelous
socioeconomic
boycott
albertson
disfavored
mourning
degenerative
unsettled
conspicuous
##occupied
omnibus
aesthetics
crescent
consignment
graffiti
adrenal
apollo
orlando
preconceived
sarasotagov
poultry
mcdaniel
rhyth
inhumane
kudos
tandem
cochran
libertarian
unexplained
multifaceted
cimt
liheap
unbiased
unsophisticated
bib
brett
cj
duff
dizz
eisen
fc
fuss
gerry
hated
hark
hinge
lp
lund
lup
longe
ml
mes
nfl
niels
omb
oaks
pall
pals
ri
raining
tending
vivid
wink
wore
wyn
##fur
##frog
##fax
##eer
##rous
##rail
##ienced
##nut
##game
##sis
##some
##waters
##mand
##oes
##oved
##oze
##oza
##ogram
##human
##jan
##vid
##vac
##blo
##pd
##pel
##kill
theaters
toby
##itory
##arking
##llo
##stander
pratt
stunning
##uration
connot
conrad
##ige
##igo
doses
heinous
soda
dell
delusion
delusions
comic
butts
##olences
##ante
aba
ate
##term
shale
shiny
shaky
##add
##adic
##adle
##andra
disj
disinter
fres
frog
##tran
canopy
alga
##odal
evisc
loos
loft
clancy
clicking
bystander
##unned
ado
arbor
quarant
outlay
outburst
spor
hash
undone
compass
compress
undergone
liken
libor
unans
unto
uniqu
plagu
plows
takers
upkeep
perplex
verifiable
acorn
##guire
defensively
defamatory
decay
decatur
##thora
cradle
telem
tease
##berman
consulate
coating
coerce
grim
manuel
replicated
discard
beloved
##ixed
##encl
##ensibly
invit
probe
drown
obe
newtown
folder
depress
beta
betty
lott
schwart
jurist
rooker
condolences
opeb
paroled
decisional
callous
##ountable
scour
buchan
##yson
planets
insubst
phd
synch
billed
##avan
colony
##ocking
##ocative
admire
careless
costello
simplicity
##gets
lanai
plethora
edged
authorizations
redding
resting
conductor
policemen
sugars
flare
flux
##gano
calibr
refiled
blight
blending
recognizable
requester
centennial
modular
playoff
##bitant
traject
specialties
potato
negated
designations
actuality
irons
competitions
fuller
participatory
broadening
frontiers
versed
superimp
slaves
originate
##judicial
entitles
farmed
cuttings
chairperson
encumbered
midland
forceful
##bright
doubted
primaries
arrestee
##erville
creatively
wonderland
humana
fulsome
pricewater
coping
characterizing
drawers
messing
##azar
capitalized
momentary
introduces
watchd
antar
domic
##operative
critique
proofs
doubtful
glory
divest
harper
geology
sharon
sanitation
selfish
imagined
mcf
##mington
logos
surveying
cashed
variability
garages
garland
constrain
turtle
bondholders
quarrel
voir
voluntariness
phrasing
elevations
benz
infringements
inferring
retraining
christina
##wald
binds
anticipates
confrontational
roundtable
reconven
transitioned
preferably
iceberg
unsure
barracks
slept
escorted
##class
predictive
surveyors
##glass
compromising
waterm
unpack
samuel
thermal
disapprove
goldberg
goldsmith
aggression
channeling
##feld
##locks
kennel
patrice
mirac
miracles
jungle
formulating
disruptions
reno
flatten
uncertainties
converts
electrodes
brighton
appreciating
liquidate
acquisitions
hawk
norton
corrupted
unnamed
rogue
parameter
manifestly
interrogations
interrogatory
subdivide
hann
offsetting
rains
rainfall
##ealthy
expeditiously
##affe
ruby
novelty
overlooking
louder
ecst
soils
mathematically
graphically
skelly
disappears
portfolios
scanned
scanners
sincerity
gratuitous
outsource
sharply
hydroc
pitching
microphones
##ggy
lakeshore
bradford
deducted
injecting
##checked
redemption
synonym
puzzling
cumulatively
widening
widows
hammered
cherish
mysteries
unhealthy
lumped
cheapest
rewriting
folders
hypert
connolly
diameter
berk
rockef
acidic
acidity
nickel
relaxing
huntington
olm
olive
monumental
wiretaps
bloomberg
leapfrog
segue
cohab
proteins
russo
undercuts
cordova
orthod
laughed
abstain
attained
misconceptions
reinforces
reinforcing
grooms
fetal
rectang
paralymp
underpaid
parliamentary
exoner
exonerate
reassigned
trafficker
leonard
portrayed
hanson
livelihoods
dolph
easterbrook
gillis
airbag
sabot
dvd
travesty
precaution
incapacitated
sauce
dysfunctional
armenian
glacier
phelan
undeniable
reevaluate
coworkers
vouching
allotted
infiltration
propaganda
mckenzie
bootstrap
fierce
vinegar
photocop
eternal
zimbab
##greens
##iscrimin
unfores
indulge
thyroid
stubborn
sterilization
uncontrolled
fauc
ostensibly
zoom
overhaul
roxy
vehemently
silicon
wartime
steele
chocolate
appointees
refocus
surrept
kilowatt
libya
schizophrenia
daubert
hoskins
mbta
www
unrepresent
unreviewable
tompkins
exorbitant
chorus
debrief
halliburton
rhythm
longevity
nielsen
##blood
disinterested
algae
unanswer
uniqueness
insubstantial
pricewaterhouse
hydrocar
zimbabwe
aa
bick
berr
bode
baff
dm
dull
darden
egan
fca
fcs
hm
hd
hale
hitch
hips
hutch
lpr
mum
mesa
nodes
pens
rit
sour
sender
sams
tore
ticks
uber
ubi
vain
vick
wis
wager
yemen
zur
##fk
##eart
##iop
##iagn
##nie
##nick
##aic
##agr
##mi
##mith
##mel
##mouth
##health
##lux
##cked
##cock
##cape
##kan
thesis
##atal
##inum
##eners
##esium
##orp
##edo
inland
##alle
##arket
##ario
##icum
whack
recharge
reestab
beats
##utably
prair
onc
stash
##irth
sod
soap
dex
##ithm
ascrib
sua
##anto
##antially
##iler
##ilion
shat
shing
shuff
##adden
##ulars
##opsych
traction
disin
disastr
disobe
##illas
##illions
mee
casually
chal
chung
alters
evasion
knitted
caseload
claw
clash
##unken
quinc
quinn
apps
appet
reserving
outc
leed
spy
sped
actuary
comport
unman
unbrid
plumber
plenary
upbring
peoria
impound
##ears
brav
verifying
intuition
##ordable
cries
croc
crouch
interrel
indeb
overfl
overste
covid
workplaces
grieve
manually
vex
mayo
provocative
substr
subway
invidious
recorder
regal
posited
happier
##rocess
##rolet
matern
strife
depicted
betting
##anco
schl
agreeable
assim
joan
opined
serviced
transcribed
finley
numbered
wrinkle
##entionally
examines
monet
##aternal
schoolhouse
medley
meditation
keeper
funders
charters
chartered
cartr
corrects
lima
tenor
tenancy
costumes
endpoint
##cedent
raids
typew
lang
circled
handler
demoted
##lio
edgar
vald
thoughtfully
##fta
propane
circumstantially
injuring
facet
flan
flips
paige
equates
equipping
waives
calming
communal
coverages
##eworthy
blu
blm
blanca
misused
miserable
furthering
grouped
traverse
interpersonal
pottery
pretense
walton
electives
councilmember
sucked
citi
vargas
fireman
distorted
communicator
familial
slim
slack
shortest
shortened
assists
stafford
errand
summarily
summaries
##ricks
doubles
collectibles
swell
swath
precondition
socks
##istered
skid
assessors
##nox
lowers
falsehood
rangel
democratically
characterizes
diets
dietary
capitalization
momentous
prepares
popul
antib
livingston
principled
mistreatment
revamp
laborers
unclassified
predates
gentlel
ballou
listener
##quez
greenberg
steer
steward
bananas
perfected
geico
handsh
interviewer
patentability
##etheart
jailhouse
legislatively
mccl
mcguire
textbooks
homem
homicides
culturally
citizenry
technicality
malays
exhibiting
occupying
##heimer
articulates
chemically
biotech
innovate
minnesot
sherry
africans
visionary
dependable
snacks
overseen
uniformed
branded
recoverable
boyle
alcoholism
motorized
homeownership
amazingly
generics
sweats
sweetheart
gladstone
gallag
babys
replaces
derog
juniors
platinum
formalized
celebrates
wilmington
spraw
loser
cooled
magnesium
siren
protestant
flagged
entrust
entrances
contingencies
entertained
paramil
boiled
daddy
hanger
memorialized
blindness
vulnerabilities
diminishing
stabilized
angel
kelwood
fluores
adjudicating
preempts
instrumentality
sampson
russians
evolves
interruptions
crystall
embracing
jeopardizing
tuitions
bolstering
experimenting
disappointment
tolerable
##ulsive
explosives
rotate
surpluses
santana
melissa
melrose
ramping
wakefield
configured
shields
grandfathered
nervousness
lenity
lodged
depths
revolves
gifted
chevrolet
reactors
unintentionally
avert
towing
ashcroft
coincide
dissenting
booster
absorbing
##casters
falsified
korean
reproduced
inflicting
stigmat
misappropriated
acidification
telecommunication
strawberry
screws
harmonious
vests
vesting
dodge
sweeps
misapplication
unavailability
chatting
extremity
extremists
impartiality
neurologist
plotting
predecessors
paired
disseminated
mdot
muddy
refreshing
dispersion
championships
guatemalan
revere
syrian
misconception
eeo
await
greensburg
clusters
featuring
restructured
adolescents
fluctuations
freezes
revitalize
slammed
caval
resurrection
lebanese
rockets
congregation
evacuation
mosqu
counterfeiting
horns
pediatrics
merrick
rosenberg
proportionality
commemor
commemorate
ebola
antecedent
cottages
enlisted
annoying
quadr
supersede
superseded
##steps
brochure
facilitates
israeli
imaginary
olympics
insects
anomalies
waxman
atmospheres
arsenal
unaffordable
snowmelt
reexam
prefers
herrera
richer
byrd
misapprehension
pyram
appalling
mismanagement
kosher
disgrace
disincentive
amusement
paralegal
protracted
untruthful
unimport
barbecue
lurking
apprentices
honduras
intricacies
bifurcated
ransom
proverb
semiconduct
descendants
vaughn
##ceny
expropriation
pedigree
schwartz
buchanan
synchron
trajectory
hypertension
olmstead
unanswered
berries
ubiqu
zurich
prairie
disastrous
quincy
unbridled
interrelations
indebted
substrate
typewr
gentlelady
ae
bake
ceto
ds
diving
diana
daly
fenced
gin
gle
hogs
jih
ky
ket
kate
kep
kurd
lug
laughter
lax
morn
morm
mama
nass
nug
pb
pcr
rere
ropes
rican
sd
sang
ts
tif
til
vibration
wond
witch
##fia
##rus
##ii
##ui
##mary
##mobil
##cp
##vich
##bly
##bod
##bia
##pices
##atri
##inction
##enh
##orient
##orpor
##ede
##itic
inart
##report
##asso
##aran
##icter
beij
##seg
##seat
##utter
##station
##staking
pren
priors
stir
stau
staging
##impl
noteworthy
##iger
angu
hew
heel
##essa
##chi
##chat
##antation
abc
abut
abys
abey
abrogate
negr
nefar
##opers
trays
tripped
tricked
trillions
disbar
##illac
fran
frogs
##artisanship
orph
chad
chuck
clair
##ials
adr
arithm
quicks
outraged
compos
underpass
particle
uno
unple
unlock
unoccupied
unchecked
commencing
taper
##tel
##uda
upt
upright
uploaded
impul
brock
brenn
amel
amici
sheila
decamp
cried
##anson
teles
conserving
intersect
indiscrimin
overboard
overcharged
prey
replic
repurp
mays
backst
backstop
backdoor
backseat
expelled
addictions
invade
probabilities
serbian
drafter
drunken
relational
##assi
stricter
##ubm
depict
bets
corny
numb
##ogan
gotcha
roast
payout
condone
purity
marian
callahan
fiftieth
attends
scal
scaling
transmissions
##centric
fined
finch
insists
insulate
experian
violently
protested
situational
millage
tenured
locating
buildup
pleasing
exploding
legislated
propel
representational
equated
surm
larceny
countywide
misad
oppressed
farley
modus
activate
activism
litany
trapping
evergreen
generational
grantees
denigr
barker
walgreens
negates
petitioned
morality
elects
councilman
pasture
powerless
freeway
slander
origins
totals
trusting
cutter
gunsh
tops
portability
nationstar
swearing
fallacy
sock
booklet
socialized
warrior
apiece
demonstrators
computation
revenge
pressuring
declarant
##rium
mistreated
nearing
johns
johnston
revising
methane
higgin
predators
ballard
ensued
terminations
glimp
blackberry
banquet
geother
ranger
jailed
painstaking
pathologist
textile
curves
curbing
davies
emphatically
turmo
attractions
##umbled
motivates
straightened
elevating
elevators
allocates
##aulting
malone
influx
##heart
gatherings
screenings
screenplay
jerk
advancements
ethically
##mble
bipartisanship
reinst
quantification
rounding
##holm
diversions
snuff
brainer
catamount
implicating
rehired
minimally
barron
barrage
paulson
gainful
dischargeability
##banks
collaborated
collaborating
alcoa
escort
toughest
bonner
lieberman
ratify
deferral
prescriptive
forgiving
cheated
youthbuild
streetscape
equivalency
galloway
sportsmanship
carbonate
derail
shoplifting
attribution
rena
renowned
assembling
chamberlain
intervals
therapies
harrisburg
adversaries
petersburg
appleton
holster
dads
impractic
tightened
hansel
grids
conferring
ruined
sheltering
fulfillment
expedient
popularity
kelsey
deterred
adjudicator
interfaith
symph
furnish
furnishing
institutionalize
dictionaries
rosemary
illustrative
knocks
tuber
stripes
haircut
disappearing
bolt
bolts
sympathize
nomencl
kilpatrick
halo
whistles
bartles
wholesal
rotating
alarmed
absurdity
harboring
molina
mobilized
tangled
truthfulness
procuring
##yme
forbear
shielding
shielded
depository
complication
tagged
inexcus
overruling
predominate
ripeness
demeaning
harvesting
unmet
falsifying
bullied
comparatively
sloan
untreated
obstructed
vitro
chronically
##peare
credentialing
mistrust
stalls
neuros
neuropsych
spreadsheets
psychiatrists
wolfe
delightful
windsor
enclosure
lesbian
carlos
snapchat
whitman
bypassed
persisted
giglio
toilets
abrams
reauthorize
fluctuate
nullity
handguns
fertilizers
droughts
congregate
infantry
kirkland
merritt
skyrocketed
oversized
joshua
weakened
shirts
brigades
dormant
reconstructed
irregularity
irregularities
resembles
scholarly
overlooks
seamless
exxonmobil
digestive
reservoirs
sermon
cadillac
expunged
mischaracterization
auspices
jamaican
moloka
entrepreneurs
dosage
genetics
facilitator
coincidentally
pollutants
dissipated
energized
hypocrisy
philanthropic
nazi
phelps
ferris
lockdowns
overcrowding
culmination
disenfranchised
aguilar
crushed
underpinning
tucson
rescued
ailments
princess
alfred
shakespeare
newsworthy
inapplicable
isaac
stagnant
geometry
megawatts
mckinney
bingo
reenact
unlucky
milligrams
explorer
nickname
smokers
battalion
bleachers
waltham
gospel
biomass
sporadic
mcfadden
rockefeller
paralympic
unrepresented
ritual
samsung
upbringing
fluorescent
pyramid
unimportant
interrelationship
jihad
mornings
beijing
anguish
abeyance
nefarious
amelior
telesc
gunshots
glimpse
turmoil
nomenclature
bj
bum
bened
bays
cay
cus
cel
cote
dl
ding
dough
dances
ez
fas
ferg
fica
fibr
gag
ginger
hic
hong
hates
hines
hunch
hvac
jeal
jpm
jfk
lull
lomb
lapsed
mast
mesh
nays
ov
oig
ober
oops
pg
pse
pne
puff
pma
pcc
pawn
ssi
siga
tes
tong
tiles
von
wu
wach
wail
yak
##feed
##rc
##rick
##iencies
##iago
##nant
##gon
##gis
##gant
##gling
##wau
##yllis
##tv
##tably
##de
##lists
##xil
##via
##pine
##kas
##killed
thail
##atibility
##esville
##org
##orie
##isse
##ionally
##asant
##asions
##icrous
##omy
beers
##utations
##start
##eta
##etto
prc
priest
forep
sty
stu
steen
stanton
stunned
conyers
##immer
notch
hefty
comity
##estone
##ifiably
seabor
goof
goss
##olk
sues
##antiated
abrupt
abbre
exited
##amen
##amations
juxt
tripp
traco
disheart
frail
orbit
casc
casks
##osan
canals
canned
cancers
chu
chab
choking
chipp
alpine
tweet
##odic
evicted
##usions
clues
clicks
clicked
adu
adject
enz
maid
resubm
leo
spart
spider
wors
compile
computed
underreport
lib
sailing
##umbs
unwise
unpl
unwr
plo
plight
plun
##quential
faction
tahoe
##ibe
##tec
uptown
perf
peaks
pearson
impute
impairs
herein
brunt
brighter
##oplex
vera
amass
amex
offline
defying
decomm
decrimin
##thon
##theon
inclus
inconse
incidences
inducted
overstate
overcomes
overstatement
preface
grape
grinding
manor
##lick
repurch
##ittens
distrust
provoking
provinces
exported
mohawk
dracon
posen
specifying
##issibly
relit
relent
obv
clement
footh
herbs
booming
depicting
depressive
understaff
##ucked
remission
##ancip
coroll
##strom
schw
assail
empowers
joins
downgr
parado
scans
idiot
busing
insulting
phosp
phyllis
sycam
seth
monroe
sentiments
longshore
tellers
afflict
conflate
congressionally
limbs
placements
##bey
smiles
smashed
elmo
raff
typed
##fficiencies
circulating
##cra
formulations
explode
disposes
redd
redaction
permissions
flagr
reflex
challenger
productions
nonf
eminently
emancip
blanks
appropriators
noticeable
technologically
furt
singer
specializes
barking
materialize
elective
postings
##incorpor
discovers
suck
physiology
fireplace
distortion
improv
easley
internship
milwau
multicultural
midpoint
erratic
consumes
volley
swain
treble
accorded
remediate
img
dana
convicting
contributors
##workers
copay
robot
robbers
shook
characterizations
dipping
##inole
##insky
panhand
storytell
fieldhouse
walkable
unref
netting
titan
##upulous
westport
greenland
southwick
steven
glitch
banana
##nelly
oneself
ambition
telethon
inflate
##ethought
janet
mcgill
confuses
curbs
##lette
inefficiency
##burger
supplementing
ceases
troy
rationality
recalling
stationary
mortgagee
churchill
timed
timers
practicality
rebound
##readth
complexes
academies
apron
##adesh
throwaway
silo
silently
silva
##heets
articulable
digits
digestion
initiates
railings
biopsy
dilute
transmutation
christine
archive
bidders
ethiop
bulky
hillman
stressing
snea
guaranteeing
hunters
##iologists
partnered
unsubst
unskilled
rapes
soften
licensure
surveyor
jacksonville
stemmed
spirited
spirits
owen
starter
starving
laurel
nucle
##local
kenya
recruiter
correlate
usefulness
coordinates
memberships
cartoon
transformers
faulted
colder
succeeds
switches
uneven
europeans
montpel
pumped
pornographic
webcasters
beatings
burnt
venet
seminole
categorize
spanning
durham
administers
broadcasts
refunded
discoverable
flyers
overlapped
kickoff
nutrient
paints
fulfills
expeditious
inspirational
##poon
angels
externally
abusers
fluency
interfaces
desktop
embraces
raytheon
optimization
perpetrate
murky
tufts
commendable
dupage
courageously
graphics
scanning
simplified
rodents
unjustly
tolerant
santos
santiago
reassure
outsiders
empowerment
pitched
ringing
overbreadth
ramps
aggregation
appraisals
injections
torch
strikingly
interacts
darfur
nanosc
inexper
ipcc
ortega
cherished
hispanics
dispatched
fruitful
clearinghouse
enriched
forecasting
hubs
sediment
taller
impermissibly
impressions
cruiser
susceptibility
foregone
washes
brutally
regrettably
folding
fictional
downloads
berger
melted
slog
rescinding
nicer
rosco
postponing
stacks
##easible
wiretapping
rabbi
astronaut
extremes
exemplifies
cups
schematic
romania
addicts
embodiments
patchwork
diminishes
condominiums
pharmaceuticals
safeguarding
bombers
mailboxes
microbial
linch
fitzpatrick
authenticated
obscure
paso
fdcpa
fetched
perea
adapting
aerosp
toyota
palestinians
fragmented
fernando
fertilization
mendoza
##mphas
##ontinental
oversimpl
disavowed
endorsements
otto
blurred
alphab
unregistered
screenshots
horizons
lizard
expunge
mischaracterized
newsletters
acquainted
dubious
welding
recounted
adjourned
inheritance
observance
cuffs
misspoke
blakely
nazis
proctors
lacros
inhibit
staples
undeniably
browder
coworker
ludicrous
tiger
evanston
misreading
disapproved
micromanaging
dassey
sailors
overcrowded
underwear
seatbelts
unknowing
browser
grammar
divisibility
dissuade
ntia
nudity
pupil
unleash
recyclables
oregano
tumor
insurgency
stockpile
brendan
waistband
astonishing
hodge
interoperability
confiscated
unscrupulous
ceremonies
kodak
nicole
belgium
respiratory
embezzlement
metroplex
morocco
boulder
dawson
fugitive
microwave
fleming
disbursement
miscommunication
portrait
delusional
unforeseen
reestablish
outcry
populace
handshake
malaysia
minnesotans
mormon
arithmetic
unpleasant
brennan
cornyn
geothermal
renaissance
forbearance
inexcusable
benedict
ferguson
jpmorgan
pneum
thailand
seaborg
abbrev
juxtap
decriminal
inconsequential
draconian
corollary
paradox
sycamore
milwaukee
unsubstantiated
montpelier
lacrosse
ave
aide
aub
blush
cyp
cbs
cache
cesar
caffe
derm
dina
ducks
dsm
dawn
fib
fanc
farr
faults
fathom
gw
ged
gaz
gaza
hens
hull
hots
kink
kits
kale
kerry
ls
lest
lant
lub
lina
lousy
mou
mul
momm
macy
nn
ner
nie
nour
nca
oah
oste
pf
pimp
poker
paternity
ras
ration
roses
raging
rude
rows
riot
ses
tint
tipp
tsa
vom
wicked
xbox
##fare
##eor
##ria
##wind
##uch
##made
##mountable
##oct
##hole
##don
##len
##lination
##lift
##cul
##vm
##bas
##bird
##zon
##zen
##pace
thunder
##inable
##inav
inse
insecurity
##rec
bever
beep
##leaf
##utilized
itc
##idad
##stown
##stock
printer
##oward
isot
##aya
stomp
stocking
##urry
conund
heir
heater
heather
soaring
##eston
aspire
seap
##olics
suite
abate
abode
##ilib
##ilated
exerted
shady
sheds
shaked
##ads
nec
##htaking
##andard
disk
disable
disarm
diseng
disrep
dislike
##ills
somerville
fram
##arton
oracle
##aby
casing
becky
canons
chapp
chats
chunks
clocks
hadley
##ouss
adkins
quib
queries
mafia
resh
resumed
outl
spear
underestim
unal
unrem
unload
unidentified
unincorpor
plowed
##quette
getty
commuting
poignant
##performing
peep
impover
brushing
verse
verte
vernon
##eco
decency
##ths
inclination
crisp
cranes
thanked
tel
usps
interval
overdr
cobal
basins
repression
backside
distraught
invites
##ption
##uster
talley
probing
regiment
regimen
draf
differentiates
posner
specs
relapse
newf
mats
matured
herd
strap
strapped
boll
guzman
ceram
acclim
schult
schne
showings
joanne
mug
simulator
##otherap
dayton
marl
markey
effluent
publicize
bugs
particulate
syl
billings
monsters
helium
mediate
##ocial
teller
signer
carbo
##stitute
directv
autonom
conferees
seeming
##ugs
protester
smel
smiling
costume
realty
extinction
respectable
raft
instilled
##criber
amends
crediting
edit
edible
edpa
filmm
flames
waved
opining
substandard
insurmountable
creed
communism
nontr
behaved
##ewa
meteor
lessened
profiling
watering
misf
misch
oppressive
centrally
playboy
##ciated
beginnings
salazar
walters
##aki
##ormick
##lectric
criminality
criminalize
electing
diffuse
physic
arbitral
oblivious
firewall
superfund
developmentally
belmontmed
origination
multil
acronym
topography
prejudices
executions
creatures
wonderfully
quickest
bookkeeping
bookkeeper
yorkers
##ocker
functioned
winbrook
lowell
nightcl
shove
evaluates
##coa
doctoral
preparer
suspending
suspensions
##riends
parkland
transports
unionized
higgins
##ufacturing
ballgame
menacing
clarifications
cardinal
##heads
glorious
sorensen
ignition
radiologist
glock
murderer
sanity
ranged
ambush
appoints
selfless
squares
##charging
mcgr
mcgee
pathogens
battered
varieties
welcomes
markman
garments
deliberated
savann
liberation
hallmarks
rationalization
straits
scripts
instituting
recalls
cambod
##balls
rebels
sensory
maloney
malaga
auxil
virtues
influenza
dedicating
aggravator
closings
chemist
alias
rollover
racetr
memorable
rivermaster
trainees
quantified
visioning
##holster
litigations
peacefully
embark
contradicting
##arthur
forgets
carrots
smartphones
sandbag
watford
unpro
modernizing
proxies
fostered
neutron
treasures
coalitions
recruits
##ombie
foreseen
biologically
sadness
omit
appreciable
dreaming
nurture
saturation
coolest
rehabilitative
predicament
promoter
breathtaking
##omanufacturing
durable
lobsters
manifestations
dishw
flynn
impeaching
lockhart
rigorously
scorecard
renovating
fabricating
superiority
prescribes
conveyor
conforms
fluids
grease
wellspring
dominance
caesar
eccentric
mccormick
bowles
##enched
inaccurately
##monary
detract
philosophically
dupont
graphical
hairs
macarthur
deportable
lifetimes
grayling
lobbyists
halverson
divergent
outsider
viac
##frames
overburd
endangering
plugging
toxicology
appraisers
cornell
synergy
deleting
nanomanufacturing
revolve
pronouncing
drills
drillers
warehouses
episodic
disqualification
custodians
lifestyles
kraft
boosting
boosters
compounding
cheaply
riparian
dentistry
proclamations
crawling
ascertainability
clayton
whistleblowing
absenteeism
untouch
untoward
##oxide
adamant
hipaa
tireless
intermediaries
oliv
anonymously
emerges
sinks
sinking
extremist
swallowing
sensitivities
migraines
issuer
passports
championed
boomers
giants
deteriorate
toddlers
diesel
privatize
victoria
turbine
troopers
hughes
mildly
thickness
cosmo
bouncing
gigantic
threads
clustered
resiliency
uncooperative
grooming
pronouncements
militia
triump
mainstreaming
germs
inhabit
tunnels
proclaimed
scotland
rfc
reaffirmed
entailed
pioneers
bolstered
dickinson
nonviolence
pulmonary
unconditionally
ott
cockpit
trimming
skiing
embassies
refreshments
lorenz
cultivate
airborne
tattoo
annoy
crooked
blatantly
scrutinized
reassessment
dyke
iteration
acquaintances
adhered
imperfections
betrayed
prestige
mimic
resonates
olympic
honda
tariffs
abolition
energies
plumbers
philanthropy
##uku
intolerable
prototype
microscope
discontinued
tornadoes
crabs
eradicate
anomalous
mishand
remodeling
atmospheric
router
underwent
caseworker
humiliating
seatbelt
ozone
morphine
havoc
crossover
##arranged
nonconforming
mcnally
scandinav
denominator
predisposition
gantt
lancaster
peripheral
bronze
orchestrated
lapses
conglomer
deletion
dislocated
reschedule
swedish
unprofessional
ornamental
presupposes
opaque
overthrow
humvees
piggyback
monsanto
inundated
rephrase
blotter
dizziness
wynn
perplexed
sabotage
hydrocarbons
ascribe
appetite
overflowing
paramilitary
ubiquitous
unoffic
symphony
tubercul
pseud
foreperson
chippewa
furtive
venetia
linchpin
aerospace
auburn
mommy
beverages
conundrum
shakedown
unincorporated
cobalt
schultz
belmontmedia
savannah
tuberculosis
aur
awn
aka
bis
bord
bending
busted
dand
dab
dah
ew
eq
egress
eats
fue
font
ferry
gy
gt
ging
gently
hs
hb
hess
hok
hiat
hhs
iib
ihs
jpa
jets
kins
lent
lively
laz
lumb
mate
mous
mute
mik
mowing
nish
panc
ponder
rio
rang
si
saint
saus
tiff
tps
vint
vang
wi
xero
yaho
zach
zoo
##fly
##frey
##eons
##row
##rance
##rimination
##iom
##iki
##nastics
##sim
##aper
##uper
##met
##mings
##mire
##oh
##oval
##tub
##hower
##heds
##jack
##cat
##cord
##vus
##bush
##pec
##press
##pick
##pole
##kir
##koff
##atter
##atoga
##erian
##inidad
##ono
##onian
##onna
##enner
##enium
##orable
inesc
##aria
##ication
##icating
releg
reissued
beware
##uto
wears
##llog
##ete
##etics
onus
forethought
stain
stacy
stumble
conley
##imeters
nother
anat
##iro
doable
doomed
prost
progen
hemp
solo
##ifting
gos
suv
suisse
##ilot
##tero
##amaran
shippers
##opular
tran
tramp
traces
trinidad
disks
disgust
fris
froze
##troll
mell
casings
thinkers
chol
chore
chlor
chilled
als
alo
##acre
##access
##ivar
clich
bystand
donuts
##una
##unts
resorts
resett
leone
leah
spino
spades
worms
compatibility
comptroll
underrepresent
underlie
sagin
unnot
unison
unused
recanted
recuper
tavern
##istine
poke
##tech
##perform
pew
pep
peac
peek
myst
##ipted
bride
britt
braking
willie
verbi
amid
intuit
##gra
deform
defiance
incrimination
pointless
cran
crave
righteous
consents
interdict
induction
indeterm
oversh
overweight
cove
coates
cocon
coex
##onda
baskin
grady
grieving
repar
repud
replication
belabor
provinc
##encape
sublux
moots
mocking
##pta
respite
regents
tester
preside
drift
##reath
##ails
relativity
concord
believers
thirst
depictions
##omechan
corvus
numeric
assures
gotta
rov
simulate
opec
opencape
parlor
mario
marina
marley
marcell
attic
scler
idle
idios
##yside
desks
descent
miner
helper
##ocity
americas
readable
startling
motto
admiration
cargill
affixed
violator
conflating
placeholder
##ugal
smokes
elk
elbow
hover
hoop
##urrent
raz
formats
retreated
explodes
redact
redone
restor
restores
propounded
passively
##arring
flamm
equating
equilib
waff
wazel
##allenged
calorie
refurb
communists
bankston
marketers
listens
emt
blades
metaph
artfully
surcharges
profited
inflex
infeasible
treatise
fairfield
fairfax
modalities
furious
furthers
breeds
damn
essay
salon
salas
salim
availed
potent
generously
##iculture
denom
barge
decidedly
enforces
citco
##enthal
sloping
prominently
interns
originating
originals
unfolds
pennington
cutright
midstream
envy
illum
ohana
hummel
secretarial
customized
felix
##neys
deval
deviated
devotion
trek
treacher
intra
intrig
intrigu
civilized
extrad
skies
skirt
socialist
blooming
blogs
##phem
##arkable
terra
terrace
controverted
##cox
##insurg
panop
nonex
antis
dangerously
uncol
massively
gentry
ballistics
breakers
obtains
obsessed
##bole
glance
glare
blackman
adjunct
tablets
urine
historian
inflame
attacker
heartbreaking
squared
##okee
stover
stoop
validly
hugely
layered
marches
mexicans
baton
assigns
floral
inefficiencies
permanence
maxed
psychologically
fearing
animation
plantation
disciplining
richter
hostilities
strait
counterinsurg
electrician
registries
guarded
infrastruct
influential
jackie
lifeline
dilution
norwood
husse
exhaustively
reintegr
regionally
polluted
polluting
##yncr
cato
catamaran
ridden
pocketbook
radioactivity
pooling
persecutor
saratoga
sandoval
persuading
deeming
unpopular
samar
sheltered
delegating
cheat
starve
hurtful
finishes
oddity
spokio
constituencies
spectator
##fields
fabrics
disrupting
celebrations
cartoons
sacrosan
transforms
corey
dictator
##worked
palms
dresses
invalidates
tailings
passageway
magnets
horribly
hawks
semant
carpent
boiling
vulgar
unwind
interrogate
strangely
traumat
watersheds
nutritious
eaton
rainwater
dinners
culpr
huddle
prompts
champlain
greer
greco
nova
repris
suffolk
louderm
steals
pregnancies
hindrance
dukes
bowen
##gener
narco
##sburg
mouths
murals
bailiff
hooker
disclaimed
unjustified
acreage
dwarf
##ulsion
gratuities
levied
outsourced
trumped
pitches
videotaping
melody
incumbents
overbreath
catholics
upholds
pronun
bravely
cereal
disconnection
forbids
sterile
sync
synops
puzzles
markedly
gait
latinos
dreyer
dignified
confessing
ashley
coincides
slashed
impartially
sediments
differentials
undertakings
dentists
malls
ascertained
leaned
bulldo
hyperlink
hyperbole
pigeons
reimbursing
dissect
gardening
untold
applauded
beltway
bangl
gymnastics
rabb
astros
astronomy
cyclical
acutely
redistribution
navigable
stalled
counterparty
flipp
breasts
breastfeed
mdl
undercutting
canceling
tribunals
marginalized
kirby
sewing
screams
extinguish
##izzell
covenants
buffet
hugging
reservists
pineapp
arcane
baggies
nicholson
adolescence
rancher
indisputably
dorothy
cpc
nullification
apprendi
lyrics
biofuel
decorations
startups
##etrically
pandora
weakening
reallocated
selenium
granite
condemning
shouting
interdep
deregulated
enlarged
multimillion
multimodal
aptitude
forcible
decisively
volatility
sandwiches
refreshment
barbier
sanctity
densely
composting
crook
contraception
poems
pothole
##aditional
emanuel
observatory
sidest
pediatrician
spokesperson
elders
nuns
overreaching
prototypes
staple
preaching
homosexuality
yankee
livermore
disenfranchise
hustle
disguised
browsing
fiancee
velocity
tweaking
submarine
veterinarian
misbehav
nyseg
subcateg
herbicide
realtor
buddies
redistributed
fertile
##urgeon
companionship
timeshares
appraised
approximation
dillon
paused
unchallenged
sidewalls
kenneth
nurturing
##hydr
biosimilar
snatching
ngos
zeros
abrogated
betrayal
connotation
fresno
quarantine
telemarket
invitations
hannah
ecstasy
synonymous
##iagnosed
gallagher
derogatory
cavalier
apprenticeship
proverbial
semiconductor
wonders
orphan
neuropsychological
tesla
tongue
wailuku
decommission
volleyball
storytelling
unrefuted
ncaa
oahu
chappell
unremarkable
schneider
##otherapy
autonomous
nontraditional
auxiliary
viacom
lorenzo
aurora
fueled
hiatus
lumbar
yahoo
##tube
inescap
progeny
bystanders
spinoff
saginaw
unnoticed
verbiage
idiosyncr
equilibrium
intriguing
counterinsurgency
sacrosanct
traumatized
az
aides
ahern
austr
bac
bree
biod
cine
curing
cpr
capp
cgl
dess
dred
dps
ea
ether
estr
eaves
ft
fent
gat
gail
gors
gina
gips
gannon
gaze
gonna
hmm
hick
hides
hott
hateful
icing
icc
jp
jol
jorg
kur
kau
kittens
lus
lank
mint
mong
miel
np
nid
nause
nile
norr
nsp
og
ostr
ping
pam
pins
pths
qpc
ry
rut
rall
rage
rag
ritch
sg
sie
sanding
sift
tl
tate
tipped
tcpa
tyson
vand
wess
wary
wiser
xx
yon
##fter
##foot
##ein
##rol
##nia
##gap
##sing
##weed
##yards
##mt
##matically
##oherent
##hab
##ji
##dwell
##long
##cases
##borne
##pf
##posed
tha
thefts
##atics
##aturity
##enity
##enna
##enberg
##educ
tof
toe
inaccess
##anned
##icia
rearr
reilly
beet
##ctr
##leys
youtube
hap
##ido
##idant
##idated
##stad
##etime
##etically
##etooth
pristine
##lds
stent
stiff
styl
stokes
##urice
congo
##imens
##imsy
##igans
prose
hein
sob
demp
comr
##hertz
asy
asps
sears
gop
##olley
##antom
exig
##amous
shi
shen
shag
shia
##kell
nep
juan
juggling
##uling
triable
disasso
somer
frizzell
##trod
##tryside
courtyard
##ository
canister
chs
choked
alm
alma
twy
##odies
##ivated
evange
clare
clergy
clump
clapper
noises
quilt
appal
appended
maples
maze
maurice
outage
outliers
leather
spaw
##uees
undet
worris
underutilized
liu
unite
unten
unbal
unallow
plague
plucked
##quest
recreat
recusal
tagg
##alls
timeouts
##pert
importer
brod
brody
brouss
##ema
veracity
amc
amina
amgen
##guard
##grove
shea
##ecified
decrees
decker
##thought
##thorne
incoherent
counters
countryside
crest
crib
cramp
crump
crushing
crumble
tep
teed
##bery
##berland
coa
workout
workbook
workmanship
workstation
baseman
lawson
wayf
differed
repository
belies
subclass
##ensation
invading
moj
moor
respa
testifiers
drake
differentiating
polos
polster
persian
clep
concoct
fogg
fosters
strokes
detach
detached
takeout
afterthought
##ucking
##ounce
##ksdale
assay
lett
joc
legged
robers
elegant
payday
condensed
opiate
purge
paroline
parano
marble
mariners
marquette
scaled
considerate
supportable
wren
phon
phantom
sykes
monkey
monoxide
medford
colt
colin
##oco
readjust
entang
longitud
admirable
carc
carne
childcare
violative
confers
confining
continents
carey
##uger
tenets
honorably
briefcase
ela
elong
elite
endangers
esa
hoover
reviewability
immers
townhouse
healthful
coursework
ocs
edited
necessitate
dispel
generalize
millionaire
millionaires
restated
aval
##arrow
flimsy
wakes
caldwell
objectivity
failings
crea
##ews
emts
blizz
meticulous
safeco
infested
misidentified
risked
fairer
modules
modulars
arrivals
contextual
litem
majors
holdout
singling
specials
potl
potty
erie
denise
waldo
organically
organism
choke
materialized
electors
initio
arbiter
obliter
firea
freeing
broadened
causality
stopgap
streetlights
slur
slab
belmontonian
internist
optic
optimum
originator
warhol
guidepost
shortness
encumber
grounding
envisions
illusion
humility
dismissals
##brids
primitive
swung
fallon
devise
visc
intrude
youngman
socialism
warring
bloated
affording
footsteps
lowden
robles
robotics
elemental
nightmar
teamsters
stuffed
safeway
transferability
messer
##azard
checkup
##ottesville
windstorm
momentarily
viral
revoking
higgs
precede
natur
weston
breakage
tradeoffs
burial
reflections
packs
glend
photov
waitress
harold
harbors
geop
flooring
bottlen
morton
picky
carryover
achievable
exempting
probationers
mcas
mcbr
boxing
subscriber
literary
destined
toolbox
garvin
despair
negligible
octane
undisputedly
hallow
hallways
pluses
voy
scrambling
##esterol
registrar
advisable
emailed
weighty
dedications
masterpiece
retrieved
railing
diluted
##walks
archdi
commanded
innovator
msp
mspb
overwhelm
reintrod
##ynth
constable
litigator
catcher
unsatis
unsatisf
slew
hybrids
rapist
dischargeable
escapes
predictor
snowy
rata
ventura
splash
piling
installments
samoa
therm
gladly
pronged
fridays
temperament
oddly
printout
tournaments
alienation
volunteerism
platts
##ovich
attributing
complainants
carte
habitats
undertakes
sovereigns
sprung
epith
heroic
tailgate
liquids
formulaic
supplant
amply
nava
horribles
nasda
tvs
subdivided
semantic
inconsistently
luncheon
praying
prayed
sequences
memorialize
scoreboard
kicker
harvested
##boarding
cabined
culvert
partiality
conformed
conformance
parolee
deterring
recollect
solicitations
novels
suffoc
sympos
ecology
discourages
refinanced
rosemont
scares
cumberland
hampered
reiterates
philosophies
duped
skelet
radicalized
disclaimers
reassuring
reassured
hydroe
multiplication
gulch
tenderness
reconciling
prolific
summarizing
spillover
wyatt
reacts
earns
complicating
shrimp
overrules
cherokee
exploiting
subpoenaed
mysteriously
gilmore
tammy
elaborated
absorption
docs
rewritten
crawl
gravamen
ascertainable
forehead
defrauding
bullhorn
hyperlocal
diametrically
ferret
racks
curbside
headquartered
brazen
boldly
unexpectedly
nailed
obstructive
scriptures
flavoring
chronologically
adamantly
strawberries
vestib
couched
unreliability
cycling
bundling
neurological
boomer
aspiring
interceptor
accruing
endorsing
pcb
grains
disseminating
refrigeration
refrigerants
carmac
victorian
screamed
envelopes
fitzwater
downsize
greenspan
authenticity
militants
neatly
ranches
stereotype
nigger
nigerian
marathons
cognizable
teddy
kilogram
evacuate
evacuated
evacuees
intercity
intercontinental
parishes
hydrant
quintan
grappled
lyons
clifford
decorated
decorative
cottonwood
boucher
##meister
exaggeration
selves
disbelief
admonished
wiggle
refinement
charleston
charlottesville
battling
jumpsuit
katz
publishers
hormones
staircase
gamut
plurality
cfpb
##worthiness
maneuvers
swiftly
fractured
hinged
incursion
warfighter
napkin
presumptive
complimentary
borman
resonate
bragging
imaginable
imbalances
horton
hypotheses
mergers
proctor
monopolist
tacit
discontinue
assassinated
reclassification
lifeguard
illuminate
lgbt
arsenic
bracelet
reexamine
stumps
disguise
caseworkers
unspecified
underpinnings
metabolism
cortez
bruner
mobilize
juliet
plaque
empathy
empathize
recyclable
canvassing
barricade
replenish
kuwa
mammogram
cobb
parrish
realtors
buddh
distorting
miscalculation
brainstorming
rejoice
pearl
crippling
trevor
trevino
kiosk
megahertz
gritty
resurrected
synthesize
ibm
pavilion
arrogant
intensified
succinctly
hijacked
laudable
nashville
swayed
whisper
backtrack
astronomical
pamphlet
cloak
acoustics
misperception
overruns
eisenhower
gerrymand
palsy
disjunctive
ironshore
watermark
rectangular
exonerating
pricewaterhouseco
bravo
bluetooth
lugar
nassar
prenatal
abutting
impulse
telescope
cayman
unplanned
inclusiveness
relitigate
assailant
phosphor
flagrant
slogans
caffeine
fanciful
disrepair
vertebr
carbohydr
smelter
mischief
nightclub
untouched
triumph
kinship
vintage
##corded
cholesterol
cliche
comptroller
provincial
##omechanical
sclerosis
razor
inflexible
panoply
infrastructures
hussein
reprisal
pronunciation
synopsis
bangladesh
pineapple
misbehavior
hottest
jorgensen
mielke
ritchie
dempsey
worrisome
untenable
broussard
concocted
roberson
paranoia
longitudinal
photovolta
archdiocese
unsatisfactory
nasdaq
hydroelectric
bam
bistr
bender
baking
cw
cm
cisco
df
dj
dion
ej
ech
eject
elud
ferv
herm
hike
iia
joub
java
km
kam
kok
kula
kogan
mund
nim
nts
naf
nsa
nta
nilly
olf
pom
pans
pouch
pipp
piston
paga
ruse
ratch
rhe
rousing
sb
sina
sins
sowers
tm
tard
tug
tina
tumble
ufta
uvm
vap
vaping
vista
wic
wiz
wico
yam
yang
ze
##forth
##flight
##ele
##iu
##iam
##ihan
##nard
##gc
##gien
##school
##wire
##waves
##warted
##mia
##ograms
##tles
##tax
##hard
##holl
##jas
##laim
##city
##cote
##cular
##comb
##vine
##voc
##bg
##bic
##zone
thumbs
thwarted
##atical
##erie
##inas
##enet
##orily
##eded
tobey
##iteness
##itering
##itaries
insec
inaug
##rez
##reast
##aste
##asper
##anyl
##aried
whal
wharf
reign
recept
##omyal
##vet
##ctica
##sea
haunt
hailed
##idi
##idy
##idro
prism
isom
isab
##ayette
foro
stacking
stoned
##urous
##urbed
cone
connotes
##iman
notifies
##irling
prostate
healy
sobr
sofa
dehuman
thereto
aspar
seb
goats
##cht
##ching
butcher
sui
abreast
##ilage
##amins
shaft
shaken
##kees
##keys
##adowing
##actors
neb
##outed
##ulously
tripping
fron
fray
casts
courtney
courthouses
courteous
allergy
churning
cheek
alas
tweak
##iva
##ivist
##endez
loll
loitering
knot
cling
clamp
clunk
bybee
enun
quitting
outing
spit
spying
spilled
undist
worm
actress
comports
unve
unass
unbr
unatt
unopp
unlocked
##ougall
plower
##okie
taked
tapped
##ibank
whoa
poking
poets
poisons
uplifting
timekeeper
perish
perennial
##pervised
pee
pean
peach
##ageable
##ureth
imperson
impounded
imputation
impulsive
brass
howe
##irez
vern
amounting
##grow
shee
shelton
offensively
defaults
crav
crumbling
crocker
##cession
teas
judith
needlessly
usher
interiors
intergener
induces
overpower
overpayments
prepayment
coats
bast
grub
grower
grapes
repatri
vega
belated
belts
##agus
provoke
exporters
##ensing
additive
invokes
movers
moyn
tale
draining
speculated
specimen
specimens
##venport
relieving
newport
thrill
##iculously
fob
foil
foam
stroman
strenuous
##ubb
deplor
contag
##stra
numeral
assaulting
showc
payson
condoned
ops
downfall
##xton
purging
marvin
attent
scams
##ysical
wrench
insin
syll
monstr
monarch
##onyms
##occ
##ocon
siting
kellog
taxis
giveaways
signaled
signatories
presenters
violin
limbo
##berspace
##ankind
smack
departs
endow
##remember
hoard
rah
instill
immeas
allegan
handmade
demora
valiant
dispro
dispelled
generalities
mustang
redr
reds
redeterm
restarted
conductors
conductivity
avid
filib
filth
injures
##arraf
flop
flushing
waver
refueling
nonpayment
##iang
emit
embody
emitted
emerald
identically
blender
securit
lessening
artful
currents
stepchild
waterhouse
infinity
infestation
misg
misery
misusing
misremember
treatable
excurs
fares
arrays
subjectivity
damp
singers
streak
ern
eroding
denny
walt
brooke
landau
criminalized
electorate
irwin
##osterous
enforcer
funk
worlds
impactful
stahl
arbitron
citibank
versat
settlers
distancing
distorts
distilled
distaste
slated
minding
documentaries
valueless
pena
californians
airfare
airwaves
itemized
humidity
humankind
conditionally
badges
volcan
conversing
swamp
swanson
headlong
preclear
sociology
intricate
##holding
youngblood
extrav
investigates
##ofsky
imb
trafficked
danish
spaceflight
mandy
mandar
socializing
associational
certifies
apelli
keybank
keywords
##ocratic
copyc
teammates
shoved
combative
##azi
faf
diary
diapers
windy
antique
antiox
affirmance
##licitous
suspenders
northcote
laboring
##orrh
precedes
predate
predated
massacre
balloons
tones
audet
calculates
clara
negotiator
arenas
intentioned
banners
perfecting
geo
##eroy
graded
##balancing
sanitized
historians
pickle
cellar
paperweight
telegraph
##uitously
hearth
hearted
achieves
filler
mcs
ideologies
florid
normalcy
emphatic
cultivation
disciples
rationalize
scramble
counterm
counteract
##umbles
torturing
straighten
timid
guarding
suspecting
malt
mald
tomb
tomato
virtuous
exhibition
preposterous
browning
brotherhood
phraseology
fischer
retracted
sustains
jumpstart
digress
biomed
stipend
arche
archivist
roller
##liner
davenport
microp
concepc
riverfront
bloodstream
reinter
pollute
slows
catt
implore
implants
sonia
embarked
clinically
rehears
unserved
unsigned
reconsidering
barren
riddled
hyster
hygien
attendants
disregards
dropouts
pocketbooks
##ophy
predictably
warmed
distinctiveness
disparagement
alcoholics
sanderson
installers
sweater
cheering
innocently
gaping
expansions
spectacle
coordinators
combatants
biologist
renaming
cartilage
charting
willy
heroism
palp
dialed
vitals
apologized
venice
perpetuating
cooks
hawthorne
sarasotafl
##biome
unnatural
rankings
roofing
categorized
facilitation
perceives
perceiving
manifests
marsha
psychiatry
rebuts
rebutting
castleman
lockers
lockup
overlaps
manipulative
gridlock
blinded
paralysis
wedge
cabins
ruiz
photosynth
prompting
ramirez
intimacy
reprint
suffices
overloaded
conservatively
thursdays
cao
stamping
ecf
gardener
curricular
clothed
leech
dukas
nominating
bowers
conjure
cummings
duplicated
graphs
loader
trickery
urgently
radicals
simplifying
angled
cyberspace
prudence
modestly
divergence
dwind
baskets
wholesome
rotations
impervious
bombings
vienna
hydro
smuggler
multiplicity
kidnap
##ggles
spinetto
microbiome
drywall
girlfriends
torso
prolix
darling
cooperatively
nanny
vegetarian
deanna
shrub
shrunk
sweeteners
dreamed
cds
gilman
gala
codified
docks
polyureth
pantries
reluctantly
apprehensive
morrissey
reproducing
icons
masks
wiping
poisonous
regrets
regrettable
##olyn
underscored
underscoring
duplicates
reimburses
discouragement
evolutionary
untested
scripture
truckee
vindict
grandparent
hungary
exemplars
exemplified
reinvig
praised
refrigerators
wrestled
unsuccessfully
osama
saddled
displacing
privatizing
leslie
tampered
bomber
butterfly
turbul
exacerbates
caretakers
diagnostics
chiropractors
buffers
wheelchairs
lujan
delineation
reservist
translations
greensboro
tubing
abrid
lawns
##responsive
militarily
derelict
paradise
indemnification
fluctuating
hemorrh
fragment
dorsey
mensing
nitty
resurf
tedious
shredded
apprise
csd
piper
reentering
reentered
degrading
reinforcement
pirates
##logic
relinquished
incentivized
amplify
merrill
sprinkle
reappointed
shackled
unfolding
passwords
excavator
predetermination
gerber
resemble
brackets
indoctr
relayed
admonition
blurry
extrapolating
wiggins
unseen
unsupervised
dismantled
dismantling
commemoration
ebay
atrocious
cultivated
hinted
spurred
holloway
cfo
allergic
expungement
dvt
regressive
adhering
adherence
opioids
bruises
indigency
colonies
immunize
emanating
kitty
carnahan
armenia
blueprints
recidivist
scandalous
encroachment
dissipate
adultery
glaciers
snippet
woody
dancer
garrison
arduous
arraigned
antiques
prerogatives
crunching
coyne
hopelessly
hopelessness
disapproval
micromanage
byproducts
uscis
esteemed
culminated
unaffected
storefronts
ancestors
ancestral
bergman
mckenna
mushroom
musharraf
slices
botched
politely
scrubber
cheerleading
overemphas
guerrilla
scandals
fertility
pearls
mulligan
barcode
timeshare
blindsided
rummage
rummaging
perseverance
jaws
kiosks
plymouth
chewing
overpaid
contravene
surpassed
stopple
spontaneous
infrequent
justiciable
desegreg
demarcation
lafayette
spatial
newcomers
calderon
roadblocks
proprietor
duffy
fcm
harkin
eviscerate
likeness
plagued
antarctica
cohabitation
precautionary
surreptitious
debriefing
vicki
chalk
unmanageable
endpoints
valdez
sweatsh
kurds
reread
negro
tapered
numbness
reinstating
wholesaler
fibromyal
hiccup
goofy
disheartening
cascade
underreporting
unwritten
relentless
understaffed
schwab
afflicted
titanic
nucleus
inexperienced
astronauts
pneumonia
gazette
hensley
nnsa
sesame
underestimated
impoverished
drafters
newfound
sylvia
sausage
vanga
aloha
underrepresented
intuitively
indeterminate
coconut
treacherous
intrigued
nonexistent
semantics
loudermill
flippant
breastfeeding
idiosyncratic
fentanyl
yonker
thaad
inaccessible
heinz
comrades
undetected
unallowable
recreating
taggart
mojave
geopolitical
mcbride
unsatisfied
vestibule
quintanar
kuwait
gerrymandering
pricewaterhousecoopers
phosphorus
joubak
ntsb
pippin
rheum
vapors
##holland
asparagus
undisturbed
unattended
unopposed
intergenerational
moynihan
deplorable
kellogg
preclearance
biomedical
concepcion
polyurethane
fibromyalgia
ai
airm
aster
aunts
bs
bant
bain
bise
bins
bax
benson
cues
cull
ccc
dnd
dus
ecu
eliciting
fad
fte
frees
gav
gals
gales
hose
hone
iod
igs
iolta
jr
jv
jel
kh
kub
khan
kwan
lum
lance
litt
mop
mick
misl
nf
nike
nah
nios
nik
nesting
nbc
nrc
oas
ousted
pes
pab
pint
pian
pbs
rund
rife
ruff
sack
ssa
tce
tiss
tasing
tilt
tbi
ticked
uc
vile
wield
xy
zba
##finder
##eo
##rin
##ras
##riel
##iab
##ieter
##nb
##names
##nik
##numbered
##gue
##som
##wether
##wright
##year
##youn
##minent
##tt
##ja
##jour
##lide
##cill
##cond
##cony
##cale
##vation
##bid
##bill
##bies
##bach
##bath
##bley
##beck
##zan
##zbo
##pins
##ʻi
threes
##atious
##eration
##enuating
##oucester
##eson
##esley
##ority
##orps
tote
toast
toaster
inert
##reve
##ioned
##anito
##anigans
##arn
##aragu
##entiful
##icially
rex
reocc
##omat
##lee
##oteric
##otry
##otted
wex
##llah
haun
haff
##sta
##staff
##eton
oncoming
onboard
stil
stare
stuc
stacey
stumbled
sturgeon
##urers
[...]
