{
  "version": "1.0",
  "truncation": null,
  "padding": null,
  "added_tokens": [
    {
      "id": 0,
      "content": "[PAD]",
      "single_word": false,
      "lstrip": false,
      "rstrip": false,
      "normalized": false,
      "special": true
    },
    {
      "id": 1,
      "content": "[UNK]",
      "single_word": false,
      "lstrip": false,
      "rstrip": false,
      "normalized": false,
      "special": true
    },
    {
      "id": 2,
      "content": "[CLS]",
      "single_word": false,
      "lstrip": false,
      "rstrip": false,
      "normalized": false,
      "special": true
    },
    {
      "id": 3,
      "content": "[SEP]",
      "single_word": false,
      "lstrip": false,
      "rstrip": false,
      "normalized": false,
      "special": true
    },
    {
      "id": 4,
      "content": "[MASK]",
      "single_word": false,
      "lstrip": false,
      "rstrip": false,
      "normalized": false,
      "special": true
    }
  ],
  "normalizer": {
    "type": "BertNormalizer",
    "clean_text": true,
    "handle_chinese_chars": true,
    "strip_accents": null,
    "lowercase": true
  },
  "pre_tokenizer": {
    "type": "BertPreTokenizer"
  },
  "post_processor": {
    "type": "TemplateProcessing",
    "single": [
      {
        "SpecialToken": {
          "id": "[CLS]",
          "type_id": 0
        }
      },
      {
        "Sequence": {
          "id": "A",
          "type_id": 0
        }
      },
      {
        "SpecialToken": {
          "id": "[SEP]",
          "type_id": 0
        }
      }
    ],
    "pair": [
      {
        "SpecialToken": {
          "id": "[CLS]",
          "type_id": 0
        }
      },
      {
        "Sequence": {
          "id": "A",
          "type_id": 0
        }
      },
      {
        "SpecialToken": {
          "id": "[SEP]",
          "type_id": 0
        }
      },
      {
        "Sequence": {
          "id": "B",
          "type_id": 1
        }
      },
      {
        "SpecialToken": {
          "id": "[SEP]",
          "type_id": 1
        }
      }
    ],
    "special_tokens": {
      "[CLS]": {
        "id": "[CLS]",
        "ids": [
          2
        ],
        "tokens": [
          "[CLS]"
        ]
      },
      "[SEP]": {
        "id": "[SEP]",
        "ids": [
          3
        ],
        "tokens": [
          "[SEP]"
        ]
      }
    }
  },
  "decoder": {
    "type": "WordPiece",
    "prefix": "##",
    "cleanup": true
  },
  "model": {
    "type": "WordPiece",
    "unk_token": "[UNK]",
    "continuing_subword_prefix": "##",
    "max_input_chars_per_word": 100,
    "vocab": {
      "[PAD]": 0,
      "[UNK]": 1,
      "[CLS]": 2,
      "[SEP]": 3,
      "[MASK]": 4,
      "!": 5,
      "\"": 6,
      "#": 7,
      "$": 8,
      "%": 9,
      "&": 10,
      "'": 11,
      "(": 12,
      ")": 13,
      "*": 14,
      "+": 15,
      ",": 16,
      "-": 17,
      ".": 18,
      "/": 19,
      "0": 20,
      "1": 21,
      "2": 22,
      "3": 23,
      "4": 24,
      "5": 25,
      "6": 26,
      "7": 27,
      "8": 28,
      "9": 29,
      ":": 30,
      ";": 31,
      "<": 32,
      "=": 33,
      ">": 34,
      "?": 35,
      "@": 36,
      "[": 37,
      "\\": 38,
      "]": 39,
      "^": 40,
      "_": 41,
      "`": 42,
      "a": 43,
      "b": 44,
      "c": 45,
      "d": 46,
      "e": 47,
      "f": 48,
      "g": 49,
      "h": 50,
      "i": 51,
      "j": 52,
      "k": 53,
      "l": 54,
      "m": 55,
      "n": 56,
      "o": 57,
      "p": 58,
      "q": 59,
      "r": 60,
      "s": 61,
      "t": 62,
      "u": 63,
      "v": 64,
      "w": 65,
      "x": 66,
      "y": 67,
      "z": 68,
      "{": 69,
      "|": 70,
      "}": 71,
      "~": 72,
      "¡": 73,
      "¢": 74,
      "£": 75,
      "¤": 76,
      "¥": 77,
      "¦": 78,
      "§": 79,
      "¨": 80,
      "©": 81,
      "ª": 82,
      "«": 83,
      "¬": 84,
      "®": 85,
      "¯": 86,
      "°": 87,
      "±": 88,
      "²": 89,
      "³": 90,
      "´": 91,
      "µ": 92,
      "¶": 93,
      "·": 94,
      "¸": 95,
      "¹": 96,
      "º": 97,
      "»": 98,
      "¼": 99,
      "½": 100,
      "¾": 101,
      "¿": 102,
      "×": 103,
      "ß": 104,
      "æ": 105,
      "ð": 106,
      "÷": 107,
      "ø": 108,
      "þ": 109,
      "đ": 110,
      "ħ": 111,
      "ı": 112,
      "ł": 113,
      "ŉ": 114,
      "ŋ": 115,
      "œ": 116,
      "ŧ": 117,
      "ſ": 118,
      "ƌ": 119,
      "ƒ": 120,
      "ƶ": 121,
      "ǁ": 122,
      "ǂ": 123,
      "ǃ": 124,
      "ǝ": 125,
      "ȝ": 126,
      "ȷ": 127,
      "ɂ": 128,
      "ɐ": 129,
      "ɑ": 130,
      "ɒ": 131,
      "ɓ": 132,
      "ɔ": 133,
      "ɕ": 134,
      "ɖ": 135,
      "ɗ": 136,
      "ɘ": 137,
      "ə": 138,
      "ɛ": 139,
      "ɜ": 140,
      "ɝ": 141,
      "ɠ": 142,
      "ɡ": 143,
      "ɢ": 144,
      "ɣ": 145,
      "ɥ": 146,
      "ɦ": 147,
      "ɨ": 148,
      "ɪ": 149,
      "ɫ": 150,
      "ɬ": 151,
      "ɮ": 152,
      "ɯ": 153,
      "ɲ": 154,
      "ɳ": 155,
      "ɴ": 156,
      "ɵ": 157,
      "ɶ": 158,
      "ɹ": 159,
      "ɽ": 160,
      "ɾ": 161,
      "ʀ": 162,
      "ʁ": 163,
      "ʂ": 164,
      "ʃ": 165,
      "ʄ": 166,
      "ʈ": 167,
      "ʉ": 168,
      "ʊ": 169,
      "ʋ": 170,
      "ʌ": 171,
      "ʎ": 172,
      "ʏ": 173,
      "ʐ": 174,
      "ʒ": 175,
      "ʔ": 176,
      "ʕ": 177,
      "ʙ": 178,
      "ʛ": 179,
      "ʜ": 180,
      "ʟ": 181,
      "ʤ": 182,
      "ʦ": 183,
      "ʰ": 184,
      "ʱ": 185,
      "ʲ": 186,
      "ʳ": 187,
      "ʷ": 188,
      "ʹ": 189,
      "ʻ": 190,
      "ʼ": 191,
      "ʽ": 192,
      "ʾ": 193,
      "ʿ": 194,
      "ˀ": 195,
      "ˁ": 196,
      "ˆ": 197,
      "ˇ": 198,
      "ˈ": 199,
      "ˊ": 200,
      "ˋ": 201,
      "ˌ": 202,
      "ː": 203,
      "˙": 204,
      "˚": 205,
      "˛": 206,
      "˜": 207,
      "ˡ": 208,
      "ˤ": 209,
      "˥": 210,
      "˧": 211,
      "˨": 212,
      "˩": 213,
      "˹": 214,
      "˺": 215,
      "΄": 216,
      "α": 217,
      "β": 218,
      "γ": 219,
      "δ": 220,
      "ε": 221,
      "ζ": 222,
      "η": 223,
      "θ": 224,
      "ι": 225,
      "κ": 226,
      "λ": 227,
      "μ": 228,
      "ν": 229,
      "ξ": 230,
      "ο": 231,
      "π": 232,
      "ρ": 233,
      "ς": 234,
      "σ": 235,
      "τ": 236,
      "υ": 237,
      "φ": 238,
      "χ": 239,
      "ψ": 240,
      "ω": 241,
      "ϑ": 242,
      "ϕ": 243,
      "ϙ": 244,
      "ϛ": 245,
      "ϝ": 246,
      "ϲ": 247,
      "ϵ": 248,
      "ϸ": 249,
      "ϻ": 250,
      "а": 251,
      "б": 252,
      "в": 253,
      "г": 254,
      "д": 255,
      "е": 256,
      "ж": 257,
      "з": 258,
      "и": 259,
      "к": 260,
      "л": 261,
      "м": 262,
      "н": 263,
      "о": 264,
      "п": 265,
      "р": 266,
      "с": 267,
      "т": 268,
      "у": 269,
      "ф": 270,
      "х": 271,
      "ц": 272,
      "ч": 273,
      "ш": 274,
      "щ": 275,
      "ъ": 276,
      "ы": 277,
      "ь": 278,
      "э": 279,
      "ю": 280,
      "я": 281,
      "ђ": 282,
      "є": 283,
      "ѕ": 284,
      "і": 285,
      "ј": 286,
      "љ": 287,
      "њ": 288,
      "ћ": 289,
      "џ": 290,
      "ѡ": 291,
      "ѣ": 292,
      "ѧ": 293,
      "ѫ": 294,
      "ѯ": 295,
      "ѱ": 296,
      "ѳ": 297,
      "ҁ": 298,
      "ҍ": 299,
      "ҏ": 300,
      "ґ": 301,
      "ғ": 302,
      "қ": 303,
      "ҡ": 304,
      "ҧ": 305,
      "ҫ": 306,
      "ү": 307,
      "ұ": 308,
      "ҹ": 309,
      "ӆ": 310,
      "ӈ": 311,
      "ӏ": 312,
      "ә": 313,
      "ө": 314,
      "ԁ": 315,
      "ԙ": 316,
      "ա": 317,
      "բ": 318,
      "գ": 319,
      "դ": 320,
      "ե": 321,
      "զ": 322,
      "է": 323,
      "թ": 324,
      "ժ": 325,
      "ի": 326,
      "լ": 327,
      "խ": 328,
      "կ": 329,
      "հ": 330,
      "ձ": 331,
      "ղ": 332,
      "մ": 333,
      "յ": 334,
      "ն": 335,
      "շ": 336,
      "ո": 337,
      "չ": 338,
      "պ": 339,
      "ջ": 340,
      "ռ": 341,
      "ս": 342,
      "վ": 343,
      "տ": 344,
      "ր": 345,
      "ց": 346,
      "ւ": 347,
      "փ": 348,
      "ք": 349,
      "օ": 350,
      "ֆ": 351,
      "־": 352,
      "א": 353,
      "ב": 354,
      "ג": 355,
      "ד": 356,
      "ה": 357,
      "ו": 358,
      "ז": 359,
      "ח": 360,
      "ט": 361,
      "י": 362,
      "ך": 363,
      "כ": 364,
      "ל": 365,
      "ם": 366,
      "מ": 367,
      "ן": 368,
      "נ": 369,
      "ס": 370,
      "ע": 371,
      "ף": 372,
      "פ": 373,
      "ץ": 374,
      "צ": 375,
      "ק": 376,
      "ר": 377,
      "ש": 378,
      "ת": 379,
      "װ": 380,
      "״": 381,
      "،": 382,
      "ء": 383,
      "ا": 384,
      "ب": 385,
      "ة": 386,
      "ت": 387,
      "ث": 388,
      "ج": 389,
      "ح": 390,
      "خ": 391,
      "د": 392,
      "ذ": 393,
      "ر": 394,
      "ز": 395,
      "س": 396,
      "ش": 397,
      "ص": 398,
      "ض": 399,
      "ط": 400,
      "ظ": 401,
      "ع": 402,
      "غ": 403,
      "ـ": 404,
      "ف": 405,
      "ق": 406,
      "ك": 407,
      "ل": 408,
      "م": 409,
      "ن": 410,
      "ه": 411,
      "و": 412,
      "ى": 413,
      "ي": 414,
      "١": 415,
      "٢": 416,
      "٤": 417,
      "٥": 418,
      "٦": 419,
      "٧": 420,
      "٨": 421,
      "٩": 422,
      "ٱ": 423,
      "ٹ": 424,
      "ٽ": 425,
      "پ": 426,
      "ٿ": 427,
      "ڄ": 428,
      "څ": 429,
      "چ": 430,
      "ڈ": 431,
      "ڊ": 432,
      "ڌ": 433,
      "ڑ": 434,
      "ڕ": 435,
      "ژ": 436,
      "ښ": 437,
      "ڠ": 438,
      "ڤ": 439,
      "ک": 440,
      "ڬ": 441,
      "ڭ": 442,
      "گ": 443,
      "ڵ": 444,
      "ں": 445,
      "ڽ": 446,
      "ھ": 447,
      "ہ": 448,
      "ۆ": 449,
      "ی": 450,
      "ێ": 451,
      "ې": 452,
      "ے": 453,
      "ە": 454,
      "ۥ": 455,
      "۶": 456,
      "۷": 457,
      "܅": 458,
      "ܐ": 459,
      "ܒ": 460,
      "ܕ": 461,
      "ܘ": 462,
      "ܚ": 463,
      "ܟ": 464,
      "ܡ": 465,
      "ܣ": 466,
      "ܪ": 467,
      "ܫ": 468,
      "ܬ": 469,
      "ݢ": 470,
      "ހ": 471,
      "ށ": 472,
      "ނ": 473,
      "ރ": 474,
      "ބ": 475,
      "ކ": 476,
      "އ": 477,
      "ވ": 478,
      "މ": 479,
      "ފ": 480,
      "ދ": 481,
      "ތ": 482,
      "ލ": 483,
      "ގ": 484,
      "ސ": 485,
      "ޑ": 486,
      "ޒ": 487,
      "ޔ": 488,
      "ޖ": 489,
      "ޙ": 490,
      "ޛ": 491,
      "ޝ": 492,
      "ޞ": 493,
      "ޢ": 494,
      "ޣ": 495,
      "ޤ": 496,
      "ߊ": 497,
      "ߌ": 498,
      "ߏ": 499,
      "ߖ": 500,
      "ߛ": 501,
      "ߝ": 502,
      "ߞ": 503,
      "ߟ": 504,
      "ߡ": 505,
      "ߣ": 506,
      "ः": 507,
      "अ": 508,
      "आ": 509,
      "इ": 510,
      "उ": 511,
      "ऊ": 512,
      "ऋ": 513,
      "ए": 514,
      "ओ": 515,
      "क": 516,
      "ख": 517,
      "ग": 518,
      "घ": 519,
      "ङ": 520,
      "च": 521,
      "छ": 522,
      "ज": 523,
      "झ": 524,
      "ञ": 525,
      "ट": 526,
      "ठ": 527,
      "ड": 528,
      "ढ": 529,
      "ण": 530,
      "त": 531,
      "थ": 532,
      "द": 533,
      "ध": 534,
      "न": 535,
      "प": 536,
      "फ": 537,
      "ब": 538,
      "भ": 539,
      "म": 540,
      "य": 541,
      "र": 542,
      "ल": 543,
      "ळ": 544,
      "व": 545,
      "श": 546,
      "ष": 547,
      "स": 548,
      "ह": 549,
      "ऽ": 550,
      "ा": 551,
      "ि": 552,
      "ी": 553,
      "ॉ": 554,
      "ो": 555,
      "ौ": 556,
      "।": 557,
      "॥": 558,
      "०": 559,
      "१": 560,
      "२": 561,
      "३": 562,
      "४": 563,
      "५": 564,
      "६": 565,
      "७": 566,
      "ং": 567,
      "অ": 568,
      "আ": 569,
      "ই": 570,
      "উ": 571,
      "এ": 572,
      "ও": 573,
      "ক": 574,
      "খ": 575,
      "গ": 576,
      "ঘ": 577,
      "ঙ": 578,
      "চ": 579,
      "ছ": 580,
      "জ": 581,
      "ঞ": 582,
      "ট": 583,
      "ড": 584,
      "ঢ": 585,
      "ণ": 586,
      "ত": 587,
      "থ": 588,
      "দ": 589,
      "ধ": 590,
      "ন": 591,
      "প": 592,
      "ফ": 593,
      "ব": 594,
      "ভ": 595,
      "ম": 596,
      "য": 597,
      "র": 598,
      "ল": 599,
      "শ": 600,
      "ষ": 601,
      "স": 602,
      "হ": 603,
      "া": 604,
      "ি": 605,
      "ী": 606,
      "ে": 607,
      "ৈ": 608,
      "ৎ": 609,
      "ৗ": 610,
      "ৰ": 611,
      "ਅ": 612,
      "ਆ": 613,
      "ਈ": 614,
      "ਓ": 615,
      "ਔ": 616,
      "ਖ": 617,
      "ਗ": 618,
      "ਘ": 619,
      "ਚ": 620,
      "ਜ": 621,
      "ਠ": 622,
      "ਣ": 623,
      "ਤ": 624,
      "ਥ": 625,
      "ਦ": 626,
      "ਨ": 627,
      "ਪ": 628,
      "ਫ": 629,
      "ਬ": 630,
      "ਮ": 631,
      "ਰ": 632,
      "ਲ": 633,
      "ਵ": 634,
      "ਸ": 635,
      "ਹ": 636,
      "ਾ": 637,
      "ਿ": 638,
      "ੀ": 639,
      "ੜ": 640,
      "ક": 641,
      "ગ": 642,
      "ચ": 643,
      "છ": 644,
      "જ": 645,
      "ટ": 646,
      "ડ": 647,
      "ત": 648,
      "દ": 649,
      "ન": 650,
      "પ": 651,
      "બ": 652,
      "ય": 653,
      "ર": 654,
      "લ": 655,
      "સ": 656,
      "હ": 657,
      "ા": 658,
      "િ": 659,
      "ી": 660,
      "ો": 661,
      "ଂ": 662,
      "କ": 663,
      "ଙ": 664,
      "ଛ": 665,
      "ଜ": 666,
      "ଟ": 667,
      "ଡ": 668,
      "ଣ": 669,
      "ତ": 670,
      "ଦ": 671,
      "ଧ": 672,
      "ନ": 673,
      "ପ": 674,
      "ବ": 675,
      "ମ": 676,
      "ର": 677,
      "ଶ": 678,
      "ସ": 679,
      "ହ": 680,
      "ା": 681,
      "ୀ": 682,
      "େ": 683,
      "ୟ": 684,
      "ஃ": 685,
      "அ": 686,
      "இ": 687,
      "ஈ": 688,
      "உ": 689,
      "ஊ": 690,
      "எ": 691,
      "ஐ": 692,
      "ஒ": 693,
      "க": 694,
      "ங": 695,
      "ச": 696,
      "ஜ": 697,
      "ஞ": 698,
      "ட": 699,
      "ண": 700,
      "த": 701,
      "ந": 702,
      "ன": 703,
      "ப": 704,
      "ம": 705,
      "ய": 706,
      "ர": 707,
      "ற": 708,
      "ல": 709,
      "ள": 710,
      "ழ": 711,
      "வ": 712,
      "ஸ": 713,
      "ா": 714,
      "ி": 715,
      "ு": 716,
      "ூ": 717,
      "ெ": 718,
      "ே": 719,
      "ை": 720,
      "ం": 721,
      "ః": 722,
      "అ": 723,
      "ఆ": 724,
      "ఇ": 725,
      "ఈ": 726,
      "ఉ": 727,
      "ఊ": 728,
      "ఋ": 729,
      "ఎ": 730,
      "ఏ": 731,
      "ఐ": 732,
      "ఒ": 733,
      "ఓ": 734,
      "ఔ": 735,
      "క": 736,
      "ఖ": 737,
      "గ": 738,
      "ఘ": 739,
      "ఙ": 740,
      "చ": 741,
      "ఛ": 742,
      "జ": 743,
      "ఝ": 744,
      "ఞ": 745,
      "ట": 746,
      "ఠ": 747,
      "డ": 748,
      "ఢ": 749,
      "ణ": 750,
      "త": 751,
      "థ": 752,
      "ద": 753,
      "ధ": 754,
      "న": 755,
      "ప": 756,
      "ఫ": 757,
      "బ": 758,
      "భ": 759,
      "మ": 760,
      "య": 761,
      "ర": 762,
      "ఱ": 763,
      "ల": 764,
      "ళ": 765,
      "వ": 766,
      "శ": 767,
      "ష": 768,
      "స": 769,
      "హ": 770,
      "ు": 771,
      "ూ": 772,
      "ౠ": 773,
      "౦": 774,
      "౧": 775,
      "౨": 776,
      "౩": 777,
      "౪": 778,
      "౫": 779,
      "౬": 780,
      "౭": 781,
      "౮": 782,
      "౯": 783,
      "ಂ": 784,
      "ಕ": 785,
      "ಗ": 786,
      "ಜ": 787,
      "ಟ": 788,
      "ಡ": 789,
      "ಣ": 790,
      "ತ": 791,
      "ನ": 792,
      "ಪ": 793,
      "ಬ": 794,
      "ಭ": 795,
      "ಮ": 796,
      "ಯ": 797,
      "ರ": 798,
      "ಲ": 799,
      "ಳ": 800,
      "ವ": 801,
      "ಶ": 802,
      "ಸ": 803,
      "ಹ": 804,
      "ಾ": 805,
      "ು": 806,
      "ೂ": 807,
      "ೕ": 808,
      "ೖ": 809,
      "ം": 810,
      "അ": 811,
      "ഇ": 812,
      "ഉ": 813,
      "ക": 814,
      "ഗ": 815,
      "ങ": 816,
      "ച": 817,
      "ജ": 818,
      "ഞ": 819,
      "ട": 820,
      "ണ": 821,
      "ത": 822,
      "ദ": 823,
      "ന": 824,
      "പ": 825,
      "മ": 826,
      "യ": 827,
      "ര": 828,
      "റ": 829,
      "ല": 830,
      "ള": 831,
      "വ": 832,
      "ശ": 833,
      "ഷ": 834,
      "സ": 835,
      "ഹ": 836,
      "ാ": 837,
      "ി": 838,
      "ീ": 839,
      "െ": 840,
      "േ": 841,
      "ൻ": 842,
      "ർ": 843,
      "ൽ": 844,
      "ං": 845,
      "අ": 846,
      "ආ": 847,
      "ඇ": 848,
      "ඉ": 849,
      "එ": 850,
      "ඖ": 851,
      "ක": 852,
      "ග": 853,
      "ච": 854,
      "ජ": 855,
      "ඥ": 856,
      "ට": 857,
      "ඨ": 858,
      "ඩ": 859,
      "ණ": 860,
      "ත": 861,
      "ද": 862,
      "ධ": 863,
      "න": 864,
      "ප": 865,
      "බ": 866,
      "භ": 867,
      "ම": 868,
      "ය": 869,
      "ර": 870,
      "ල": 871,
      "ව": 872,
      "ශ": 873,
      "ෂ": 874,
      "ස": 875,
      "හ": 876,
      "ා": 877,
      "ැ": 878,
      "ෘ": 879,
      "ෙ": 880,
      "ก": 881,
      "ข": 882,
      "ค": 883,
      "ง": 884,
      "จ": 885,
      "ฉ": 886,
      "ช": 887,
      "ซ": 888,
      "ญ": 889,
      "ฎ": 890,
      "ฏ": 891,
      "ฐ": 892,
      "ฑ": 893,
      "ฒ": 894,
      "ณ": 895,
      "ด": 896,
      "ต": 897,
      "ถ": 898,
      "ท": 899,
      "ธ": 900,
      "น": 901,
      "บ": 902,
      "ป": 903,
      "ผ": 904,
      "ฝ": 905,
      "พ": 906,
      "ฟ": 907,
      "ภ": 908,
      "ม": 909,
      "ย": 910,
      "ร": 911,
      "ฤ": 912,
      "ล": 913,
      "ว": 914,
      "ศ": 915,
      "ษ": 916,
      "ส": 917,
      "ห": 918,
      "ฬ": 919,
      "อ": 920,
      "ฯ": 921,
      "ะ": 922,
      "า": 923,
      "ำ": 924,
      "เ": 925,
      "แ": 926,
      "โ": 927,
      "ใ": 928,
      "ไ": 929,
      "๏": 930,
      "ກ": 931,
      "ຄ": 932,
      "ຊ": 933,
      "ຍ": 934,
      "ດ": 935,
      "ທ": 936,
      "ນ": 937,
      "ບ": 938,
      "ຜ": 939,
      "ພ": 940,
      "ລ": 941,
      "ວ": 942,
      "ສ": 943,
      "ຫ": 944,
      "ອ": 945,
      "ຮ": 946,
      "ະ": 947,
      "າ": 948,
      "ຳ": 949,
      "ເ": 950,
      "ແ": 951,
      "ໃ": 952,
      "ໄ": 953,
      "་": 954,
      "།": 955,
      "ཀ": 956,
      "ག": 957,
      "ང": 958,
      "ཆ": 959,
      "ཏ": 960,
      "ཐ": 961,
      "ད": 962,
      "ན": 963,
      "པ": 964,
      "ཕ": 965,
      "བ": 966,
      "མ": 967,
      "ཙ": 968,
      "ཞ": 969,
      "ཡ": 970,
      "ར": 971,
      "ལ": 972,
      "ས": 973,
      "ཧ": 974,
      "က": 975,
      "ဃ": 976,
      "င": 977,
      "စ": 978,
      "ဆ": 979,
      "ဇ": 980,
      "ဈ": 981,
      "ဉ": 982,
      "ည": 983,
      "ဋ": 984,
      "ဌ": 985,
      "ဍ": 986,
      "ဎ": 987,
      "ဏ": 988,
      "တ": 989,
      "ထ": 990,
      "ဓ": 991,
      "န": 992,
      "ပ": 993,
      "ဗ": 994,
      "ဘ": 995,
      "မ": 996,
      "ရ": 997,
      "လ": 998,
      "ဝ": 999,
      "သ": 1000,
      "ဟ": 1001,
      "ဠ": 1002,
      "အ": 1003,
      "ဥ": 1004,
      "ါ": 1005,
      "ာ": 1006,
      "ေ": 1007,
      "း": 1008,
      "ျ": 1009,
      "ြ": 1010,
      "၀": 1011,
      "၁": 1012,
      "၂": 1013,
      "၃": 1014,
      "၄": 1015,
      "၅": 1016,
      "၆": 1017,
      "၇": 1018,
      "၈": 1019,
      "၉": 1020,
      "ၐ": 1021,
      "ၑ": 1022,
      "ა": 1023,
      "ბ": 1024,
      "გ": 1025,
      "დ": 1026,
      "ე": 1027,
      "ვ": 1028,
      "ზ": 1029,
      "თ": 1030,
      "ი": 1031,
      "კ": 1032,
      "ლ": 1033,
      "მ": 1034,
      "ნ": 1035,
      "ო": 1036,
      "რ": 1037,
      "ს": 1038,
      "ტ": 1039,
      "უ": 1040,
      "ქ": 1041,
      "ღ": 1042,
      "შ": 1043,
      "ც": 1044,
      "ძ": 1045,
      "წ": 1046,
      "ჭ": 1047,
      "ხ": 1048,
      "ჯ": 1049,
      "ᄀ": 1050,
      "ᄁ": 1051,
      "ᄂ": 1052,
      "ᄃ": 1053,
      "ᄄ": 1054,
      "ᄅ": 1055,
      "ᄆ": 1056,
      "ᄇ": 1057,
      "ᄈ": 1058,
      "ᄉ": 1059,
      "ᄊ": 1060,
      "ᄋ": 1061,
      "ᄌ": 1062,
      "ᄍ": 1063,
      "ᄎ": 1064,
      "ᄏ": 1065,
      "ᄐ": 1066,
      "ᄑ": 1067,
      "ᄒ": 1068,
      "ᅡ": 1069,
      "ᅢ": 1070,
      "ᅣ": 1071,
      "ᅥ": 1072,
      "ᅦ": 1073,
      "ᅧ": 1074,
      "ᅨ": 1075,
      "ᅩ": 1076,
      "ᅪ": 1077,
      "ᅫ": 1078,
      "ᅬ": 1079,
      "ᅭ": 1080,
      "ᅮ": 1081,
      "ᅯ": 1082,
      "ᅰ": 1083,
      "ᅱ": 1084,
      "ᅲ": 1085,
      "ᅳ": 1086,
      "ᅴ": 1087,
      "ᅵ": 1088,
      "ᆨ": 1089,
      "ᆫ": 1090,
      "ᆯ": 1091,
      "ᆷ": 1092,
      "ᆸ": 1093,
      "ᆺ": 1094,
      "ᆻ": 1095,
      "ᆼ": 1096,
      "ᆽ": 1097,
      "ᆾ": 1098,
      "ᇀ": 1099,
      "ᇁ": 1100,
      "ᇂ": 1101,
      "ሁ": 1102,
      "ህ": 1103,
      "ለ": 1104,
      "ሊ": 1105,
      "ላ": 1106,
      "ሌ": 1107,
      "ሓ": 1108,
      "ሕ": 1109,
      "መ": 1110,
      "ማ": 1111,
      "ሜ": 1112,
      "ም": 1113,
      "ረ": 1114,
      "ሪ": 1115,
      "ራ": 1116,
      "ር": 1117,
      "ሮ": 1118,
      "ሰ": 1119,
      "ሱ": 1120,
      "ሳ": 1121,
      "ሴ": 1122,
      "ስ": 1123,
      "ቂ": 1124,
      "ቃ": 1125,
      "ቅ": 1126,
      "ቆ": 1127,
      "ቈ": 1128,
      "ቢ": 1129,
      "ባ": 1130,
      "ብ": 1131,
      "ቦ": 1132,
      "ቲ": 1133,
      "ታ": 1134,
      "ቴ": 1135,
      "ት": 1136,
      "ቸ": 1137,
      "ነ": 1138,
      "ን": 1139,
      "ኖ": 1140,
      "አ": 1141,
      "ኢ": 1142,
      "ኣ": 1143,
      "ከ": 1144,
      "ኩ": 1145,
      "ኮ": 1146,
      "ወ": 1147,
      "ዊ": 1148,
      "ው": 1149,
      "ዎ": 1150,
      "ዐ": 1151,
      "ዕ": 1152,
      "ዘ": 1153,
      "ዝ": 1154,
      "የ": 1155,
      "ያ": 1156,
      "ይ": 1157,
      "ዮ": 1158,
      "ዲ": 1159,
      "ዳ": 1160,
      "ዴ": 1161,
      "ድ": 1162,
      "ገ": 1163,
      "ጌ": 1164,
      "ግ": 1165,
      "ጎ": 1166,
      "ጵ": 1167,
      "ፍ": 1168,
      "ᏹ": 1169,
      "ᐃ": 1170,
      "ᐄ": 1171,
      "ᐅ": 1172,
      "ᐆ": 1173,
      "ᐊ": 1174,
      "ᐋ": 1175,
      "ᐦ": 1176,
      "ᐯ": 1177,
      "ᐱ": 1178,
      "ᐸ": 1179,
      "ᑉ": 1180,
      "ᑐ": 1181,
      "ᑕ": 1182,
      "ᑦ": 1183,
      "ᑲ": 1184,
      "ᒃ": 1185,
      "ᒡ": 1186,
      "ᒪ": 1187,
      "ᒻ": 1188,
      "ᓂ": 1189,
      "ᓄ": 1190,
      "ᓇ": 1191,
      "ᓐ": 1192,
      "ᓗ": 1193,
      "ᓪ": 1194,
      "ᓯ": 1195,
      "ᓴ": 1196,
      "ᔅ": 1197,
      "ᔨ": 1198,
      "ᔪ": 1199,
      "ᔭ": 1200,
      "ᔾ": 1201,
      "ᕐ": 1202,
      "ᕙ": 1203,
      "ᕝ": 1204,
      "ᕿ": 1205,
      "ᖃ": 1206,
      "ᖅ": 1207,
      "ᖏ": 1208,
      "ᖑ": 1209,
      "ᖕ": 1210,
      "ᖖ": 1211,
      "ᖦ": 1212,
      "ᗸ": 1213,
      "ᘅ": 1214,
      "ᚠ": 1215,
      "ᚢ": 1216,
      "ᚦ": 1217,
      "ᚨ": 1218,
      "ᚱ": 1219,
      "ᚲ": 1220,
      "ᛖ": 1221,
      "ᝢ": 1222,
      "ᝮ": 1223,
      "ក": 1224,
      "ខ": 1225,
      "គ": 1226,
      "ង": 1227,
      "ច": 1228,
      "ជ": 1229,
      "ញ": 1230,
      "ឌ": 1231,
      "ណ": 1232,
      "ត": 1233,
      "ទ": 1234,
      "ន": 1235,
      "ប": 1236,
      "ព": 1237,
      "ភ": 1238,
      "ម": 1239,
      "យ": 1240,
      "រ": 1241,
      "ល": 1242,
      "ស": 1243,
      "អ": 1244,
      "ឧ": 1245,
      "ា": 1246,
      "ៀ": 1247,
      "េ": 1248,
      "ែ": 1249,
      "ោ": 1250,
      "ៅ": 1251,
      "ះ": 1252,
      "០": 1253,
      "១": 1254,
      "២": 1255,
      "៣": 1256,
      "៤": 1257,
      "៥": 1258,
      "៦": 1259,
      "៧": 1260,
      "៨": 1261,
      "៩": 1262,
      "ᴀ": 1263,
      "ᴄ": 1264,
      "ᴅ": 1265,
      "ᴇ": 1266,
      "ᴍ": 1267,
      "ᴏ": 1268,
      "ᴖ": 1269,
      "ᴘ": 1270,
      "ᴛ": 1271,
      "ᴜ": 1272,
      "ᴢ": 1273,
      "ᴥ": 1274,
      "ᴫ": 1275,
      "ᵇ": 1276,
      "ᵉ": 1277,
      "ᵢ": 1278,
      "‐": 1279,
      "‑": 1280,
      "‒": 1281,
      "–": 1282,
      "—": 1283,
      "―": 1284,
      "‖": 1285,
      "‘": 1286,
      "’": 1287,
      "‚": 1288,
      "‛": 1289,
      "“": 1290,
      "”": 1291,
      "„": 1292,
      "‟": 1293,
      "†": 1294,
      "‡": 1295,
      "•": 1296,
      "…": 1297,
      "‧": 1298,
      "‰": 1299,
      "′": 1300,
      "″": 1301,
      "›": 1302,
      "※": 1303,
      "‼": 1304,
      "‽": 1305,
      "‾": 1306,
      "‿": 1307,
      "⁄": 1308,
      "⁈": 1309,
      "⁰": 1310,
      "⁴": 1311,
      "⁵": 1312,
      "⁶": 1313,
      "⁸": 1314,
      "⁹": 1315,
      "⁺": 1316,
      "⁻": 1317,
      "ⁿ": 1318,
      "₀": 1319,
      "₁": 1320,
      "₂": 1321,
      "₃": 1322,
      "₄": 1323,
      "₅": 1324,
      "₆": 1325,
      "₇": 1326,
      "₈": 1327,
      "₋": 1328,
      "ₑ": 1329,
      "ₚ": 1330,
      "₡": 1331,
      "₣": 1332,
      "₤": 1333,
      "₦": 1334,
      "₩": 1335,
      "₪": 1336,
      "₫": 1337,
      "€": 1338,
      "₱": 1339,
      "₵": 1340,
      "₹": 1341,
      "₺": 1342,
      "₽": 1343,
      "₿": 1344,
      "℃": 1345,
      "℈": 1346,
      "ℓ": 1347,
      "℔": 1348,
      "ℕ": 1349,
      "№": 1350,
      "℗": 1351,
      "ℚ": 1352,
      "ℝ": 1353,
      "℞": 1354,
      "℠": 1355,
      "™": 1356,
      "℥": 1357,
      "⅓": 1358,
      "⅔": 1359,
      "⅕": 1360,
      "⅘": 1361,
      "⅛": 1362,
      "⅜": 1363,
      "⅝": 1364,
      "⅞": 1365,
      "ⅰ": 1366,
      "ⅱ": 1367,
      "ⅲ": 1368,
      "←": 1369,
      "↑": 1370,
      "→": 1371,
      "↓": 1372,
      "↔": 1373,
      "↦": 1374,
      "↵": 1375,
      "↺": 1376,
      "⇐": 1377,
      "⇒": 1378,
      "⇔": 1379,
      "∀": 1380,
      "∂": 1381,
      "∃": 1382,
      "∅": 1383,
      "∆": 1384,
      "∇": 1385,
      "∈": 1386,
      "∑": 1387,
      "−": 1388,
      "∕": 1389,
      "√": 1390,
      "∛": 1391,
      "∝": 1392,
      "∞": 1393,
      "∠": 1394,
      "∧": 1395,
      "∨": 1396,
      "∩": 1397,
      "∪": 1398,
      "∫": 1399,
      "∴": 1400,
      "∼": 1401,
      "≃": 1402,
      "≅": 1403,
      "≈": 1404,
      "≒": 1405,
      "≔": 1406,
      "≡": 1407,
      "≤": 1408,
      "≥": 1409,
      "≧": 1410,
      "≫": 1411,
      "⊂": 1412,
      "⊆": 1413,
      "⊕": 1414,
      "⊗": 1415,
      "⊙": 1416,
      "⋅": 1417,
      "⌀": 1418,
      "⌂": 1419,
      "⌬": 1420,
      "⏣": 1421,
      "①": 1422,
      "②": 1423,
      "③": 1424,
      "④": 1425,
      "⑤": 1426,
      "⑥": 1427,
      "⑦": 1428,
      "ⓒ": 1429,
      "ⓢ": 1430,
      "─": 1431,
      "│": 1432,
      "┌": 1433,
      "┐": 1434,
      "└": 1435,
      "┘": 1436,
      "┬": 1437,
      "┴": 1438,
      "┼": 1439,
      "═": 1440,
      "╗": 1441,
      "╚": 1442,
      "█": 1443,
      "■": 1444,
      "◅": 1445,
      "◊": 1446,
      "○": 1447,
      "◌": 1448,
      "●": 1449,
      "◾": 1450,
      "☃": 1451,
      "★": 1452,
      "☆": 1453,
      "☉": 1454,
      "☎": 1455,
      "☛": 1456,
      "☣": 1457,
      "☭": 1458,
      "☺": 1459,
      "☻": 1460,
      "♀": 1461,
      "♄": 1462,
      "♆": 1463,
      "♋": 1464,
      "♑": 1465,
      "♙": 1466,
      "♟": 1467,
      "♠": 1468,
      "♡": 1469,
      "♣": 1470,
      "♥": 1471,
      "♦": 1472,
      "♪": 1473,
      "♫": 1474,
      "♬": 1475,
      "♭": 1476,
      "♮": 1477,
      "♯": 1478,
      "⚥": 1479,
      "✓": 1480,
      "✚": 1481,
      "❤": 1482,
      "⟨": 1483,
      "⟩": 1484,
      "⨳": 1485,
      "⬄": 1486,
      "ⱡ": 1487,
      "ⲁ": 1488,
      "ⲏ": 1489,
      "ⲓ": 1490,
      "ⲙ": 1491,
      "ⲛ": 1492,
      "ⲟ": 1493,
      "ⲡ": 1494,
      "ⲣ": 1495,
      "ⲥ": 1496,
      "ⲫ": 1497,
      "ⲱ": 1498,
      "ⴰ": 1499,
      "ⴱ": 1500,
      "ⴳ": 1501,
      "ⴷ": 1502,
      "ⴹ": 1503,
      "ⴻ": 1504,
      "ⴽ": 1505,
      "ⵀ": 1506,
      "ⵃ": 1507,
      "ⵅ": 1508,
      "ⵉ": 1509,
      "ⵊ": 1510,
      "ⵍ": 1511,
      "ⵎ": 1512,
      "ⵏ": 1513,
      "ⵓ": 1514,
      "ⵔ": 1515,
      "ⵖ": 1516,
      "ⵙ": 1517,
      "ⵛ": 1518,
      "ⵜ": 1519,
      "ⵡ": 1520,
      "ⵢ": 1521,
      "ⵣ": 1522,
      "⸺": 1523,
      "⿰": 1524,
      "⿱": 1525,
      "⿺": 1526,
      "、": 1527,
      "。": 1528,
      "〃": 1529,
      "々": 1530,
      "〈": 1531,
      "〉": 1532,
      "《": 1533,
      "》": 1534,
      "「": 1535,
      "」": 1536,
      "『": 1537,
      "』": 1538,
      "【": 1539,
      "】": 1540,
      "〔": 1541,
      "〕": 1542,
      "〜": 1543,
      "ぁ": 1544,
      "あ": 1545,
      "ぃ": 1546,
      "い": 1547,
      "う": 1548,
      "え": 1549,
      "お": 1550,
      "か": 1551,
      "き": 1552,
      "く": 1553,
      "け": 1554,
      "こ": 1555,
      "さ": 1556,
      "し": 1557,
      "す": 1558,
      "せ": 1559,
      "そ": 1560,
      "た": 1561,
      "ち": 1562,
      "っ": 1563,
      "つ": 1564,
      "て": 1565,
      "と": 1566,
      "な": 1567,
      "に": 1568,
      "ね": 1569,
      "の": 1570,
      "は": 1571,
      "ひ": 1572,
      "ふ": 1573,
      "へ": 1574,
      "ほ": 1575,
      "ま": 1576,
      "み": 1577,
      "む": 1578,
      "め": 1579,
      "も": 1580,
      "ゃ": 1581,
      "や": 1582,
      "ゅ": 1583,
      "ゆ": 1584,
      "ょ": 1585,
      "よ": 1586,
      "ら": 1587,
      "り": 1588,
      "る": 1589,
      "れ": 1590,
      "ろ": 1591,
      "わ": 1592,
      "を": 1593,
      "ん": 1594,
      "ァ": 1595,
      "ア": 1596,
      "ィ": 1597,
      "イ": 1598,
      "ウ": 1599,
      "ェ": 1600,
      "エ": 1601,
      "ォ": 1602,
      "オ": 1603,
      "カ": 1604,
      "キ": 1605,
      "ク": 1606,
      "ケ": 1607,
      "コ": 1608,
      "サ": 1609,
      "シ": 1610,
      "ス": 1611,
      "セ": 1612,
      "ソ": 1613,
      "タ": 1614,
      "チ": 1615,
      "ッ": 1616,
      "ツ": 1617,
      "テ": 1618,
      "ト": 1619,
      "ナ": 1620,
      "ニ": 1621,
      "ヌ": 1622,
      "ネ": 1623,
      "ノ": 1624,
      "ハ": 1625,
      "ヒ": 1626,
      "フ": 1627,
      "ヘ": 1628,
      "ホ": 1629,
      "マ": 1630,
      "ミ": 1631,
      "ム": 1632,
      "メ": 1633,
      "モ": 1634,
      "ャ": 1635,
      "ヤ": 1636,
      "ュ": 1637,
      "ユ": 1638,
      "ョ": 1639,
      "ヨ": 1640,
      "ラ": 1641,
      "リ": 1642,
      "ル": 1643,
      "レ": 1644,
      "ロ": 1645,
      "ワ": 1646,
      "ン": 1647,
      "ヶ": 1648,
      "・": 1649,
      "ー": 1650,
      "ㄌ": 1651,
      "ㄑ": 1652,
      "ㄒ": 1653,
      "ㄓ": 1654,
      "ㄕ": 1655,
      "ㄘ": 1656,
      "ㄚ": 1657,
      "ㄢ": 1658,
      "ㄣ": 1659,
      "ㄤ": 1660,
      "ㄧ": 1661,
      "ㄨ": 1662,
      "ㄩ": 1663,
      "ㄱ": 1664,
      "ㄴ": 1665,
      "ㄷ": 1666,
      "ㄹ": 1667,
      "ㅁ": 1668,
      "ㅂ": 1669,
      "ㅅ": 1670,
      "ㅇ": 1671,
      "ㅈ": 1672,
      "ㅊ": 1673,
      "ㅋ": 1674,
      "ㅌ": 1675,
      "ㅍ": 1676,
      "ㅎ": 1677,
      "ㅗ": 1678,
      "ㅜ": 1679,
      "ㅠ": 1680,
      "ㅡ": 1681,
      "㎜": 1682,
      "㎡": 1683,
      "㎥": 1684,
      "一": 1685,
      "丁": 1686,
      "七": 1687,
      "万": 1688,
      "丈": 1689,
      "三": 1690,
      "上": 1691,
      "下": 1692,
      "不": 1693,
      "与": 1694,
      "丑": 1695,
      "且": 1696,
      "世": 1697,
      "丘": 1698,
      "丙": 1699,
      "业": 1700,
      "东": 1701,
      "丞": 1702,
      "两": 1703,
      "並": 1704,
      "个": 1705,
      "中": 1706,
      "串": 1707,
      "丸": 1708,
      "丹": 1709,
      "为": 1710,
      "主": 1711,
      "丽": 1712,
      "乃": 1713,
      "久": 1714,
      "么": 1715,
      "义": 1716,
      "之": 1717,
      "乌": 1718,
      "乐": 1719,
      "乙": 1720,
      "九": 1721,
      "也": 1722,
      "书": 1723,
      "乱": 1724,
      "乳": 1725,
      "乾": 1726,
      "亂": 1727,
      "亅": 1728,
      "了": 1729,
      "予": 1730,
      "争": 1731,
      "事": 1732,
      "二": 1733,
      "于": 1734,
      "云": 1735,
      "五": 1736,
      "井": 1737,
      "亚": 1738,
      "些": 1739,
      "亜": 1740,
      "亞": 1741,
      "亡": 1742,
      "亣": 1743,
      "交": 1744,
      "亦": 1745,
      "亨": 1746,
      "京": 1747,
      "亭": 1748,
      "亮": 1749,
      "亵": 1750,
      "人": 1751,
      "亻": 1752,
      "什": 1753,
      "仁": 1754,
      "仇": 1755,
      "今": 1756,
      "介": 1757,
      "仏": 1758,
      "仑": 1759,
      "仔": 1760,
      "他": 1761,
      "付": 1762,
      "仙": 1763,
      "仝": 1764,
      "代": 1765,
      "令": 1766,
      "以": 1767,
      "们": 1768,
      "仰": 1769,
      "仲": 1770,
      "件": 1771,
      "任": 1772,
      "伉": 1773,
      "伊": 1774,
      "伎": 1775,
      "伏": 1776,
      "伐": 1777,
      "休": 1778,
      "伙": 1779,
      "会": 1780,
      "伟": 1781,
      "传": 1782,
      "伦": 1783,
      "伪": 1784,
      "伯": 1785,
      "伸": 1786,
      "似": 1787,
      "伽": 1788,
      "位": 1789,
      "住": 1790,
      "佐": 1791,
      "体": 1792,
      "佔": 1793,
      "何": 1794,
      "佘": 1795,
      "余": 1796,
      "佛": 1797,
      "作": 1798,
      "你": 1799,
      "佩": 1800,
      "佳": 1801,
      "併": 1802,
      "使": 1803,
      "來": 1804,
      "侍": 1805,
      "侘": 1806,
      "供": 1807,
      "依": 1808,
      "侧": 1809,
      "侯": 1810,
      "便": 1811,
      "促": 1812,
      "俄": 1813,
      "俊": 1814,
      "俗": 1815,
      "保": 1816,
      "俞": 1817,
      "俟": 1818,
      "信": 1819,
      "俭": 1820,
      "修": 1821,
      "俱": 1822,
      "倉": 1823,
      "倍": 1824,
      "候": 1825,
      "借": 1826,
      "値": 1827,
      "倩": 1828,
      "倪": 1829,
      "倫": 1830,
      "假": 1831,
      "偈": 1832,
      "偉": 1833,
      "偏": 1834,
      "做": 1835,
      "健": 1836,
      "側": 1837,
      "傑": 1838,
      "備": 1839,
      "傣": 1840,
      "傳": 1841,
      "傷": 1842,
      "働": 1843,
      "像": 1844,
      "僕": 1845,
      "僖": 1846,
      "儀": 1847,
      "億": 1848,
      "儒": 1849,
      "優": 1850,
      "儿": 1851,
      "兀": 1852,
      "允": 1853,
      "元": 1854,
      "充": 1855,
      "兇": 1856,
      "先": 1857,
      "光": 1858,
      "克": 1859,
      "児": 1860,
      "兒": 1861,
      "党": 1862,
      "兜": 1863,
      "入": 1864,
      "內": 1865,
      "全": 1866,
      "八": 1867,
      "公": 1868,
      "六": 1869,
      "兰": 1870,
      "共": 1871,
      "关": 1872,
      "兴": 1873,
      "兵": 1874,
      "其": 1875,
      "典": 1876,
      "养": 1877,
      "兼": 1878,
      "冀": 1879,
      "冂": 1880,
      "内": 1881,
      "円": 1882,
      "再": 1883,
      "冒": 1884,
      "写": 1885,
      "军": 1886,
      "农": 1887,
      "冠": 1888,
      "冨": 1889,
      "冬": 1890,
      "冰": 1891,
      "决": 1892,
      "冶": 1893,
      "凍": 1894,
      "几": 1895,
      "凰": 1896,
      "凱": 1897,
      "出": 1898,
      "函": 1899,
      "刀": 1900,
      "刃": 1901,
      "分": 1902,
      "切": 1903,
      "刊": 1904,
      "列": 1905,
      "刘": 1906,
      "刚": 1907,
      "初": 1908,
      "判": 1909,
      "別": 1910,
      "利": 1911,
      "到": 1912,
      "制": 1913,
      "刻": 1914,
      "剅": 1915,
      "則": 1916,
      "剋": 1917,
      "前": 1918,
      "剑": 1919,
      "剔": 1920,
      "剛": 1921,
      "剣": 1922,
      "剧": 1923,
      "剱": 1924,
      "創": 1925,
      "劈": 1926,
      "劉": 1927,
      "劍": 1928,
      "力": 1929,
      "功": 1930,
      "加": 1931,
      "务": 1932,
      "动": 1933,
      "助": 1934,
      "努": 1935,
      "励": 1936,
      "劳": 1937,
      "勇": 1938,
      "勉": 1939,
      "勒": 1940,
      "動": 1941,
      "務": 1942,
      "勛": 1943,
      "勝": 1944,
      "勞": 1945,
      "勢": 1946,
      "勤": 1947,
      "勲": 1948,
      "勳": 1949,
      "勸": 1950,
      "勾": 1951,
      "勿": 1952,
      "包": 1953,
      "化": 1954,
      "北": 1955,
      "匙": 1956,
      "匯": 1957,
      "匱": 1958,
      "区": 1959,
      "區": 1960,
      "十": 1961,
      "千": 1962,
      "升": 1963,
      "午": 1964,
      "半": 1965,
      "华": 1966,
      "协": 1967,
      "卓": 1968,
      "協": 1969,
      "单": 1970,
      "南": 1971,
      "単": 1972,
      "博": 1973,
      "卜": 1974,
      "卞": 1975,
      "占": 1976,
      "卡": 1977,
      "卢": 1978,
      "卫": 1979,
      "卬": 1980,
      "卵": 1981,
      "卿": 1982,
      "厂": 1983,
      "历": 1984,
      "厚": 1985,
      "厝": 1986,
      "原": 1987,
      "厥": 1988,
      "厳": 1989,
      "去": 1990,
      "县": 1991,
      "参": 1992,
      "參": 1993,
      "又": 1994,
      "叉": 1995,
      "及": 1996,
      "友": 1997,
      "双": 1998,
      "反": 1999,
      "収": 2000,
      "叔": 2001,
      "受": 2002,
      "叟": 2003,
      "叢": 2004,
      "口": 2005,
      "古": 2006,
      "句": 2007,
      "只": 2008,
      "可": 2009,
      "台": 2010,
      "叱": 2011,
      "史": 2012,
      "叶": 2013,
      "号": 2014,
      "司": 2015,
      "吃": 2016,
      "合": 2017,
      "吉": 2018,
      "同": 2019,
      "名": 2020,
      "后": 2021,
      "向": 2022,
      "吕": 2023,
      "吗": 2024,
      "君": 2025,
      "吝": 2026,
      "吟": 2027,
      "吧": 2028,
      "含": 2029,
      "启": 2030,
      "吳": 2031,
      "吴": 2032,
      "吸": 2033,
      "吹": 2034,
      "吾": 2035,
      "呂": 2036,
      "呈": 2037,
      "员": 2038,
      "周": 2039,
      "味": 2040,
      "呼": 2041,
      "命": 2042,
      "咋": 2043,
      "和": 2044,
      "咒": 2045,
      "咖": 2046,
      "咨": 2047,
      "咲": 2048,
      "哀": 2049,
      "品": 2050,
      "哈": 2051,
      "哉": 2052,
      "員": 2053,
      "哥": 2054,
      "哪": 2055,
      "哲": 2056,
      "唐": 2057,
      "唯": 2058,
      "商": 2059,
      "問": 2060,
      "啓": 2061,
      "啟": 2062,
      "啡": 2063,
      "啦": 2064,
      "喃": 2065,
      "善": 2066,
      "喆": 2067,
      "喇": 2068,
      "喜": 2069,
      "單": 2070,
      "営": 2071,
      "嗣": 2072,
      "嘉": 2073,
      "嘗": 2074,
      "嘛": 2075,
      "嘴": 2076,
      "噌": 2077,
      "器": 2078,
      "嚎": 2079,
      "嚴": 2080,
      "囁": 2081,
      "囂": 2082,
      "囘": 2083,
      "四": 2084,
      "回": 2085,
      "因": 2086,
      "团": 2087,
      "団": 2088,
      "囧": 2089,
      "囬": 2090,
      "园": 2091,
      "囯": 2092,
      "囲": 2093,
      "围": 2094,
      "固": 2095,
      "国": 2096,
      "图": 2097,
      "圃": 2098,
      "國": 2099,
      "圍": 2100,
      "園": 2101,
      "圖": 2102,
      "團": 2103,
      "土": 2104,
      "圣": 2105,
      "在": 2106,
      "地": 2107,
      "场": 2108,
      "坂": 2109,
      "均": 2110,
      "坊": 2111,
      "坐": 2112,
      "坡": 2113,
      "坤": 2114,
      "垂": 2115,
      "型": 2116,
      "垣": 2117,
      "城": 2118,
      "埔": 2119,
      "域": 2120,
      "執": 2121,
      "培": 2122,
      "基": 2123,
      "埼": 2124,
      "堀": 2125,
      "堂": 2126,
      "堤": 2127,
      "堪": 2128,
      "堯": 2129,
      "報": 2130,
      "場": 2131,
      "塊": 2132,
      "塔": 2133,
      "塚": 2134,
      "塞": 2135,
      "塩": 2136,
      "塽": 2137,
      "境": 2138,
      "墓": 2139,
      "墨": 2140,
      "壁": 2141,
      "壤": 2142,
      "士": 2143,
      "声": 2144,
      "売": 2145,
      "壳": 2146,
      "壽": 2147,
      "复": 2148,
      "夏": 2149,
      "夕": 2150,
      "外": 2151,
      "多": 2152,
      "夜": 2153,
      "够": 2154,
      "夢": 2155,
      "大": 2156,
      "天": 2157,
      "太": 2158,
      "夫": 2159,
      "央": 2160,
      "失": 2161,
      "头": 2162,
      "夷": 2163,
      "夾": 2164,
      "奇": 2165,
      "奈": 2166,
      "奉": 2167,
      "契": 2168,
      "奕": 2169,
      "奖": 2170,
      "套": 2171,
      "奚": 2172,
      "奥": 2173,
      "奮": 2174,
      "女": 2175,
      "奴": 2176,
      "奶": 2177,
      "她": 2178,
      "好": 2179,
      "如": 2180,
      "妃": 2181,
      "妏": 2182,
      "妖": 2183,
      "妙": 2184,
      "妮": 2185,
      "妹": 2186,
      "妻": 2187,
      "姊": 2188,
      "始": 2189,
      "姑": 2190,
      "委": 2191,
      "姚": 2192,
      "姜": 2193,
      "姫": 2194,
      "姬": 2195,
      "威": 2196,
      "娃": 2197,
      "娜": 2198,
      "娣": 2199,
      "娥": 2200,
      "娱": 2201,
      "婆": 2202,
      "婉": 2203,
      "婦": 2204,
      "媛": 2205,
      "媽": 2206,
      "嬌": 2207,
      "嬰": 2208,
      "孃": 2209,
      "子": 2210,
      "孔": 2211,
      "字": 2212,
      "存": 2213,
      "孙": 2214,
      "孚": 2215,
      "孝": 2216,
      "孟": 2217,
      "季": 2218,
      "学": 2219,
      "孩": 2220,
      "孫": 2221,
      "學": 2222,
      "宁": 2223,
      "它": 2224,
      "宅": 2225,
      "宇": 2226,
      "守": 2227,
      "安": 2228,
      "宋": 2229,
      "完": 2230,
      "宏": 2231,
      "宓": 2232,
      "宕": 2233,
      "宗": 2234,
      "官": 2235,
      "宙": 2236,
      "定": 2237,
      "宛": 2238,
      "宜": 2239,
      "宝": 2240,
      "实": 2241,
      "実": 2242,
      "客": 2243,
      "宣": 2244,
      "室": 2245,
      "宮": 2246,
      "宰": 2247,
      "害": 2248,
      "家": 2249,
      "容": 2250,
      "宿": 2251,
      "寂": 2252,
      "寄": 2253,
      "寇": 2254,
      "富": 2255,
      "寒": 2256,
      "寓": 2257,
      "寛": 2258,
      "察": 2259,
      "實": 2260,
      "寧": 2261,
      "寨": 2262,
      "寬": 2263,
      "寵": 2264,
      "寶": 2265,
      "对": 2266,
      "寺": 2267,
      "対": 2268,
      "寿": 2269,
      "封": 2270,
      "専": 2271,
      "射": 2272,
      "將": 2273,
      "專": 2274,
      "尉": 2275,
      "尊": 2276,
      "尋": 2277,
      "對": 2278,
      "小": 2279,
      "少": 2280,
      "尔": 2281,
      "尘": 2282,
      "尚": 2283,
      "尝": 2284,
      "尭": 2285,
      "就": 2286,
      "尸": 2287,
      "尹": 2288,
      "尼": 2289,
      "尾": 2290,
      "局": 2291,
      "屁": 2292,
      "居": 2293,
      "屈": 2294,
      "屋": 2295,
      "屏": 2296,
      "展": 2297,
      "属": 2298,
      "屠": 2299,
      "履": 2300,
      "山": 2301,
      "岁": 2302,
      "岑": 2303,
      "岛": 2304,
      "岡": 2305,
      "岩": 2306,
      "岱": 2307,
      "岳": 2308,
      "岸": 2309,
      "峡": 2310,
      "峨": 2311,
      "峯": 2312,
      "峰": 2313,
      "島": 2314,
      "峻": 2315,
      "崇": 2316,
      "崎": 2317,
      "崔": 2318,
      "崛": 2319,
      "崧": 2320,
      "崴": 2321,
      "嵯": 2322,
      "嶋": 2323,
      "嶺": 2324,
      "巉": 2325,
      "巖": 2326,
      "川": 2327,
      "州": 2328,
      "巢": 2329,
      "工": 2330,
      "左": 2331,
      "巧": 2332,
      "差": 2333,
      "己": 2334,
      "巳": 2335,
      "巴": 2336,
      "巻": 2337,
      "市": 2338,
      "布": 2339,
      "帅": 2340,
      "帆": 2341,
      "师": 2342,
      "希": 2343,
      "帝": 2344,
      "帥": 2345,
      "带": 2346,
      "師": 2347,
      "帯": 2348,
      "帶": 2349,
      "常": 2350,
      "帽": 2351,
      "幅": 2352,
      "幕": 2353,
      "幡": 2354,
      "幫": 2355,
      "干": 2356,
      "平": 2357,
      "年": 2358,
      "幸": 2359,
      "幹": 2360,
      "幻": 2361,
      "幽": 2362,
      "幾": 2363,
      "广": 2364,
      "庁": 2365,
      "広": 2366,
      "庄": 2367,
      "庆": 2368,
      "序": 2369,
      "店": 2370,
      "庙": 2371,
      "府": 2372,
      "度": 2373,
      "座": 2374,
      "庫": 2375,
      "庭": 2376,
      "庵": 2377,
      "庶": 2378,
      "康": 2379,
      "庸": 2380,
      "庾": 2381,
      "廈": 2382,
      "廉": 2383,
      "廊": 2384,
      "廓": 2385,
      "廟": 2386,
      "廣": 2387,
      "延": 2388,
      "建": 2389,
      "廻": 2390,
      "廽": 2391,
      "弁": 2392,
      "异": 2393,
      "弄": 2394,
      "弅": 2395,
      "弈": 2396,
      "式": 2397,
      "弓": 2398,
      "弗": 2399,
      "弘": 2400,
      "张": 2401,
      "弥": 2402,
      "弦": 2403,
      "張": 2404,
      "強": 2405,
      "弹": 2406,
      "强": 2407,
      "弾": 2408,
      "彈": 2409,
      "归": 2410,
      "当": 2411,
      "彤": 2412,
      "彥": 2413,
      "彦": 2414,
      "彩": 2415,
      "彪": 2416,
      "彫": 2417,
      "彭": 2418,
      "影": 2419,
      "彼": 2420,
      "往": 2421,
      "征": 2422,
      "径": 2423,
      "待": 2424,
      "很": 2425,
      "律": 2426,
      "後": 2427,
      "徐": 2428,
      "徒": 2429,
      "従": 2430,
      "得": 2431,
      "徙": 2432,
      "從": 2433,
      "御": 2434,
      "復": 2435,
      "徳": 2436,
      "徵": 2437,
      "德": 2438,
      "徽": 2439,
      "心": 2440,
      "忌": 2441,
      "忍": 2442,
      "志": 2443,
      "忘": 2444,
      "忠": 2445,
      "快": 2446,
      "念": 2447,
      "怎": 2448,
      "怖": 2449,
      "思": 2450,
      "怡": 2451,
      "急": 2452,
      "性": 2453,
      "怪": 2454,
      "总": 2455,
      "恂": 2456,
      "恋": 2457,
      "恐": 2458,
      "恒": 2459,
      "恪": 2460,
      "恭": 2461,
      "息": 2462,
      "恵": 2463,
      "悠": 2464,
      "悪": 2465,
      "情": 2466,
      "惜": 2467,
      "惠": 2468,
      "惡": 2469,
      "惮": 2470,
      "想": 2471,
      "意": 2472,
      "愛": 2473,
      "感": 2474,
      "愿": 2475,
      "慈": 2476,
      "慢": 2477,
      "慧": 2478,
      "慮": 2479,
      "慶": 2480,
      "憲": 2481,
      "應": 2482,
      "懷": 2483,
      "懿": 2484,
      "戀": 2485,
      "戊": 2486,
      "戌": 2487,
      "戎": 2488,
      "成": 2489,
      "我": 2490,
      "战": 2491,
      "戟": 2492,
      "戦": 2493,
      "戯": 2494,
      "戰": 2495,
      "戲": 2496,
      "戶": 2497,
      "户": 2498,
      "戸": 2499,
      "房": 2500,
      "所": 2501,
      "扇": 2502,
      "手": 2503,
      "才": 2504,
      "打": 2505,
      "托": 2506,
      "扣": 2507,
      "扬": 2508,
      "承": 2509,
      "技": 2510,
      "把": 2511,
      "折": 2512,
      "抛": 2513,
      "抠": 2514,
      "护": 2515,
      "报": 2516,
      "披": 2517,
      "抵": 2518,
      "抹": 2519,
      "拂": 2520,
      "拉": 2521,
      "拌": 2522,
      "拓": 2523,
      "拔": 2524,
      "拙": 2525,
      "拜": 2526,
      "拨": 2527,
      "拭": 2528,
      "拯": 2529,
      "拳": 2530,
      "拿": 2531,
      "持": 2532,
      "挂": 2533,
      "指": 2534,
      "按": 2535,
      "挑": 2536,
      "挙": 2537,
      "掃": 2538,
      "授": 2539,
      "掌": 2540,
      "掐": 2541,
      "掘": 2542,
      "探": 2543,
      "推": 2544,
      "掩": 2545,
      "措": 2546,
      "掸": 2547,
      "揚": 2548,
      "搏": 2549,
      "搖": 2550,
      "搜": 2551,
      "搞": 2552,
      "搯": 2553,
      "携": 2554,
      "摘": 2555,
      "摩": 2556,
      "摺": 2557,
      "撃": 2558,
      "撑": 2559,
      "撥": 2560,
      "播": 2561,
      "撮": 2562,
      "擇": 2563,
      "擒": 2564,
      "據": 2565,
      "攀": 2566,
      "攔": 2567,
      "支": 2568,
      "攻": 2569,
      "放": 2570,
      "政": 2571,
      "故": 2572,
      "敎": 2573,
      "敏": 2574,
      "救": 2575,
      "教": 2576,
      "散": 2577,
      "敦": 2578,
      "敬": 2579,
      "文": 2580,
      "斉": 2581,
      "斋": 2582,
      "斎": 2583,
      "斗": 2584,
      "料": 2585,
      "斛": 2586,
      "斩": 2587,
      "斬": 2588,
      "断": 2589,
      "斯": 2590,
      "新": 2591,
      "方": 2592,
      "於": 2593,
      "施": 2594,
      "旅": 2595,
      "旋": 2596,
      "族": 2597,
      "旗": 2598,
      "无": 2599,
      "既": 2600,
      "日": 2601,
      "旧": 2602,
      "早": 2603,
      "旱": 2604,
      "时": 2605,
      "旺": 2606,
      "旽": 2607,
      "昂": 2608,
      "昆": 2609,
      "昇": 2610,
      "昌": 2611,
      "明": 2612,
      "昏": 2613,
      "易": 2614,
      "昔": 2615,
      "星": 2616,
      "映": 2617,
      "春": 2618,
      "昭": 2619,
      "是": 2620,
      "晁": 2621,
      "時": 2622,
      "晃": 2623,
      "晉": 2624,
      "晋": 2625,
      "晗": 2626,
      "晨": 2627,
      "晩": 2628,
      "普": 2629,
      "景": 2630,
      "晴": 2631,
      "晶": 2632,
      "智": 2633,
      "暁": 2634,
      "暐": 2635,
      "暢": 2636,
      "暦": 2637,
      "暨": 2638,
      "暴": 2639,
      "曉": 2640,
      "曙": 2641,
      "曜": 2642,
      "曰": 2643,
      "曲": 2644,
      "曳": 2645,
      "更": 2646,
      "曷": 2647,
      "書": 2648,
      "曹": 2649,
      "曼": 2650,
      "曽": 2651,
      "曾": 2652,
      "最": 2653,
      "會": 2654,
      "月": 2655,
      "有": 2656,
      "朗": 2657,
      "望": 2658,
      "朝": 2659,
      "期": 2660,
      "朧": 2661,
      "木": 2662,
      "未": 2663,
      "末": 2664,
      "本": 2665,
      "朮": 2666,
      "术": 2667,
      "朱": 2668,
      "朴": 2669,
      "权": 2670,
      "杉": 2671,
      "李": 2672,
      "杏": 2673,
      "村": 2674,
      "杖": 2675,
      "杜": 2676,
      "杞": 2677,
      "束": 2678,
      "条": 2679,
      "来": 2680,
      "杨": 2681,
      "杰": 2682,
      "東": 2683,
      "松": 2684,
      "板": 2685,
      "极": 2686,
      "析": 2687,
      "林": 2688,
      "果": 2689,
      "枝": 2690,
      "枣": 2691,
      "枪": 2692,
      "枫": 2693,
      "枯": 2694,
      "枳": 2695,
      "架": 2696,
      "枸": 2697,
      "柄": 2698,
      "柏": 2699,
      "柑": 2700,
      "染": 2701,
      "柔": 2702,
      "柚": 2703,
      "柜": 2704,
      "柱": 2705,
      "柳": 2706,
      "柴": 2707,
      "査": 2708,
      "栄": 2709,
      "标": 2710,
      "树": 2711,
      "栗": 2712,
      "校": 2713,
      "株": 2714,
      "样": 2715,
      "根": 2716,
      "桂": 2717,
      "桃": 2718,
      "案": 2719,
      "桐": 2720,
      "桑": 2721,
      "桥": 2722,
      "梁": 2723,
      "梅": 2724,
      "梓": 2725,
      "梔": 2726,
      "梗": 2727,
      "梢": 2728,
      "梦": 2729,
      "梨": 2730,
      "检": 2731,
      "棋": 2732,
      "棠": 2733,
      "森": 2734,
      "植": 2735,
      "椎": 2736,
      "椒": 2737,
      "椙": 2738,
      "椛": 2739,
      "楊": 2740,
      "楝": 2741,
      "楠": 2742,
      "業": 2743,
      "極": 2744,
      "楼": 2745,
      "楽": 2746,
      "榆": 2747,
      "榔": 2748,
      "榜": 2749,
      "榧": 2750,
      "榮": 2751,
      "榴": 2752,
      "槍": 2753,
      "槐": 2754,
      "槑": 2755,
      "樂": 2756,
      "樊": 2757,
      "樓": 2758,
      "樣": 2759,
      "横": 2760,
      "樫": 2761,
      "樵": 2762,
      "樸": 2763,
      "樹": 2764,
      "橋": 2765,
      "橘": 2766,
      "橙": 2767,
      "機": 2768,
      "檔": 2769,
      "檳": 2770,
      "欠": 2771,
      "次": 2772,
      "欧": 2773,
      "欲": 2774,
      "欽": 2775,
      "款": 2776,
      "歌": 2777,
      "歙": 2778,
      "止": 2779,
      "正": 2780,
      "步": 2781,
      "武": 2782,
      "歩": 2783,
      "歯": 2784,
      "歳": 2785,
      "歴": 2786,
      "歷": 2787,
      "歸": 2788,
      "死": 2789,
      "殊": 2790,
      "残": 2791,
      "殘": 2792,
      "段": 2793,
      "殷": 2794,
      "殺": 2795,
      "殿": 2796,
      "毁": 2797,
      "毅": 2798,
      "母": 2799,
      "毒": 2800,
      "比": 2801,
      "毗": 2802,
      "毘": 2803,
      "毛": 2804,
      "氏": 2805,
      "民": 2806,
      "气": 2807,
      "気": 2808,
      "氣": 2809,
      "水": 2810,
      "永": 2811,
      "氾": 2812,
      "汀": 2813,
      "汁": 2814,
      "求": 2815,
      "汉": 2816,
      "汝": 2817,
      "江": 2818,
      "池": 2819,
      "汪": 2820,
      "決": 2821,
      "汽": 2822,
      "汾": 2823,
      "沈": 2824,
      "沉": 2825,
      "沒": 2826,
      "沖": 2827,
      "沘": 2828,
      "沙": 2829,
      "沛": 2830,
      "沟": 2831,
      "没": 2832,
      "沢": 2833,
      "沤": 2834,
      "沮": 2835,
      "河": 2836,
      "治": 2837,
      "沼": 2838,
      "沽": 2839,
      "況": 2840,
      "泉": 2841,
      "泊": 2842,
      "法": 2843,
      "泛": 2844,
      "波": 2845,
      "泥": 2846,
      "注": 2847,
      "泰": 2848,
      "泱": 2849,
      "泳": 2850,
      "泻": 2851,
      "洁": 2852,
      "洋": 2853,
      "洗": 2854,
      "洙": 2855,
      "洚": 2856,
      "洛": 2857,
      "洞": 2858,
      "津": 2859,
      "洪": 2860,
      "洲": 2861,
      "活": 2862,
      "派": 2863,
      "流": 2864,
      "浄": 2865,
      "浅": 2866,
      "济": 2867,
      "浚": 2868,
      "浜": 2869,
      "浦": 2870,
      "浩": 2871,
      "浪": 2872,
      "浮": 2873,
      "海": 2874,
      "涇": 2875,
      "消": 2876,
      "涉": 2877,
      "涌": 2878,
      "涙": 2879,
      "涼": 2880,
      "淇": 2881,
      "淑": 2882,
      "淚": 2883,
      "淡": 2884,
      "淨": 2885,
      "淫": 2886,
      "淮": 2887,
      "深": 2888,
      "淳": 2889,
      "淵": 2890,
      "混": 2891,
      "淸": 2892,
      "淺": 2893,
      "清": 2894,
      "済": 2895,
      "渉": 2896,
      "渋": 2897,
      "渎": 2898,
      "減": 2899,
      "渝": 2900,
      "渠": 2901,
      "渡": 2902,
      "温": 2903,
      "港": 2904,
      "游": 2905,
      "渹": 2906,
      "渾": 2907,
      "湄": 2908,
      "湖": 2909,
      "湘": 2910,
      "湛": 2911,
      "湯": 2912,
      "湾": 2913,
      "満": 2914,
      "源": 2915,
      "溜": 2916,
      "溪": 2917,
      "溫": 2918,
      "滅": 2919,
      "滑": 2920,
      "滚": 2921,
      "滝": 2922,
      "满": 2923,
      "滾": 2924,
      "漁": 2925,
      "漆": 2926,
      "演": 2927,
      "漢": 2928,
      "漫": 2929,
      "漬": 2930,
      "潔": 2931,
      "潘": 2932,
      "潤": 2933,
      "潭": 2934,
      "澤": 2935,
      "澧": 2936,
      "澳": 2937,
      "濃": 2938,
      "濟": 2939,
      "濡": 2940,
      "濫": 2941,
      "濬": 2942,
      "濮": 2943,
      "瀉": 2944,
      "瀑": 2945,
      "瀟": 2946,
      "灘": 2947,
      "灣": 2948,
      "火": 2949,
      "灯": 2950,
      "灶": 2951,
      "灸": 2952,
      "炊": 2953,
      "炎": 2954,
      "炒": 2955,
      "炙": 2956,
      "炜": 2957,
      "炟": 2958,
      "炮": 2959,
      "炳": 2960,
      "為": 2961,
      "烈": 2962,
      "烏": 2963,
      "無": 2964,
      "焰": 2965,
      "焱": 2966,
      "然": 2967,
      "煊": 2968,
      "煌": 2969,
      "煙": 2970,
      "煞": 2971,
      "煥": 2972,
      "照": 2973,
      "煬": 2974,
      "煮": 2975,
      "熊": 2976,
      "熙": 2977,
      "熟": 2978,
      "熱": 2979,
      "燁": 2980,
      "燃": 2981,
      "燕": 2982,
      "營": 2983,
      "燦": 2984,
      "爆": 2985,
      "爱": 2986,
      "父": 2987,
      "爷": 2988,
      "爸": 2989,
      "爺": 2990,
      "爽": 2991,
      "爾": 2992,
      "片": 2993,
      "版": 2994,
      "牙": 2995,
      "牛": 2996,
      "牡": 2997,
      "物": 2998,
      "特": 2999,
      "牽": 3000,
      "犀": 3001,
      "犬": 3002,
      "狂": 3003,
      "狐": 3004,
      "狗": 3005,
      "狙": 3006,
      "狩": 3007,
      "独": 3008,
      "狮": 3009,
      "狱": 3010,
      "狼": 3011,
      "猛": 3012,
      "猪": 3013,
      "猫": 3014,
      "献": 3015,
      "猱": 3016,
      "猶": 3017,
      "猿": 3018,
      "獄": 3019,
      "獎": 3020,
      "獨": 3021,
      "獸": 3022,
      "玄": 3023,
      "玉": 3024,
      "王": 3025,
      "玑": 3026,
      "玛": 3027,
      "玫": 3028,
      "玲": 3029,
      "玻": 3030,
      "珈": 3031,
      "珊": 3032,
      "珍": 3033,
      "珠": 3034,
      "珪": 3035,
      "班": 3036,
      "現": 3037,
      "球": 3038,
      "琅": 3039,
      "理": 3040,
      "琉": 3041,
      "琊": 3042,
      "琛": 3043,
      "琤": 3044,
      "琪": 3045,
      "琮": 3046,
      "琲": 3047,
      "琴": 3048,
      "瑚": 3049,
      "瑛": 3050,
      "瑜": 3051,
      "瑞": 3052,
      "瑟": 3053,
      "瑤": 3054,
      "瑪": 3055,
      "瑰": 3056,
      "璃": 3057,
      "環": 3058,
      "瓊": 3059,
      "瓜": 3060,
      "瓦": 3061,
      "甄": 3062,
      "甘": 3063,
      "生": 3064,
      "産": 3065,
      "用": 3066,
      "甫": 3067,
      "田": 3068,
      "由": 3069,
      "甲": 3070,
      "申": 3071,
      "电": 3072,
      "男": 3073,
      "町": 3074,
      "画": 3075,
      "畅": 3076,
      "界": 3077,
      "畔": 3078,
      "留": 3079,
      "畢": 3080,
      "略": 3081,
      "番": 3082,
      "畫": 3083,
      "異": 3084,
      "畵": 3085,
      "當": 3086,
      "疆": 3087,
      "疊": 3088,
      "疎": 3089,
      "疏": 3090,
      "疤": 3091,
      "痒": 3092,
      "痕": 3093,
      "痛": 3094,
      "痴": 3095,
      "癯": 3096,
      "発": 3097,
      "登": 3098,
      "發": 3099,
      "白": 3100,
      "百": 3101,
      "的": 3102,
      "皆": 3103,
      "皇": 3104,
      "皓": 3105,
      "皮": 3106,
      "盆": 3107,
      "益": 3108,
      "盐": 3109,
      "监": 3110,
      "盛": 3111,
      "盟": 3112,
      "監": 3113,
      "盤": 3114,
      "盥": 3115,
      "盧": 3116,
      "目": 3117,
      "直": 3118,
      "相": 3119,
      "盾": 3120,
      "省": 3121,
      "眉": 3122,
      "県": 3123,
      "真": 3124,
      "眷": 3125,
      "眼": 3126,
      "眾": 3127,
      "睛": 3128,
      "睡": 3129,
      "督": 3130,
      "瞎": 3131,
      "瞳": 3132,
      "矗": 3133,
      "矛": 3134,
      "矢": 3135,
      "矣": 3136,
      "知": 3137,
      "矩": 3138,
      "矯": 3139,
      "石": 3140,
      "砂": 3141,
      "研": 3142,
      "砕": 3143,
      "破": 3144,
      "硏": 3145,
      "硝": 3146,
      "碁": 3147,
      "碇": 3148,
      "碑": 3149,
      "碗": 3150,
      "碟": 3151,
      "碣": 3152,
      "碧": 3153,
      "磁": 3154,
      "磐": 3155,
      "磨": 3156,
      "磯": 3157,
      "礁": 3158,
      "礼": 3159,
      "社": 3160,
      "祀": 3161,
      "祈": 3162,
      "祉": 3163,
      "祐": 3164,
      "祕": 3165,
      "祖": 3166,
      "祜": 3167,
      "神": 3168,
      "祠": 3169,
      "祥": 3170,
      "祭": 3171,
      "祯": 3172,
      "祿": 3173,
      "禁": 3174,
      "禄": 3175,
      "禎": 3176,
      "福": 3177,
      "禧": 3178,
      "禪": 3179,
      "禮": 3180,
      "禰": 3181,
      "禹": 3182,
      "禽": 3183,
      "禾": 3184,
      "禿": 3185,
      "秀": 3186,
      "私": 3187,
      "秂": 3188,
      "秉": 3189,
      "秋": 3190,
      "科": 3191,
      "秒": 3192,
      "秘": 3193,
      "秦": 3194,
      "程": 3195,
      "稔": 3196,
      "稚": 3197,
      "種": 3198,
      "稲": 3199,
      "稷": 3200,
      "稽": 3201,
      "穀": 3202,
      "穂": 3203,
      "穆": 3204,
      "積": 3205,
      "穎": 3206,
      "究": 3207,
      "穷": 3208,
      "空": 3209,
      "穿": 3210,
      "突": 3211,
      "窗": 3212,
      "窟": 3213,
      "竇": 3214,
      "竈": 3215,
      "立": 3216,
      "站": 3217,
      "竜": 3218,
      "竞": 3219,
      "章": 3220,
      "童": 3221,
      "竦": 3222,
      "端": 3223,
      "競": 3224,
      "竹": 3225,
      "笈": 3226,
      "笏": 3227,
      "笑": 3228,
      "笔": 3229,
      "第": 3230,
      "笼": 3231,
      "筆": 3232,
      "等": 3233,
      "筑": 3234,
      "筒": 3235,
      "策": 3236,
      "筠": 3237,
      "筷": 3238,
      "签": 3239,
      "简": 3240,
      "箋": 3241,
      "箍": 3242,
      "箏": 3243,
      "管": 3244,
      "箸": 3245,
      "節": 3246,
      "篆": 3247,
      "篠": 3248,
      "篤": 3249,
      "簡": 3250,
      "籌": 3251,
      "籍": 3252,
      "籜": 3253,
      "米": 3254,
      "粉": 3255,
      "粗": 3256,
      "粤": 3257,
      "粥": 3258,
      "粵": 3259,
      "精": 3260,
      "糖": 3261,
      "糸": 3262,
      "系": 3263,
      "紀": 3264,
      "約": 3265,
      "紅": 3266,
      "紆": 3267,
      "紋": 3268,
      "納": 3269,
      "紐": 3270,
      "純": 3271,
      "紘": 3272,
      "紙": 3273,
      "素": 3274,
      "紡": 3275,
      "索": 3276,
      "紫": 3277,
      "細": 3278,
      "紹": 3279,
      "終": 3280,
      "絃": 3281,
      "組": 3282,
      "経": 3283,
      "結": 3284,
      "絜": 3285,
      "給": 3286,
      "絨": 3287,
      "絫": 3288,
      "統": 3289,
      "絲": 3290,
      "絵": 3291,
      "絹": 3292,
      "經": 3293,
      "続": 3294,
      "維": 3295,
      "綱": 3296,
      "綸": 3297,
      "綿": 3298,
      "総": 3299,
      "線": 3300,
      "緩": 3301,
      "縄": 3302,
      "縣": 3303,
      "縫": 3304,
      "總": 3305,
      "織": 3306,
      "繡": 3307,
      "繩": 3308,
      "纂": 3309,
      "红": 3310,
      "约": 3311,
      "级": 3312,
      "纪": 3313,
      "纳": 3314,
      "纵": 3315,
      "纶": 3316,
      "细": 3317,
      "绍": 3318,
      "经": 3319,
      "绒": 3320,
      "结": 3321,
      "绛": 3322,
      "绝": 3323,
      "统": 3324,
      "绥": 3325,
      "续": 3326,
      "维": 3327,
      "缺": 3328,
      "罗": 3329,
      "罨": 3330,
      "置": 3331,
      "署": 3332,
      "羁": 3333,
      "羅": 3334,
      "羊": 3335,
      "羌": 3336,
      "美": 3337,
      "羡": 3338,
      "群": 3339,
      "義": 3340,
      "羲": 3341,
      "羽": 3342,
      "翁": 3343,
      "習": 3344,
      "翔": 3345,
      "翘": 3346,
      "翠": 3347,
      "翰": 3348,
      "翻": 3349,
      "翼": 3350,
      "耀": 3351,
      "老": 3352,
      "考": 3353,
      "者": 3354,
      "耉": 3355,
      "而": 3356,
      "耐": 3357,
      "耦": 3358,
      "耳": 3359,
      "耶": 3360,
      "耿": 3361,
      "聂": 3362,
      "职": 3363,
      "联": 3364,
      "聖": 3365,
      "聚": 3366,
      "聞": 3367,
      "聯": 3368,
      "聰": 3369,
      "聲": 3370,
      "聶": 3371,
      "聽": 3372,
      "聾": 3373,
      "聿": 3374,
      "肆": 3375,
      "肉": 3376,
      "肖": 3377,
      "股": 3378,
      "肤": 3379,
      "肥": 3380,
      "育": 3381,
      "胆": 3382,
      "背": 3383,
      "胎": 3384,
      "胜": 3385,
      "胞": 3386,
      "胡": 3387,
      "胶": 3388,
      "能": 3389,
      "脂": 3390,
      "脈": 3391,
      "脊": 3392,
      "脚": 3393,
      "脩": 3394,
      "脫": 3395,
      "脱": 3396,
      "腐": 3397,
      "腕": 3398,
      "腥": 3399,
      "腹": 3400,
      "腺": 3401,
      "腾": 3402,
      "膏": 3403,
      "膾": 3404,
      "臣": 3405,
      "臥": 3406,
      "臧": 3407,
      "臨": 3408,
      "自": 3409,
      "臭": 3410,
      "臯": 3411,
      "至": 3412,
      "致": 3413,
      "臺": 3414,
      "臼": 3415,
      "舂": 3416,
      "與": 3417,
      "興": 3418,
      "舉": 3419,
      "舊": 3420,
      "舜": 3421,
      "舞": 3422,
      "舟": 3423,
      "航": 3424,
      "般": 3425,
      "船": 3426,
      "艘": 3427,
      "良": 3428,
      "色": 3429,
      "艺": 3430,
      "艽": 3431,
      "艾": 3432,
      "芈": 3433,
      "芍": 3434,
      "芎": 3435,
      "芒": 3436,
      "芝": 3437,
      "芡": 3438,
      "芥": 3439,
      "芦": 3440,
      "芩": 3441,
      "芫": 3442,
      "芬": 3443,
      "芭": 3444,
      "花": 3445,
      "芳": 3446,
      "芷": 3447,
      "芸": 3448,
      "芽": 3449,
      "苇": 3450,
      "苍": 3451,
      "苏": 3452,
      "苓": 3453,
      "苔": 3454,
      "苗": 3455,
      "苚": 3456,
      "苡": 3457,
      "若": 3458,
      "苦": 3459,
      "苧": 3460,
      "英": 3461,
      "苾": 3462,
      "范": 3463,
      "茅": 3464,
      "茜": 3465,
      "茯": 3466,
      "茱": 3467,
      "茴": 3468,
      "茵": 3469,
      "茶": 3470,
      "茸": 3471,
      "茹": 3472,
      "荆": 3473,
      "荇": 3474,
      "草": 3475,
      "荑": 3476,
      "荒": 3477,
      "荖": 3478,
      "荡": 3479,
      "荫": 3480,
      "药": 3481,
      "荳": 3482,
      "荷": 3483,
      "莉": 3484,
      "莊": 3485,
      "莧": 3486,
      "莨": 3487,
      "莪": 3488,
      "莫": 3489,
      "莱": 3490,
      "莲": 3491,
      "莽": 3492,
      "菀": 3493,
      "菅": 3494,
      "菊": 3495,
      "菎": 3496,
      "菔": 3497,
      "菖": 3498,
      "菜": 3499,
      "華": 3500,
      "菱": 3501,
      "菴": 3502,
      "菹": 3503,
      "萆": 3504,
      "萊": 3505,
      "萌": 3506,
      "萧": 3507,
      "萨": 3508,
      "萬": 3509,
      "萸": 3510,
      "落": 3511,
      "葆": 3512,
      "葉": 3513,
      "著": 3514,
      "葛": 3515,
      "葱": 3516,
      "葵": 3517,
      "葶": 3518,
      "蒋": 3519,
      "蒐": 3520,
      "蒙": 3521,
      "蒜": 3522,
      "蒟": 3523,
      "蒡": 3524,
      "蒲": 3525,
      "蒻": 3526,
      "蒼": 3527,
      "蒿": 3528,
      "蓀": 3529,
      "蓁": 3530,
      "蓉": 3531,
      "蓋": 3532,
      "蓑": 3533,
      "蓝": 3534,
      "蓟": 3535,
      "蓮": 3536,
      "蓯": 3537,
      "蔡": 3538,
      "蔵": 3539,
      "蔻": 3540,
      "蕤": 3541,
      "蕩": 3542,
      "蕭": 3543,
      "薄": 3544,
      "薇": 3545,
      "薏": 3546,
      "薑": 3547,
      "薔": 3548,
      "薛": 3549,
      "薢": 3550,
      "薤": 3551,
      "薩": 3552,
      "薪": 3553,
      "薰": 3554,
      "薷": 3555,
      "藍": 3556,
      "藏": 3557,
      "藤": 3558,
      "藥": 3559,
      "藩": 3560,
      "藻": 3561,
      "藿": 3562,
      "蘄": 3563,
      "蘇": 3564,
      "蘊": 3565,
      "蘭": 3566,
      "虎": 3567,
      "處": 3568,
      "虛": 3569,
      "虫": 3570,
      "虹": 3571,
      "蚧": 3572,
      "蛇": 3573,
      "蛙": 3574,
      "蛤": 3575,
      "蛭": 3576,
      "蛸": 3577,
      "蜀": 3578,
      "蜕": 3579,
      "蝉": 3580,
      "蝶": 3581,
      "融": 3582,
      "螞": 3583,
      "螵": 3584,
      "蟻": 3585,
      "蟾": 3586,
      "蠅": 3587,
      "蠣": 3588,
      "血": 3589,
      "衆": 3590,
      "行": 3591,
      "術": 3592,
      "街": 3593,
      "衛": 3594,
      "衝": 3595,
      "衣": 3596,
      "补": 3597,
      "衫": 3598,
      "衰": 3599,
      "袁": 3600,
      "袋": 3601,
      "裏": 3602,
      "裕": 3603,
      "裙": 3604,
      "補": 3605,
      "裳": 3606,
      "裴": 3607,
      "裸": 3608,
      "製": 3609,
      "褻": 3610,
      "襲": 3611,
      "西": 3612,
      "要": 3613,
      "覆": 3614,
      "見": 3615,
      "視": 3616,
      "覚": 3617,
      "親": 3618,
      "観": 3619,
      "覺": 3620,
      "觀": 3621,
      "见": 3622,
      "观": 3623,
      "视": 3624,
      "角": 3625,
      "解": 3626,
      "言": 3627,
      "訓": 3628,
      "記": 3629,
      "訣": 3630,
      "設": 3631,
      "訶": 3632,
      "証": 3633,
      "評": 3634,
      "詠": 3635,
      "話": 3636,
      "詳": 3637,
      "誌": 3638,
      "語": 3639,
      "誠": 3640,
      "說": 3641,
      "説": 3642,
      "読": 3643,
      "誰": 3644,
      "調": 3645,
      "談": 3646,
      "論": 3647,
      "諸": 3648,
      "謁": 3649,
      "謎": 3650,
      "謝": 3651,
      "謫": 3652,
      "識": 3653,
      "譜": 3654,
      "警": 3655,
      "議": 3656,
      "護": 3657,
      "讃": 3658,
      "變": 3659,
      "讓": 3660,
      "认": 3661,
      "让": 3662,
      "训": 3663,
      "讯": 3664,
      "记": 3665,
      "讲": 3666,
      "许": 3667,
      "诏": 3668,
      "诗": 3669,
      "诚": 3670,
      "话": 3671,
      "该": 3672,
      "语": 3673,
      "说": 3674,
      "请": 3675,
      "谎": 3676,
      "谐": 3677,
      "谦": 3678,
      "谷": 3679,
      "豆": 3680,
      "豉": 3681,
      "豊": 3682,
      "豐": 3683,
      "豚": 3684,
      "象": 3685,
      "豫": 3686,
      "豬": 3687,
      "貝": 3688,
      "貞": 3689,
      "財": 3690,
      "貫": 3691,
      "責": 3692,
      "貳": 3693,
      "貴": 3694,
      "貶": 3695,
      "買": 3696,
      "貼": 3697,
      "資": 3698,
      "賈": 3699,
      "賓": 3700,
      "賔": 3701,
      "賜": 3702,
      "賞": 3703,
      "賢": 3704,
      "賦": 3705,
      "質": 3706,
      "賴": 3707,
      "賽": 3708,
      "贊": 3709,
      "贝": 3710,
      "贞": 3711,
      "财": 3712,
      "贤": 3713,
      "败": 3714,
      "贫": 3715,
      "贯": 3716,
      "贵": 3717,
      "贺": 3718,
      "贼": 3719,
      "资": 3720,
      "赛": 3721,
      "赞": 3722,
      "赤": 3723,
      "赫": 3724,
      "赭": 3725,
      "走": 3726,
      "赵": 3727,
      "起": 3728,
      "超": 3729,
      "越": 3730,
      "趙": 3731,
      "趣": 3732,
      "足": 3733,
      "跌": 3734,
      "路": 3735,
      "蹊": 3736,
      "蹴": 3737,
      "身": 3738,
      "躬": 3739,
      "車": 3740,
      "軍": 3741,
      "軒": 3742,
      "転": 3743,
      "軫": 3744,
      "軸": 3745,
      "軼": 3746,
      "軾": 3747,
      "輔": 3748,
      "輝": 3749,
      "輪": 3750,
      "輯": 3751,
      "輿": 3752,
      "轄": 3753,
      "轉": 3754,
      "车": 3755,
      "轮": 3756,
      "载": 3757,
      "辆": 3758,
      "辈": 3759,
      "辛": 3760,
      "辞": 3761,
      "辣": 3762,
      "辦": 3763,
      "辰": 3764,
      "農": 3765,
      "边": 3766,
      "辺": 3767,
      "込": 3768,
      "辽": 3769,
      "达": 3770,
      "迅": 3771,
      "过": 3772,
      "迈": 3773,
      "运": 3774,
      "近": 3775,
      "返": 3776,
      "还": 3777,
      "进": 3778,
      "远": 3779,
      "连": 3780,
      "迦": 3781,
      "迪": 3782,
      "迫": 3783,
      "述": 3784,
      "迴": 3785,
      "迷": 3786,
      "追": 3787,
      "送": 3788,
      "逃": 3789,
      "逆": 3790,
      "选": 3791,
      "逊": 3792,
      "透": 3793,
      "途": 3794,
      "通": 3795,
      "速": 3796,
      "造": 3797,
      "連": 3798,
      "逥": 3799,
      "週": 3800,
      "進": 3801,
      "逴": 3802,
      "逸": 3803,
      "遂": 3804,
      "遇": 3805,
      "遊": 3806,
      "運": 3807,
      "遍": 3808,
      "過": 3809,
      "道": 3810,
      "達": 3811,
      "違": 3812,
      "遠": 3813,
      "選": 3814,
      "遼": 3815,
      "邉": 3816,
      "邊": 3817,
      "邑": 3818,
      "邡": 3819,
      "那": 3820,
      "邦": 3821,
      "邯": 3822,
      "邳": 3823,
      "邴": 3824,
      "邵": 3825,
      "邸": 3826,
      "邻": 3827,
      "郁": 3828,
      "郎": 3829,
      "郑": 3830,
      "郡": 3831,
      "部": 3832,
      "郭": 3833,
      "郷": 3834,
      "都": 3835,
      "鄉": 3836,
      "鄒": 3837,
      "鄧": 3838,
      "鄭": 3839,
      "鄮": 3840,
      "鄰": 3841,
      "配": 3842,
      "酒": 3843,
      "酱": 3844,
      "酸": 3845,
      "醂": 3846,
      "醉": 3847,
      "醋": 3848,
      "醤": 3849,
      "醫": 3850,
      "醲": 3851,
      "釈": 3852,
      "釋": 3853,
      "里": 3854,
      "重": 3855,
      "野": 3856,
      "量": 3857,
      "金": 3858,
      "釘": 3859,
      "釜": 3860,
      "鈴": 3861,
      "鈸": 3862,
      "鉄": 3863,
      "鉅": 3864,
      "鉢": 3865,
      "鉴": 3866,
      "銀": 3867,
      "銃": 3868,
      "銘": 3869,
      "鋏": 3870,
      "鋼": 3871,
      "錄": 3872,
      "錢": 3873,
      "錦": 3874,
      "録": 3875,
      "鍋": 3876,
      "鍠": 3877,
      "鍾": 3878,
      "鎌": 3879,
      "鎖": 3880,
      "鎞": 3881,
      "鎭": 3882,
      "鎮": 3883,
      "鏊": 3884,
      "鏟": 3885,
      "鏡": 3886,
      "鐵": 3887,
      "鑑": 3888,
      "鑛": 3889,
      "鑴": 3890,
      "针": 3891,
      "钏": 3892,
      "钞": 3893,
      "钟": 3894,
      "钱": 3895,
      "铁": 3896,
      "铃": 3897,
      "银": 3898,
      "锅": 3899,
      "键": 3900,
      "镇": 3901,
      "镜": 3902,
      "長": 3903,
      "镸": 3904,
      "长": 3905,
      "門": 3906,
      "閆": 3907,
      "開": 3908,
      "閏": 3909,
      "閑": 3910,
      "間": 3911,
      "関": 3912,
      "閣": 3913,
      "閻": 3914,
      "闘": 3915,
      "關": 3916,
      "闞": 3917,
      "门": 3918,
      "闫": 3919,
      "闭": 3920,
      "问": 3921,
      "间": 3922,
      "闻": 3923,
      "阁": 3924,
      "阜": 3925,
      "队": 3926,
      "阪": 3927,
      "阮": 3928,
      "防": 3929,
      "阳": 3930,
      "阴": 3931,
      "阿": 3932,
      "陀": 3933,
      "附": 3934,
      "际": 3935,
      "陆": 3936,
      "陈": 3937,
      "降": 3938,
      "限": 3939,
      "院": 3940,
      "陣": 3941,
      "险": 3942,
      "陰": 3943,
      "陳": 3944,
      "陵": 3945,
      "陶": 3946,
      "陸": 3947,
      "険": 3948,
      "陽": 3949,
      "隆": 3950,
      "隐": 3951,
      "隗": 3952,
      "障": 3953,
      "險": 3954,
      "隱": 3955,
      "隷": 3956,
      "难": 3957,
      "雀": 3958,
      "雁": 3959,
      "雄": 3960,
      "雅": 3961,
      "集": 3962,
      "雋": 3963,
      "雒": 3964,
      "雖": 3965,
      "雙": 3966,
      "雞": 3967,
      "雨": 3968,
      "雪": 3969,
      "雲": 3970,
      "零": 3971,
      "雷": 3972,
      "電": 3973,
      "需": 3974,
      "霄": 3975,
      "霆": 3976,
      "震": 3977,
      "霊": 3978,
      "霍": 3979,
      "霖": 3980,
      "霜": 3981,
      "霞": 3982,
      "霧": 3983,
      "霸": 3984,
      "靂": 3985,
      "靈": 3986,
      "青": 3987,
      "靖": 3988,
      "静": 3989,
      "靜": 3990,
      "非": 3991,
      "靠": 3992,
      "面": 3993,
      "革": 3994,
      "靴": 3995,
      "鞠": 3996,
      "韓": 3997,
      "韜": 3998,
      "韦": 3999,
      "韩": 4000,
      "音": 4001,
      "韶": 4002,
      "響": 4003,
      "頂": 4004,
      "順": 4005,
      "須": 4006,
      "頓": 4007,
      "領": 4008,
      "頭": 4009,
      "頷": 4010,
      "頼": 4011,
      "題": 4012,
      "顏": 4013,
      "願": 4014,
      "類": 4015,
      "顧": 4016,
      "顯": 4017,
      "顶": 4018,
      "顺": 4019,
      "题": 4020,
      "風": 4021,
      "风": 4022,
      "飘": 4023,
      "飛": 4024,
      "飞": 4025,
      "食": 4026,
      "飯": 4027,
      "餅": 4028,
      "養": 4029,
      "餐": 4030,
      "館": 4031,
      "饅": 4032,
      "饭": 4033,
      "馆": 4034,
      "首": 4035,
      "香": 4036,
      "馨": 4037,
      "馬": 4038,
      "馮": 4039,
      "駅": 4040,
      "駰": 4041,
      "駻": 4042,
      "駿": 4043,
      "騎": 4044,
      "騭": 4045,
      "驅": 4046,
      "驚": 4047,
      "马": 4048,
      "驻": 4049,
      "骨": 4050,
      "體": 4051,
      "高": 4052,
      "髪": 4053,
      "髮": 4054,
      "鬚": 4055,
      "鬱": 4056,
      "鬼": 4057,
      "魁": 4058,
      "魂": 4059,
      "魅": 4060,
      "魏": 4061,
      "魔": 4062,
      "魚": 4063,
      "魯": 4064,
      "鮎": 4065,
      "鮑": 4066,
      "鮓": 4067,
      "鮨": 4068,
      "鮪": 4069,
      "鮮": 4070,
      "鯀": 4071,
      "鯊": 4072,
      "鰯": 4073,
      "鱀": 4074,
      "鱈": 4075,
      "鱉": 4076,
      "鱒": 4077,
      "鱚": 4078,
      "鱼": 4079,
      "鲁": 4080,
      "鲜": 4081,
      "鳥": 4082,
      "鳳": 4083,
      "鳴": 4084,
      "鳶": 4085,
      "鴻": 4086,
      "鵝": 4087,
      "鵬": 4088,
      "鵰": 4089,
      "鷆": 4090,
      "鸞": 4091,
      "鸡": 4092,
      "鸿": 4093,
      "鹅": 4094,
      "鹤": 4095,
      "鹰": 4096,
      "鹽": 4097,
      "鹿": 4098,
      "麒": 4099,
      "麓": 4100,
      "麗": 4101,
      "麝": 4102,
      "麟": 4103,
      "麦": 4104,
      "麩": 4105,
      "麴": 4106,
      "麹": 4107,
      "麻": 4108,
      "黃": 4109,
      "黄": 4110,
      "黎": 4111,
      "黑": 4112,
      "黒": 4113,
      "默": 4114,
      "黛": 4115,
      "點": 4116,
      "黨": 4117,
      "鼐": 4118,
      "鼠": 4119,
      "鼻": 4120,
      "齊": 4121,
      "齋": 4122,
      "齦": 4123,
      "齿": 4124,
      "龍": 4125,
      "龐": 4126,
      "龙": 4127,
      "龜": 4128,
      "龟": 4129,
      "ꙑ": 4130,
      "ꙥ": 4131,
      "ꙩ": 4132,
      "ꜧ": 4133,
      "꞉": 4134,
      "ꞯ": 4135,
      "ꤷ": 4136,
      "ꤼ": 4137,
      "ꥁ": 4138,
      "ꦑ": 4139,
      "ꦗ": 4140,
      "ꦢ": 4141,
      "ꦮ": 4142,
      "꧈": 4143,
      "ꭰ": 4144,
      "ꭲ": 4145,
      "ꭴ": 4146,
      "ꭵ": 4147,
      "ꭶ": 4148,
      "ꭹ": 4149,
      "ꭿ": 4150,
      "ꮃ": 4151,
      "ꮅ": 4152,
      "ꮕ": 4153,
      "ꮝ": 4154,
      "ꮢ": 4155,
      "ꮣ": 4156,
      "ꮧ": 4157,
      "ꮪ": 4158,
      "ꮵ": 4159,
      "ꮻ": 4160,
      "ꮿ": 4161,
      "ꯀ": 4162,
      "ꯁ": 4163,
      "ꯂ": 4164,
      "ꯃ": 4165,
      "ꯄ": 4166,
      "ꯅ": 4167,
      "ꯆ": 4168,
      "ꯇ": 4169,
      "ꯈ": 4170,
      "ꯉ": 4171,
      "ꯊ": 4172,
      "ꯍ": 4173,
      "ꯎ": 4174,
      "ꯏ": 4175,
      "ꯑ": 4176,
      "ꯔ": 4177,
      "ꯕ": 4178,
      "ꯖ": 4179,
      "ꯗ": 4180,
      "ꯛ": 4181,
      "ꯜ": 4182,
      "ꯝ": 4183,
      "ꯟ": 4184,
      "ꯡ": 4185,
      "ꯢ": 4186,
      "ꯣ": 4187,
      "ꯤ": 4188,
      "ꯦ": 4189,
      "ꯧ": 4190,
      "ꯩ": 4191,
      "﨑": 4192,
      "ﬁ": 4193,
      "ﬂ": 4194,
      "ﷲ": 4195,
      "﹎": 4196,
      "﹔": 4197,
      "ﺍ": 4198,
      "ﺎ": 4199,
      "ﺏ": 4200,
      "ﺒ": 4201,
      "ﺠ": 4202,
      "ﺤ": 4203,
      "ﺩ": 4204,
      "ﺪ": 4205,
      "ﺴ": 4206,
      "ﺷ": 4207,
      "ﻀ": 4208,
      "ﻁ": 4209,
      "ﻋ": 4210,
      "ﻓ": 4211,
      "ﻙ": 4212,
      "ﻞ": 4213,
      "ﻟ": 4214,
      "ﻠ": 4215,
      "ﻣ": 4216,
      "ﻨ": 4217,
      "ﻩ": 4218,
      "ﻫ": 4219,
      "ﻮ": 4220,
      "ﻲ": 4221,
      "！": 4222,
      "＄": 4223,
      "（": 4224,
      "）": 4225,
      "＊": 4226,
      "，": 4227,
      "－": 4228,
      "．": 4229,
      "／": 4230,
      "２": 4231,
      "５": 4232,
      "：": 4233,
      "；": 4234,
      "＞": 4235,
      "？": 4236,
      "＿": 4237,
      "｝": 4238,
      "～": 4239,
      "ｺ": 4240,
      "ﾁ": 4241,
      "ﾃ": 4242,
      "ﾄ": 4243,
      "￣": 4244,
      "￥": 4245,
      "￦": 4246,
      "￼": 4247,
      "𐎹": 4248,
      "𐤁": 4249,
      "𐤂": 4250,
      "𐤋": 4251,
      "𐨐": 4252,
      "𐨤": 4253,
      "𐨪": 4254,
      "𐬀": 4255,
      "𐬌": 4256,
      "𐬨": 4257,
      "𐬫": 4258,
      "𑐣": 4259,
      "𑐰": 4260,
      "𑐵": 4261,
      "𑐾": 4262,
      "𑑅": 4263,
      "𒀸": 4264,
      "𒁺": 4265,
      "𒋗": 4266,
      "𓏞": 4267,
      "𓏟": 4268,
      "𝄆": 4269,
      "𝄇": 4270,
      "𝄫": 4271,
      "𝝱": 4272,
      "𞤢": 4273,
      "𞤣": 4274,
      "𞤤": 4275,
      "𞤥": 4276,
      "𞤪": 4277,
      "𞤫": 4278,
      "𞤭": 4279,
      "𞤲": 4280,
      "𞥄": 4281,
      "𞥆": 4282,
      "🇪": 4283,
      "🇸": 4284,
      "💗": 4285,
      "💩": 4286,
      "😃": 4287,
      "😆": 4288,
      "😞": 4289,
      "😷": 4290,
      "🜸": 4291,
      "🤓": 4292,
      "##r": 4293,
      "##i": 4294,
      "##g": 4295,
      "##h": 4296,
      "##t": 4297,
      "##e": 4298,
      "##n": 4299,
      "##s": 4300,
      "##a": 4301,
      "##o": 4302,
      "##u": 4303,
      "##d": 4304,
      "##f": 4305,
      "##l": 4306,
      "##p": 4307,
      "##y": 4308,
      "##b": 4309,
      "##k": 4310,
      "##c": 4311,
      "##w": 4312,
      "##m": 4313,
      "##j": 4314,
      "##1": 4315,
      "##3": 4316,
      "##z": 4317,
      "##7": 4318,
      "##0": 4319,
      "##8": 4320,
      "##v": 4321,
      "##x": 4322,
      "##α": 4323,
      "##ν": 4324,
      "##τ": 4325,
      "##σ": 4326,
      "##ι": 4327,
      "##ς": 4328,
      "##2": 4329,
      "##9": 4330,
      "##6": 4331,
      "##5": 4332,
      "##q": 4333,
      "##4": 4334,
      "##¸": 4335,
      "##´": 4336,
      "##υ": 4337,
      "##ρ": 4338,
      "##ο": 4339,
      "##λ": 4340,
      "##γ": 4341,
      "##η": 4342,
      "##ャ": 4343,
      "##ー": 4344,
      "##チ": 4345,
      "##¨": 4346,
      "##а": 4347,
      "##з": 4348,
      "##х": 4349,
      "##с": 4350,
      "##т": 4351,
      "##н": 4352,
      "##ø": 4353,
      "##ꯡ": 4354,
      "##ꯃ": 4355,
      "##ꯩ": 4356,
      "##ꯇ": 4357,
      "##ꯣ": 4358,
      "##ꯟ": 4359,
      "##ଙ": 4360,
      "##କ": 4361,
      "##ା": 4362,
      "##°": 4363,
      "##π": 4364,
      "##μ": 4365,
      "##æ": 4366,
      "##ি": 4367,
      "##শ": 4368,
      "##ব": 4369,
      "##দ": 4370,
      "##য": 4371,
      "##া": 4372,
      "##ল": 4373,
      "##ı": 4374,
      "##ᅡ": 4375,
      "##ᄑ": 4376,
      "##ᅦ": 4377,
      "##ग": 4378,
      "##र": 4379,
      "##ा": 4380,
      "##ऊ": 4381,
      "##®": 4382,
      "##¤": 4383,
      "##£": 4384,
      "##±": 4385,
      "##ð": 4386,
      "##о": 4387,
      "##ণ": 4388,
      "##প": 4389,
      "##র": 4390,
      "##জ": 4391,
      "##ত": 4392,
      "##ন": 4393,
      "##ী": 4394,
      "##ل": 4395,
      "##ي": 4396,
      "##س": 4397,
      "##ا": 4398,
      "##⁄": 4399,
      "##₃": 4400,
      "##ß": 4401,
      "##κ": 4402,
      "##ﬂ": 4403,
      "##œ": 4404,
      "##ł": 4405,
      "##ꯧ": 4406,
      "##ꯗ": 4407,
      "##ε": 4408,
      "##м": 4409,
      "##е": 4410,
      "##і": 4411,
      "##る": 4412,
      "##た": 4413,
      "##め": 4414,
      "##の": 4415,
      "##к": 4416,
      "##р": 4417,
      "##ь": 4418,
      "##€": 4419,
      "##ᅧ": 4420,
      "##ᆼ": 4421,
      "##ᄋ": 4422,
      "##ᆫ": 4423,
      "##ᄃ": 4424,
      "##ᅩ": 4425,
      "##ᄇ": 4426,
      "##ᄆ": 4427,
      "##ᄌ": 4428,
      "##ᅥ": 4429,
      "##ᆯ": 4430,
      "##ᄉ": 4431,
      "##ر": 4432,
      "##ة": 4433,
      "##タ": 4434,
      "##モ": 4435,
      "##テ": 4436,
      "##പ": 4437,
      "##ങ": 4438,
      "##и": 4439,
      "##ج": 4440,
      "##د": 4441,
      "##п": 4442,
      "##ด": 4443,
      "##ก": 4444,
      "##ำ": 4445,
      "##แ": 4446,
      "##พ": 4447,
      "##ง": 4448,
      "##ล": 4449,
      "##þ": 4450,
      "##ʼ": 4451,
      "##¢": 4452,
      "##β": 4453,
      "##щ": 4454,
      "##त": 4455,
      "##य": 4456,
      "##ी": 4457,
      "##গ": 4458,
      "##ে": 4459,
      "##ζ": 4460,
      "##♪": 4461,
      "##ш": 4462,
      "##в": 4463,
      "##ц": 4464,
      "##ป": 4465,
      "##า": 4466,
      "##ค": 4467,
      "##อ": 4468,
      "##ม": 4469,
      "##ะ": 4470,
      "##ข": 4471,
      "##เ": 4472,
      "##ฒ": 4473,
      "##ो": 4474,
      "##ʿ": 4475,
      "##²": 4476,
      "##マ": 4477,
      "##χ": 4478,
      "##ː": 4479,
      "##ɪ": 4480,
      "##у": 4481,
      "##ن": 4482,
      "##⁻": 4483,
      "##⁸": 4484,
      "##¹": 4485,
      "##ω": 4486,
      "##ʔ": 4487,
      "##₄": 4488,
      "##ר": 4489,
      "##ע": 4490,
      "##ק": 4491,
      "##ʾ": 4492,
      "##ⴰ": 4493,
      "##ⵏ": 4494,
      "##ⵊ": 4495,
      "##ੀ": 4496,
      "##ਨ": 4497,
      "##ਾ": 4498,
      "##л": 4499,
      "##و": 4500,
      "##ح": 4501,
      "##¬": 4502,
      "##ع": 4503,
      "##٥": 4504,
      "##٨": 4505,
      "##١": 4506,
      "##م": 4507,
      "##し": 4508,
      "##ق": 4509,
      "##ª": 4510,
      "##ʃ": 4511,
      "##स": 4512,
      "##ა": 4513,
      "##ლ": 4514,
      "##ვ": 4515,
      "##ძ": 4516,
      "##ე": 4517,
      "##º": 4518,
      "##ᅮ": 4519,
      "##ᅢ": 4520,
      "##ᄒ": 4521,
      "##ᆨ": 4522,
      "##ᄀ": 4523,
      "##ᅭ": 4524,
      "##←": 4525,
      "##ء": 4526,
      "##ෙ": 4527,
      "##ද": 4528,
      "##न": 4529,
      "##ᅵ": 4530,
      "##ᅪ": 4531,
      "##δ": 4532,
      "##ч": 4533,
      "##ы": 4534,
      "##½": 4535,
      "##०": 4536,
      "##ب": 4537,
      "##я": 4538,
      "##ت": 4539,
      "##ਜ": 4540,
      "##ਮ": 4541,
      "##ਰ": 4542,
      "##ニ": 4543,
      "##ハ": 4544,
      "##サ": 4545,
      "##ル": 4546,
      "##シ": 4547,
      "##ィ": 4548,
      "##ю": 4549,
      "##ɛ": 4550,
      "##บ": 4551,
      "##д": 4552,
      "##น": 4553,
      "##ว": 4554,
      "##ร": 4555,
      "##ห": 4556,
      "##ย": 4557,
      "##ى": 4558,
      "##ز": 4559,
      "##ە": 4560,
      "##ك": 4561,
      "##−": 4562,
      "##ッ": 4563,
      "##カ": 4564,
      "##ف": 4565,
      "##خ": 4566,
      "##ث": 4567,
      "##¼": 4568,
      "##ラ": 4569,
      "##ヒ": 4570,
      "##ア": 4571,
      "##イ": 4572,
      "##ト": 4573,
      "##ɬ": 4574,
      "##ד": 4575,
      "##ל": 4576,
      "##ש": 4577,
      "##ט": 4578,
      "##י": 4579,
      "##ן": 4580,
      "##∇": 4581,
      "##˜": 4582,
      "##♫": 4583,
      "##ท": 4584,
      "##ʻ": 4585,
      "##φ": 4586,
      "##θ": 4587,
      "##౦": 4588,
      "##א": 4589,
      "##כ": 4590,
      "##ו": 4591,
      "##ב": 4592,
      "##⋅": 4593,
      "##گ": 4594,
      "##व": 4595,
      "##क": 4596,
      "##て": 4597,
      "##こ": 4598,
      "##リ": 4599,
      "##ク": 4600,
      "##フ": 4601,
      "##ం": 4602,
      "##ధ": 4603,
      "##ర": 4604,
      "##ప": 4605,
      "##ద": 4606,
      "##శ": 4607,
      "##ش": 4608,
      "##ン": 4609,
      "##ธ": 4610,
      "##ต": 4611,
      "##ꯔ": 4612,
      "##ꯦ": 4613,
      "##ん": 4614,
      "##г": 4615,
      "##ᆷ": 4616,
      "##ส": 4617,
      "##ถ": 4618,
      "##¯": 4619,
      "##ᅣ": 4620,
      "##ᄎ": 4621,
      "##ᄂ": 4622,
      "##ᅬ": 4623,
      "##ס": 4624,
      "##ʒ": 4625,
      "##♬": 4626,
      "##˺": 4627,
      "##ʁ": 4628,
      "##ж": 4629,
      "##đ": 4630,
      "##ୟ": 4631,
      "##େ": 4632,
      "##ତ": 4633,
      "##ସ": 4634,
      "##ନ": 4635,
      "##ی": 4636,
      "##ʰ": 4637,
      "##ि": 4638,
      "##¥": 4639,
      "##µ": 4640,
      "##ไ": 4641,
      "##ใ": 4642,
      "##ญ": 4643,
      "##ه": 4644,
      "##╗": 4645,
      "##ј": 4646,
      "##も": 4647,
      "##ɾ": 4648,
      "##ल": 4649,
      "##द": 4650,
      "##ʹ": 4651,
      "##ே": 4652,
      "##ன": 4653,
      "##ﻀ": 4654,
      "##ﻞ": 4655,
      "##¾": 4656,
      "##٤": 4657,
      "##٩": 4658,
      "##ћ": 4659,
      "##→": 4660,
      "##ℕ": 4661,
      "##ර": 4662,
      "##ස": 4663,
      "##ං": 4664,
      "##ග": 4665,
      "##ය": 4666,
      "##ᄐ": 4667,
      "##×": 4668,
      "##ᅳ": 4669,
      "##ᄅ": 4670,
      "##わ": 4671,
      "##さ": 4672,
      "##き": 4673,
      "##え": 4674,
      "##ə": 4675,
      "##ص": 4676,
      "##ط": 4677,
      "##ூ": 4678,
      "##ர": 4679,
      "##ி": 4680,
      "##ய": 4681,
      "##б": 4682,
      "##ɔ": 4683,
      "##ɹ": 4684,
      "##ᅲ": 4685,
      "##ɳ": 4686,
      "##ᴍ": 4687,
      "##り": 4688,
      "##ʳ": 4689,
      "##ᅨ": 4690,
      "##ㄨ": 4691,
      "##ㄣ": 4692,
      "##¦": 4693,
      "##け": 4694,
      "##আ": 4695,
      "##ᆸ": 4696,
      "##হ": 4697,
      "##म": 4698,
      "##ः": 4699,
      "##ロ": 4700,
      "##ի": 4701,
      "##ր": 4702,
      "##ա": 4703,
      "##կ": 4704,
      "##च": 4705,
      "##♯": 4706,
      "##コ": 4707,
      "##ߊ": 4708,
      "##ߛ": 4709,
      "##ߏ": 4710,
      "##ߖ": 4711,
      "##ߡ": 4712,
      "##ߣ": 4713,
      "##נ": 4714,
      "##ψ": 4715,
      "##ゆ": 4716,
      "##み": 4717,
      "##ם": 4718,
      "##ज": 4719,
      "##ञ": 4720,
      "##ℝ": 4721,
      "##│": 4722,
      "##چ": 4723,
      "##զ": 4724,
      "##ħ": 4725,
      "##ഷ": 4726,
      "##േ": 4727,
      "##ത": 4728,
      "##ര": 4729,
      "##ം": 4730,
      "##⊙": 4731,
      "##ꯢ": 4732,
      "##უ": 4733,
      "##რ": 4734,
      "##ჯ": 4735,
      "##ნ": 4736,
      "##ᅯ": 4737,
      "##ˆ": 4738,
      "##থ": 4739,
      "##™": 4740,
      "##ภ": 4741,
      "##ณ": 4742,
      "##ฑ": 4743,
      "##ช": 4744,
      "##ـ": 4745,
      "##ﬁ": 4746,
      "##ゅ": 4747,
      "##う": 4748,
      "##い": 4749,
      "##٧": 4750,
      "##ʷ": 4751,
      "##գ": 4752,
      "##ո": 4753,
      "##ˈ": 4754,
      "##ण": 4755,
      "##ड": 4756,
      "##ス": 4757,
      "##ক": 4758,
      "##ނ": 4759,
      "##ބ": 4760,
      "##ޑ": 4761,
      "##ރ": 4762,
      "##ら": 4763,
      "##ک": 4764,
      "##ү": 4765,
      "##ф": 4766,
      "##ә": 4767,
      "##─": 4768,
      "##┴": 4769,
      "##ղ": 4770,
      "##յ": 4771,
      "##ն": 4772,
      "##ʌ": 4773,
      "##ฬ": 4774,
      "##ᴇ": 4775,
      "##ケ": 4776,
      "##に": 4777,
      "##ট": 4778,
      "##ض": 4779,
      "##ӏ": 4780,
      "##♥": 4781,
      "##ბ": 4782,
      "##ජ": 4783,
      "##න": 4784,
      "##や": 4785,
      "##भ": 4786,
      "##ъ": 4787,
      "##ம": 4788,
      "##ப": 4789,
      "##ை": 4790,
      "##จ": 4791,
      "##ה": 4792,
      "##ʲ": 4793,
      "##ڑ": 4794,
      "##ہ": 4795,
      "##ށ": 4796,
      "##މ": 4797,
      "##☆": 4798,
      "##΄": 4799,
      "##โ": 4800,
      "##ฟ": 4801,
      "##ʎ": 4802,
      "##┬": 4803,
      "##श": 4804,
      "##ө": 4805,
      "##ौ": 4806,
      "##ᗸ": 4807,
      "##ᒡ": 4808,
      "##ᄁ": 4809,
      "##ᆾ": 4810,
      "##エ": 4811,
      "##ˌ": 4812,
      "##ʊ": 4813,
      "##ㅡ": 4814,
      "##ट": 4815,
      "##ණ": 4816,
      "##ව": 4817,
      "##ක": 4818,
      "##ळ": 4819,
      "##ா": 4820,
      "##த": 4821,
      "##ு": 4822,
      "##க": 4823,
      "##ޝ": 4824,
      "##ւ": 4825,
      "##ք": 4826,
      "##³": 4827,
      "##©": 4828,
      "##ϲ": 4829,
      "##ɐ": 4830,
      "##を": 4831,
      "##か": 4832,
      "##ម": 4833,
      "##פ": 4834,
      "##ា": 4835,
      "##ェ": 4836,
      "##ಂ": 4837,
      "##ಗ": 4838,
      "##ಣ": 4839,
      "##ಯ": 4840,
      "##ɨ": 4841,
      "##ɑ": 4842,
      "##ম": 4843,
      "##ᅴ": 4844,
      "##≥": 4845,
      "##ξ": 4846,
      "##ब": 4847,
      "##ʦ": 4848,
      "##չ": 4849,
      "##љ": 4850,
      "##ۆ": 4851,
      "##प": 4852,
      "##∈": 4853,
      "##ษ": 4854,
      "##ા": 4855,
      "##બ": 4856,
      "##ડ": 4857,
      "##ɡ": 4858,
      "##ゃ": 4859,
      "##ג": 4860,
      "##ᄍ": 4861,
      "##ꯤ": 4862,
      "##ꯊ": 4863,
      "##あ": 4864,
      "##く": 4865,
      "##せ": 4866,
      "##ঞ": 4867,
      "##ই": 4868,
      "##ሊ": 4869,
      "##ং": 4870,
      "##ꯕ": 4871,
      "##త": 4872,
      "##ు": 4873,
      "##క": 4874,
      "##ూ": 4875,
      "##ల": 4876,
      "##÷": 4877,
      "##מ": 4878,
      "##ך": 4879,
      "##∀": 4880,
      "##ெ": 4881,
      "##ண": 4882,
      "##ட": 4883,
      "##խ": 4884,
      "##ㅂ": 4885,
      "##ㅇ": 4886,
      "##ತ": 4887,
      "##ೕ": 4888,
      "##ಶ": 4889,
      "##ವ": 4890,
      "##ರ": 4891,
      "##ผ": 4892,
      "##ﺤ": 4893,
      "##ඥ": 4894,
      "##ා": 4895,
      "##স": 4896,
      "##ह": 4897,
      "##ᓄ": 4898,
      "##ᐃ": 4899,
      "##ᑦ": 4900,
      "##ظ": 4901,
      "##ਲ": 4902,
      "##∞": 4903,
      "##ち": 4904,
      "##ਬ": 4905,
      "##˚": 4906,
      "##భ": 4907,
      "##ష": 4908,
      "##э": 4909,
      "##ת": 4910,
      "##ꯜ": 4911,
      "##ذ": 4912,
      "##ɒ": 4913,
      "##ᝢ": 4914,
      "##ま": 4915,
      "##す": 4916,
      "##よ": 4917,
      "##₂": 4918,
      "##ᅱ": 4919,
      "##ʏ": 4920,
      "##ම": 4921,
      "##ಾ": 4922,
      "##ಕ": 4923,
      "##ಟ": 4924,
      "##њ": 4925,
      "##ष": 4926,
      "##ひ": 4927,
      "##ホ": 4928,
      "##ພ": 4929,
      "##ຫ": 4930,
      "##ສ": 4931,
      "##ލ": 4932,
      "##ގ": 4933,
      "##ފ": 4934,
      "##ॉ": 4935,
      "##غ": 4936,
      "##ז": 4937,
      "##ທ": 4938,
      "##ຍ": 4939,
      "##ໃ": 4940,
      "##ဆ": 4941,
      "##ပ": 4942,
      "##ရ": 4943,
      "##ศ": 4944,
      "##ध": 4945,
      "##ད": 4946,
      "##℃": 4947,
      "##ڠ": 4948,
      "##ৈ": 4949,
      "##メ": 4950,
      "##ナ": 4951,
      "##ヌ": 4952,
      "##ㅎ": 4953,
      "##ꯝ": 4954,
      "##ප": 4955,
      "##ෂ": 4956,
      "##⁴": 4957,
      "##⁵": 4958,
      "##ˀ": 4959,
      "##պ": 4960,
      "##ե": 4961,
      "##օ": 4962,
      "##ߟ": 4963,
      "##ߌ": 4964,
      "##ܚ": 4965,
      "##ܐ": 4966,
      "##ܒ": 4967,
      "##ソ": 4968,
      "##ム": 4969,
      "##އ": 4970,
      "##ޒ": 4971,
      "##ތ": 4972,
      "##ウ": 4973,
      "##ৎ": 4974,
      "##ŋ": 4975,
      "##վ": 4976,
      "##հ": 4977,
      "##ս": 4978,
      "##ር": 4979,
      "##አ": 4980,
      "##٢": 4981,
      "##ޖ": 4982,
      "##ސ": 4983,
      "##ೂ": 4984,
      "##ಲ": 4985,
      "##թ": 4986,
      "##⅓": 4987,
      "##は": 4988,
      "##と": 4989,
      "##ㄩ": 4990,
      "##ን": 4991,
      "##ዲ": 4992,
      "##ፍ": 4993,
      "##ራ": 4994,
      "##ው": 4995,
      "##ङ": 4996,
      "##ǝ": 4997,
      "##մ": 4998,
      "##ڌ": 4999,
      "##ⵎ": 5000,
      "##ⴽ": 5001,
      "##ⵙ": 5002,
      "##ɣ": 5003,
      "##キ": 5004,
      "##ɵ": 5005,
      "##ח": 5006,
      "##ʱ": 5007,
      "##ף": 5008,
      "##ი": 5009,
      "##ო": 5010,
      "##そ": 5011,
      "##れ": 5012,
      "##ɯ": 5013,
      "##३": 5014,
      "##ধ": 5015,
      "##セ": 5016,
      "##ғ": 5017,
      "##ར": 5018,
      "##お": 5019,
      "##ல": 5020,
      "##լ": 5021,
      "##ﾃ": 5022,
      "##ｺ": 5023,
      "##ೖ": 5024,
      "##ಪ": 5025,
      "##ള": 5026,
      "##ി": 5027,
      "##բ": 5028,
      "##տ": 5029,
      "##ख": 5030,
      "##ڵ": 5031,
      "##ꯏ": 5032,
      "##ވ": 5033,
      "##ހ": 5034,
      "##₁": 5035,
      "##ས": 5036,
      "##ධ": 5037,
      "##な": 5038,
      "##ネ": 5039,
      "##ත": 5040,
      "##ᅰ": 5041,
      "##ミ": 5042,
      "##ŧ": 5043,
      "##ⵅ": 5044,
      "##ⵍ": 5045,
      "##ヘ": 5046,
      "##ワ": 5047,
      "##ڈ": 5048,
      "##ﻠ": 5049,
      "##ﻮ": 5050,
      "##ᖑ": 5051,
      "##ᐱ": 5052,
      "##ᓗ": 5053,
      "##ᒃ": 5054,
      "##ᑐ": 5055,
      "##ᖅ": 5056,
      "##ڤ": 5057,
      "##ڽ": 5058,
      "##⅛": 5059,
      "##જ": 5060,
      "##ર": 5061,
      "##ત": 5062,
      "##ી": 5063,
      "##फ": 5064,
      "##ҡ": 5065,
      "##თ": 5066,
      "##ꯂ": 5067,
      "##٦": 5068,
      "##ˤ": 5069,
      "##ள": 5070,
      "##ල": 5071,
      "##ꯅ": 5072,
      "##ㄧ": 5073,
      "##ˊ": 5074,
      "##𞤢": 5075,
      "##𞥄": 5076,
      "##𞤤": 5077,
      "##𞤭": 5078,
      "##ು": 5079,
      "##ಡ": 5080,
      "##₋": 5081,
      "##ର": 5082,
      "##ୀ": 5083,
      "##ବ": 5084,
      "##ଛ": 5085,
      "##വ": 5086,
      "##ാ": 5087,
      "##റ": 5088,
      "##𑐾": 5089,
      "##𑐰": 5090,
      "##𑐵": 5091,
      "##𑑅": 5092,
      "##ན": 5093,
      "##ශ": 5094,
      "##ല": 5095,
      "##ਖ": 5096,
      "##ལ": 5097,
      "##រ": 5098,
      "##ះ": 5099,
      "##ត": 5100,
      "##េ": 5101,
      "##ជ": 5102,
      "##ព": 5103,
      "##គ": 5104,
      "##ណ": 5105,
      "##घ": 5106,
      "##გ": 5107,
      "##ㄷ": 5108,
      "##ㅅ": 5109,
      "##ㄴ": 5110,
      "##ழ": 5111,
      "##ˋ": 5112,
      "##ޔ": 5113,
      "##ᆺ": 5114,
      "##₀": 5115,
      "##ଂ": 5116,
      "##ହ": 5117,
      "##ٱ": 5118,
      "##𐤁": 5119,
      "##𐤋": 5120,
      "##ਈ": 5121,
      "##ਦ": 5122,
      "##ฤ": 5123,
      "##♭": 5124,
      "##थ": 5125,
      "##ລ": 5126,
      "##ຄ": 5127,
      "##າ": 5128,
      "##ໄ": 5129,
      "##ຊ": 5130,
      "##ฎ": 5131,
      "##צ": 5132,
      "##ڬ": 5133,
      "##ქ": 5134,
      "##წ": 5135,
      "##ʐ": 5136,
      "##ঙ": 5137,
      "##⅔": 5138,
      "##ህ": 5139,
      "##ለ": 5140,
      "##ወ": 5141,
      "##ቅ": 5142,
      "##˙": 5143,
      "##ܪ": 5144,
      "##ܫ": 5145,
      "##ɕ": 5146,
      "##ந": 5147,
      "##ޙ": 5148,
      "##ދ": 5149,
      "##ⁿ": 5150,
      "##ఘ": 5151,
      "##ফ": 5152,
      "##џ": 5153,
      "##ሳ": 5154,
      "##ይ": 5155,
      "##ያ": 5156,
      "##ስ": 5157,
      "##ց": 5158,
      "##চ": 5159,
      "##မ": 5160,
      "##ထ": 5161,
      "##း": 5162,
      "##က": 5163,
      "##ေ": 5164,
      "##ာ": 5165,
      "##င": 5166,
      "##څ": 5167,
      "##⁶": 5168,
      "##ෘ": 5169,
      "##ો": 5170,
      "##ક": 5171,
      "##ረ": 5172,
      "##ぃ": 5173,
      "##ˁ": 5174,
      "##ﻫ": 5175,
      "##～": 5176,
      "##ါ": 5177,
      "##ҍ": 5178,
      "##オ": 5179,
      "##ァ": 5180,
      "##レ": 5181,
      "##ᄈ": 5182,
      "##अ": 5183,
      "##इ": 5184,
      "##ꯄ": 5185,
      "##ꯛ": 5186,
      "##మ": 5187,
      "##ュ": 5188,
      "##ག": 5189,
      "##ھ": 5190,
      "##ਠ": 5191,
      "##ਿ": 5192,
      "##භ": 5193,
      "##₅": 5194,
      "##☉": 5195,
      "##མ": 5196,
      "##ڭ": 5197,
      "##ฝ": 5198,
      "##१": 5199,
      "##ແ": 5200,
      "##ກ": 5201,
      "##ວ": 5202,
      "##ດ": 5203,
      "##つ": 5204,
      "##య": 5205,
      "##ນ": 5206,
      "##ເ": 5207,
      "##ຳ": 5208,
      "##ᆻ": 5209,
      "##ს": 5210,
      "##ᴀ": 5211,
      "##ᴏ": 5212,
      "##ᇁ": 5213,
      "##ᵉ": 5214,
      "##ട": 5215,
      "##ろ": 5216,
      "##ছ": 5217,
      "##₵": 5218,
      "##ʋ": 5219,
      "##ৰ": 5220,
      "##⅞": 5221,
      "##ⴳ": 5222,
      "##ⵡ": 5223,
      "##ⵉ": 5224,
      "##ⵔ": 5225,
      "##ⵜ": 5226,
      "##っ": 5227,
      "##₆": 5228,
      "##ൻ": 5229,
      "##ቢ": 5230,
      "##ฏ": 5231,
      "##ᄏ": 5232,
      "##ᇂ": 5233,
      "##ষ": 5234,
      "##ㅋ": 5235,
      "##ਤ": 5236,
      "##ں": 5237,
      "##ச": 5238,
      "##வ": 5239,
      "##ஸ": 5240,
      "##┐": 5241,
      "##⁰": 5242,
      "##˨": 5243,
      "##˩": 5244,
      "##ზ": 5245,
      "##ٹ": 5246,
      "##￼": 5247,
      "##ീ": 5248,
      "##ൽ": 5249,
      "##ɫ": 5250,
      "##🇪": 5251,
      "##🇸": 5252,
      "##ϙ": 5253,
      "##ᅫ": 5254,
      "##ซ": 5255,
      "##ਫ": 5256,
      "##ባ": 5257,
      "##⅝": 5258,
      "##ⲱ": 5259,
      "##ⲙ": 5260,
      "##ⲁ": 5261,
      "##ዕ": 5262,
      "##ቆ": 5263,
      "##ብ": 5264,
      "##┼": 5265,
      "##ょ": 5266,
      "##ʕ": 5267,
      "##კ": 5268,
      "##≤": 5269,
      "##ョ": 5270,
      "##ອ": 5271,
      "##ང": 5272,
      "##⅘": 5273,
      "##😞": 5274,
      "##😆": 5275,
      "##😷": 5276,
      "##🤓": 5277,
      "##💩": 5278,
      "##െ": 5279,
      "##ഹ": 5280,
      "##ദ": 5281,
      "##ർ": 5282,
      "##ᄊ": 5283,
      "##ツ": 5284,
      "##∫": 5285,
      "##ढ": 5286,
      "##ӆ": 5287,
      "##യ": 5288,
      "##ញ": 5289,
      "##ន": 5290,
      "##ច": 5291,
      "##ង": 5292,
      "##ប": 5293,
      "##ទ": 5294,
      "##ღ": 5295,
      "##შ": 5296,
      "##ⅱ": 5297,
      "##ɴ": 5298,
      "##ᴜ": 5299,
      "##ʀ": 5300,
      "##ᴄ": 5301,
      "##ठ": 5302,
      "##⁹": 5303,
      "##շ": 5304,
      "##ℚ": 5305,
      "##జ": 5306,
      "##ʂ": 5307,
      "##ျ": 5308,
      "##န": 5309,
      "##ხ": 5310,
      "##ტ": 5311,
      "##ላ": 5312,
      "##ੜ": 5313,
      "##ձ": 5314,
      "##𒋗": 5315,
      "##𒁺": 5316,
      "##ங": 5317,
      "##ക": 5318,
      "##ヨ": 5319,
      "##ച": 5320,
      "##ሕ": 5321,
      "##መ": 5322,
      "##ድ": 5323,
      "##ϝ": 5324,
      "##ێ": 5325,
      "##ৗ": 5326,
      "##ۥ": 5327,
      "##ែ": 5328,
      "##উ": 5329,
      "##ノ": 5330,
      "##ſ": 5331,
      "##ژ": 5332,
      "##ః": 5333,
      "##ચ": 5334,
      "##છ": 5335,
      "##ැ": 5336,
      "##ʟ": 5337,
      "##ꯆ": 5338,
      "##ਘ": 5339,
      "##១": 5340,
      "##២": 5341,
      "##៣": 5342,
      "##៤": 5343,
      "##៥": 5344,
      "##៦": 5345,
      "##៧": 5346,
      "##៨": 5347,
      "##៩": 5348,
      "##ふ": 5349,
      "##ね": 5350,
      "##⊂": 5351,
      "##⊆": 5352,
      "##ଣ": 5353,
      "##ଡ": 5354,
      "##☻": 5355,
      "##හ": 5356,
      "##ऽ": 5357,
      "##ʈ": 5358,
      "##ኢ": 5359,
      "##የ": 5360,
      "##ሱ": 5361,
      "##ﷲ": 5362,
      "##उ": 5363,
      "##˧": 5364,
      "##တ": 5365,
      "##စ": 5366,
      "##５": 5367,
      "##ᘅ": 5368,
      "##ڊ": 5369,
      "##ڄ": 5370,
      "##₈": 5371,
      "##ѣ": 5372,
      "##ᴘ": 5373,
      "##ռ": 5374,
      "##ഞ": 5375,
      "##𐨐": 5376,
      "##𐨪": 5377,
      "##ਆ": 5378,
      "##ට": 5379,
      "##ᓐ": 5380,
      "##ᐊ": 5381,
      "##ᔪ": 5382,
      "##ཙ": 5383,
      "##४": 5384,
      "##ɜ": 5385,
      "##ȝ": 5386,
      "##ᄄ": 5387,
      "##ꯖ": 5388,
      "##ܕ": 5389,
      "##ے": 5390,
      "##ታ": 5391,
      "##ቲ": 5392,
      "##ኖ": 5393,
      "##ᐅ": 5394,
      "##ᔨ": 5395,
      "##ᒪ": 5396,
      "##ᔭ": 5397,
      "##ᖃ": 5398,
      "##ᖏ": 5399,
      "##☃": 5400,
      "##ড": 5401,
      "##ђ": 5402,
      "##է": 5403,
      "##સ": 5404,
      "##હ": 5405,
      "##િ": 5406,
      "##ય": 5407,
      "##ਹ": 5408,
      "##㎜": 5409,
      "##ֆ": 5410,
      "##█": 5411,
      "##☺": 5412,
      "##む": 5413,
      "##ಸ": 5414,
      "##ಳ": 5415,
      "##ɘ": 5416,
      "##પ": 5417,
      "##═": 5418,
      "##ᴖ": 5419,
      "##ᴥ": 5420,
      "##⌂": 5421,
      "##ຮ": 5422,
      "##ҹ": 5423,
      "##ኮ": 5424,
      "##դ": 5425,
      "##ほ": 5426,
      "##ɮ": 5427,
      "##ҧ": 5428,
      "##ㄢ": 5429,
      "##ㄒ": 5430,
      "##ㄚ": 5431,
      "##ㄕ": 5432,
      "##ບ": 5433,
      "##ຜ": 5434,
      "##ஜ": 5435,
      "##ⱡ": 5436,
      "##၀": 5437,
      "##√": 5438,
      "##⅜": 5439,
      "##ቂ": 5440,
      "##ಮ": 5441,
      "##≡": 5442,
      "##ʽ": 5443,
      "##ગ": 5444,
      "##લ": 5445,
      "##ฉ": 5446,
      "##ˇ": 5447,
      "##↓": 5448,
      "##♡": 5449,
      "##★": 5450,
      "##پ": 5451,
      "##ⵓ": 5452,
      "##ⵢ": 5453,
      "##ⵀ": 5454,
      "##ⴻ": 5455,
      "##ᴛ": 5456,
      "##७": 5457,
      "##५": 5458,
      "##ᴅ": 5459,
      "##ᴢ": 5460,
      "##ʜ": 5461,
      "##ꮝ": 5462,
      "##ꭶ": 5463,
      "##ꮿ": 5464,
      "##ꮧ": 5465,
      "##ꭿ": 5466,
      "##ኩ": 5467,
      "##ሪ": 5468,
      "##ォ": 5469,
      "##ぁ": 5470,
      "##খ": 5471,
      "##६": 5472,
      "##ﺎ": 5473,
      "##ﻩ": 5474,
      "##დ": 5475,
      "##ଜ": 5476,
      "##♙": 5477,
      "##⇒": 5478,
      "##ﾄ": 5479,
      "##װ": 5480,
      "##ማ": 5481,
      "##ሁ": 5482,
      "##⁺": 5483,
      "##ᇀ": 5484,
      "##₩": 5485,
      "##ನ": 5486,
      "##ಜ": 5487,
      "##ቃ": 5488,
      "##ꦢ": 5489,
      "##ⲏ": 5490,
      "##ⲥ": 5491,
      "##ც": 5492,
      "##ඩ": 5493,
      "##へ": 5494,
      "##ₑ": 5495,
      "##ɽ": 5496,
      "##⬄": 5497,
      "##ዝ": 5498,
      "##ﻟ": 5499,
      "##ﻨ": 5500,
      "##ﺒ": 5501,
      "##ﻲ": 5502,
      "##∴": 5503,
      "##ℓ": 5504,
      "##ޞ": 5505,
      "##ည": 5506,
      "##ဇ": 5507,
      "##ဟ": 5508,
      "##˛": 5509,
      "##ᓯ": 5510,
      "##ᕙ": 5511,
      "##ਸ": 5512,
      "##ក": 5513,
      "##ៅ": 5514,
      "##ល": 5515,
      "##ស": 5516,
      "##ៀ": 5517,
      "##ⵛ": 5518,
      "##ⵃ": 5519,
      "##ₚ": 5520,
      "##ކ": 5521,
      "##˥": 5522,
      "##ɲ": 5523,
      "##ভ": 5524,
      "##ѕ": 5525,
      "##ච": 5526,
      "##ꯈ": 5527,
      "##ት": 5528,
      "##ዮ": 5529,
      "##ጵ": 5530,
      "##ዊ": 5531,
      "##ነ": 5532,
      "##ግ": 5533,
      "##ඨ": 5534,
      "##ꯍ": 5535,
      "##㎥": 5536,
      "##ቸ": 5537,
      "##ए": 5538,
      "##∕": 5539,
      "##ㅈ": 5540,
      "##ⲓ": 5541,
      "##ⲟ": 5542,
      "##ዴ": 5543,
      "##𞤫": 5544,
      "##𞤲": 5545,
      "##𞥆": 5546,
      "##𞤣": 5547,
      "##ꦑ": 5548,
      "##ꦮ": 5549,
      "##ణ": 5550,
      "##స": 5551,
      "##ሮ": 5552,
      "##ឌ": 5553,
      "##ﻁ": 5554,
      "##∼": 5555,
      "##꞉": 5556,
      "##ᵇ": 5557,
      "##ˡ": 5558,
      "##వ": 5559,
      "##ㄤ": 5560,
      "##ฯ": 5561,
      "##छ": 5562,
      "##ꭵ": 5563,
      "##ꭲ": 5564,
      "##ꮕ": 5565,
      "##∨": 5566,
      "##қ": 5567,
      "##လ": 5568,
      "##ሌ": 5569,
      "##∃": 5570,
      "##ڕ": 5571,
      "##ܘ": 5572,
      "##ܬ": 5573,
      "##ዎ": 5574,
      "##ㄹ": 5575,
      "##ㅁ": 5576,
      "##ㅊ": 5577,
      "##ㅌ": 5578,
      "##ㅍ": 5579,
      "##ਥ": 5580,
      "##ꮅ": 5581,
      "##ⲛ": 5582,
      "##ⴹ": 5583,
      "##є": 5584,
      "##០": 5585,
      "##┘": 5586,
      "##მ": 5587,
      "##𐬌": 5588,
      "##𐬨": 5589,
      "##𐬀": 5590,
      "##ⵣ": 5591,
      "##ⵖ": 5592,
      "##ޛ": 5593,
      "##ұ": 5594,
      "##ᓇ": 5595,
      "##ᑕ": 5596,
      "##മ": 5597,
      "##ዐ": 5598,
      "##ᓂ": 5599,
      "##ץ": 5600,
      "##ജ": 5601,
      "##ᆽ": 5602,
      "##ភ": 5603,
      "##ﺴ": 5604,
      "##ﺠ": 5605,
      "##ﺪ": 5606,
      "##ŉ": 5607,
      "##ற": 5608,
      "##ɖ": 5609,
      "##₇": 5610,
      "##ണ": 5611,
      "##ਗ": 5612,
      "##ᵢ": 5613,
      "##ʉ": 5614,
      "##ዳ": 5615,
      "##ヤ": 5616,
      "##ⴱ": 5617,
      "##ϵ": 5618,
      "##ϕ": 5619,
      "##♟": 5620,
      "##ሓ": 5621,
      "##ም": 5622,
      "##බ": 5623,
      "##ꮢ": 5624,
      "##ꮣ": 5625,
      "##ᏹ": 5626,
      "##చ": 5627,
      "##ɝ": 5628,
      "##ݢ": 5629,
      "##ਵ": 5630,
      "##ɗ": 5631,
      "##≈": 5632,
      "##ഗ": 5633,
      "##ꮵ": 5634,
      "##ꮃ": 5635,
      "##ꭹ": 5636,
      "##փ": 5637,
      "##ਓ": 5638,
      "##ਣ": 5639,
      "##ટ": 5640,
      "##ǂ": 5641,
      "##ǃ": 5642,
      "##ቦ": 5643,
      "##ન": 5644,
      "##យ": 5645,
      "##ោ": 5646,
      "##ꥁ": 5647,
      "##ꤼ": 5648,
      "##●": 5649,
      "##ฐ": 5650,
      "##ଧ": 5651,
      "th": 5652,
      "the": 5653,
      "##er": 5654,
      "##in": 5655,
      "##ou": 5656,
      "##at": 5657,
      "##nd": 5658,
      "##on": 5659,
      "##re": 5660,
      "##an": 5661,
      "##ed": 5662,
      "##ing": 5663,
      "##en": 5664,
      "##or": 5665,
      "##es": 5666,
      "to": 5667,
      "you": 5668,
      "##ll": 5669,
      "and": 5670,
      "##ar": 5671,
      "in": 5672,
      "of": 5673,
      "##is": 5674,
      "##it": 5675,
      "##as": 5676,
      "##om": 5677,
      "wh": 5678,
      "it": 5679,
      "##ic": 5680,
      "##ow": 5681,
      "##al": 5682,
      "##et": 5683,
      "##ot": 5684,
      "##le": 5685,
      "that": 5686,
      "he": 5687,
      "be": 5688,
      "is": 5689,
      "##ve": 5690,
      "on": 5691,
      "##ay": 5692,
      "##ut": 5693,
      "##st": 5694,
      "re": 5695,
      "ha": 5696,
      "##ion": 5697,
      "##id": 5698,
      "##gh": 5699,
      "we": 5700,
      "was": 5701,
      "##se": 5702,
      "##ld": 5703,
      "##ent": 5704,
      "st": 5705,
      "##ac": 5706,
      "for": 5707,
      "sh": 5708,
      "##am": 5709,
      "##im": 5710,
      "##ly": 5711,
      "##ad": 5712,
      "##ur": 5713,
      "##ir": 5714,
      "##ver": 5715,
      "##oo": 5716,
      "an": 5717,
      "##ght": 5718,
      "##ere": 5719,
      "me": 5720,
      "##ith": 5721,
      "do": 5722,
      "##ch": 5723,
      "##ke": 5724,
      "as": 5725,
      "##th": 5726,
      "se": 5727,
      "##all": 5728,
      "with": 5729,
      "##ter": 5730,
      "what": 5731,
      "this": 5732,
      "##ro": 5733,
      "##ct": 5734,
      "li": 5735,
      "##ce": 5736,
      "so": 5737,
      "ch": 5738,
      "go": 5739,
      "##ill": 5740,
      "not": 5741,
      "are": 5742,
      "at": 5743,
      "##ri": 5744,
      "##ome": 5745,
      "have": 5746,
      "##il": 5747,
      "ne": 5748,
      "##ight": 5749,
      "de": 5750,
      "they": 5751,
      "##ust": 5752,
      "but": 5753,
      "##ould": 5754,
      "##ant": 5755,
      "fr": 5756,
      "kn": 5757,
      "no": 5758,
      "##ation": 5759,
      "##op": 5760,
      "his": 5761,
      "##ain": 5762,
      "su": 5763,
      "al": 5764,
      "can": 5765,
      "mo": 5766,
      "all": 5767,
      "there": 5768,
      "##ea": 5769,
      "##ge": 5770,
      "she": 5771,
      "##and": 5772,
      "##us": 5773,
      "##est": 5774,
      "my": 5775,
      "##un": 5776,
      "know": 5777,
      "##ers": 5778,
      "##ul": 5779,
      "##ol": 5780,
      "your": 5781,
      "##pp": 5782,
      "ab": 5783,
      "don": 5784,
      "by": 5785,
      "or": 5786,
      "one": 5787,
      "from": 5788,
      "com": 5789,
      "con": 5790,
      "her": 5791,
      "##ist": 5792,
      "##out": 5793,
      "##art": 5794,
      "##ie": 5795,
      "##um": 5796,
      "##ess": 5797,
      "tr": 5798,
      "##her": 5799,
      "##ab": 5800,
      "up": 5801,
      "wor": 5802,
      "pl": 5803,
      "##os": 5804,
      "##ate": 5805,
      "had": 5806,
      "##ard": 5807,
      "like": 5808,
      "##ally": 5809,
      "out": 5810,
      "ex": 5811,
      "pro": 5812,
      "##el": 5813,
      "if": 5814,
      "##ap": 5815,
      "sp": 5816,
      "19": 5817,
      "##em": 5818,
      "sa": 5819,
      "##ack": 5820,
      "get": 5821,
      "just": 5822,
      "him": 5823,
      "##ig": 5824,
      "##res": 5825,
      "##ook": 5826,
      "##ood": 5827,
      "who": 5828,
      "##ive": 5829,
      "##ake": 5830,
      "un": 5831,
      "##ame": 5832,
      "##if": 5833,
      "##au": 5834,
      "about": 5835,
      "##ck": 5836,
      "te": 5837,
      "##ink": 5838,
      "##our": 5839,
      "did": 5840,
      "20": 5841,
      "##ast": 5842,
      "##ich": 5843,
      "##ong": 5844,
      "man": 5845,
      "here": 5846,
      "am": 5847,
      "were": 5848,
      "##ound": 5849,
      "ar": 5850,
      "##ind": 5851,
      "##one": 5852,
      "##ity": 5853,
      "##ber": 5854,
      "br": 5855,
      "us": 5856,
      "le": 5857,
      "when": 5858,
      "##ort": 5859,
      "well": 5860,
      "now": 5861,
      "right": 5862,
      "##ry": 5863,
      "will": 5864,
      "en": 5865,
      "lo": 5866,
      "some": 5867,
      "##ies": 5868,
      "##ak": 5869,
      "tim": 5870,
      "oh": 5871,
      "how": 5872,
      "ll": 5873,
      "##ish": 5874,
      "co": 5875,
      "would": 5876,
      "want": 5877,
      "cl": 5878,
      "##ag": 5879,
      "yea": 5880,
      "yeah": 5881,
      "##ine": 5882,
      "them": 5883,
      "any": 5884,
      "##ore": 5885,
      "think": 5886,
      "gr": 5887,
      "##ect": 5888,
      "##are": 5889,
      "see": 5890,
      "##ous": 5891,
      "##ven": 5892,
      "look": 5893,
      "##ment": 5894,
      "tw": 5895,
      "fe": 5896,
      "pe": 5897,
      "got": 5898,
      "then": 5899,
      "bec": 5900,
      "has": 5901,
      "ro": 5902,
      "which": 5903,
      "##ud": 5904,
      "pr": 5905,
      "ag": 5906,
      "##itt": 5907,
      "ve": 5908,
      "##ice": 5909,
      "af": 5910,
      "##ough": 5911,
      "##nt": 5912,
      "##own": 5913,
      "##ure": 5914,
      "say": 5915,
      "##hing": 5916,
      "ever": 5917,
      "##ear": 5918,
      "time": 5919,
      "##ep": 5920,
      "##ip": 5921,
      "than": 5922,
      "##ery": 5923,
      "come": 5924,
      "##ia": 5925,
      "##ian": 5926,
      "int": 5927,
      "bo": 5928,
      "##iv": 5929,
      "good": 5930,
      "been": 5931,
      "##ue": 5932,
      "##ire": 5933,
      "##ide": 5934,
      "##ther": 5935,
      "mar": 5936,
      "said": 5937,
      "##ace": 5938,
      "let": 5939,
      "where": 5940,
      "##way": 5941,
      "##ick": 5942,
      "more": 5943,
      "their": 5944,
      "er": 5945,
      "off": 5946,
      "peop": 5947,
      "##ause": 5948,
      "could": 5949,
      "##end": 5950,
      "people": 5951,
      "over": 5952,
      "qu": 5953,
      "going": 5954,
      "bl": 5955,
      "##reat": 5956,
      "##ree": 5957,
      "two": 5958,
      "fir": 5959,
      "##age": 5960,
      "back": 5961,
      "sc": 5962,
      "ok": 5963,
      "##ach": 5964,
      "##na": 5965,
      "very": 5966,
      "yes": 5967,
      "##so": 5968,
      "##ra": 5969,
      "work": 5970,
      "##nder": 5971,
      "##ite": 5972,
      "comp": 5973,
      "##ary": 5974,
      "first": 5975,
      "##ose": 5976,
      "##pt": 5977,
      "ad": 5978,
      "thing": 5979,
      "##orn": 5980,
      "##ang": 5981,
      "##other": 5982,
      "new": 5983,
      "##qu": 5984,
      "##ass": 5985,
      "##ble": 5986,
      "##act": 5987,
      "part": 5988,
      "##ount": 5989,
      "other": 5990,
      "##per": 5991,
      "every": 5992,
      "too": 5993,
      "year": 5994,
      "##ase": 5995,
      "may": 5996,
      "after": 5997,
      "jo": 5998,
      "##ff": 5999,
      "po": 6000,
      "##sel": 6001,
      "because": 6002,
      "our": 6003,
      "##ans": 6004,
      "##ated": 6005,
      "down": 6006,
      "##ord": 6007,
      "##omet": 6008,
      "im": 6009,
      "into": 6010,
      "why": 6011,
      "##ance": 6012,
      "##od": 6013,
      "##ci": 6014,
      "way": 6015,
      "call": 6016,
      "##ade": 6017,
      "##ittle": 6018,
      "okay": 6019,
      "gu": 6020,
      "only": 6021,
      "##ions": 6022,
      "little": 6023,
      "##ub": 6024,
      "##alk": 6025,
      "ac": 6026,
      "##ence": 6027,
      "also": 6028,
      "201": 6029,
      "somet": 6030,
      "play": 6031,
      "bet": 6032,
      "per": 6033,
      "day": 6034,
      "act": 6035,
      "take": 6036,
      "##ved": 6037,
      "pre": 6038,
      "##iz": 6039,
      "##wn": 6040,
      "##ild": 6041,
      "##co": 6042,
      "fl": 6043,
      "again": 6044,
      "these": 6045,
      "car": 6046,
      "##ater": 6047,
      "mu": 6048,
      "fo": 6049,
      "##av": 6050,
      "res": 6051,
      "tell": 6052,
      "cont": 6053,
      "dis": 6054,
      "bu": 6055,
      "##urn": 6056,
      "really": 6057,
      "make": 6058,
      "need": 6059,
      "##ought": 6060,
      "comm": 6061,
      "ser": 6062,
      "##fe": 6063,
      "app": 6064,
      "##ath": 6065,
      "##ress": 6066,
      "##ty": 6067,
      "does": 6068,
      "##pl": 6069,
      "thr": 6070,
      "should": 6071,
      "##we": 6072,
      "##ving": 6073,
      "##iss": 6074,
      "##ory": 6075,
      "wr": 6076,
      "under": 6077,
      "##ile": 6078,
      "##fore": 6079,
      "##self": 6080,
      "##ens": 6081,
      "##able": 6082,
      "happ": 6083,
      "put": 6084,
      "cr": 6085,
      "##ical": 6086,
      "##cl": 6087,
      "##fer": 6088,
      "##ied": 6089,
      "##ft": 6090,
      "something": 6091,
      "##ict": 6092,
      "##thing": 6093,
      "ind": 6094,
      "inter": 6095,
      "##ool": 6096,
      "sm": 6097,
      "even": 6098,
      "##uck": 6099,
      "##ign": 6100,
      "much": 6101,
      "long": 6102,
      "ho": 6103,
      "##ather": 6104,
      "##red": 6105,
      "##int": 6106,
      "count": 6107,
      "##orm": 6108,
      "mean": 6109,
      "200": 6110,
      "never": 6111,
      "its": 6112,
      "made": 6113,
      "dr": 6114,
      "gon": 6115,
      "##og": 6116,
      "before": 6117,
      "hi": 6118,
      "ph": 6119,
      "##oth": 6120,
      "rem": 6121,
      "gonna": 6122,
      "##ult": 6123,
      "old": 6124,
      "em": 6125,
      "great": 6126,
      "min": 6127,
      "hel": 6128,
      "talk": 6129,
      "ke": 6130,
      "##man": 6131,
      "##ks": 6132,
      "sch": 6133,
      "lea": 6134,
      "##ail": 6135,
      "##ren": 6136,
      "##les": 6137,
      "##ys": 6138,
      "##iver": 6139,
      "many": 6140,
      "##land": 6141,
      "didn": 6142,
      "hu": 6143,
      "mr": 6144,
      "most": 6145,
      "uh": 6146,
      "##amp": 6147,
      "three": 6148,
      "##ates": 6149,
      "##ell": 6150,
      "hand": 6151,
      "##ations": 6152,
      "##ious": 6153,
      "la": 6154,
      "bel": 6155,
      "##ons": 6156,
      "str": 6157,
      "##ting": 6158,
      "rep": 6159,
      "des": 6160,
      "years": 6161,
      "ear": 6162,
      "world": 6163,
      "##00": 6164,
      "##du": 6165,
      "##ouse": 6166,
      "through": 6167,
      "those": 6168,
      "##ward": 6169,
      "##ily": 6170,
      "life": 6171,
      "##ady": 6172,
      "##atch": 6173,
      "##ition": 6174,
      "##ves": 6175,
      "##be": 6176,
      "imp": 6177,
      "give": 6178,
      "##ix": 6179,
      "##ors": 6180,
      "##ited": 6181,
      "##ise": 6182,
      "##ually": 6183,
      "start": 6184,
      "##vel": 6185,
      "help": 6186,
      "##ull": 6187,
      "##ial": 6188,
      "##air": 6189,
      "ple": 6190,
      "found": 6191,
      "love": 6192,
      "##ph": 6193,
      "dif": 6194,
      "still": 6195,
      "pol": 6196,
      "pres": 6197,
      "##ful": 6198,
      "wa": 6199,
      "par": 6200,
      "things": 6201,
      "form": 6202,
      "cour": 6203,
      "##get": 6204,
      "##day": 6205,
      "last": 6206,
      "ma": 6207,
      "thought": 6208,
      "home": 6209,
      "mon": 6210,
      "show": 6211,
      "must": 6212,
      "18": 6213,
      "find": 6214,
      "war": 6215,
      "##der": 6216,
      "##ince": 6217,
      "ask": 6218,
      "sl": 6219,
      "el": 6220,
      "att": 6221,
      "fin": 6222,
      "##ried": 6223,
      "away": 6224,
      "used": 6225,
      "##ug": 6226,
      "being": 6227,
      "##ces": 6228,
      "end": 6229,
      "##cess": 6230,
      "##ction": 6231,
      "nor": 6232,
      "##oss": 6233,
      "##eric": 6234,
      "doing": 6235,
      "gen": 6236,
      "own": 6237,
      "rec": 6238,
      "big": 6239,
      "care": 6240,
      "##irl": 6241,
      "fri": 6242,
      "char": 6243,
      "house": 6244,
      "##ings": 6245,
      "won": 6246,
      "wom": 6247,
      "sy": 6248,
      "fam": 6249,
      "americ": 6250,
      "reg": 6251,
      "called": 6252,
      "##ents": 6253,
      "god": 6254,
      "name": 6255,
      "##ert": 6256,
      "child": 6257,
      "such": 6258,
      "##ational": 6259,
      "spe": 6260,
      "hey": 6261,
      "high": 6262,
      "head": 6263,
      "op": 6264,
      "##ne": 6265,
      "went": 6266,
      "sou": 6267,
      "came": 6268,
      "id": 6269,
      "ele": 6270,
      "night": 6271,
      "try": 6272,
      "##ody": 6273,
      "##ened": 6274,
      "##oney": 6275,
      "##ced": 6276,
      "##gin": 6277,
      "sw": 6278,
      "same": 6279,
      "lot": 6280,
      "cent": 6281,
      "sure": 6282,
      "##als": 6283,
      "##ange": 6284,
      "##ember": 6285,
      "##xt": 6286,
      "feel": 6287,
      "school": 6288,
      "##llow": 6289,
      "##gan": 6290,
      "gl": 6291,
      "supp": 6292,
      "kind": 6293,
      "mus": 6294,
      "pers": 6295,
      "another": 6296,
      "four": 6297,
      "eng": 6298,
      "##ah": 6299,
      "cons": 6300,
      "##ope": 6301,
      "girl": 6302,
      "##body": 6303,
      "place": 6304,
      "dist": 6305,
      "rel": 6306,
      "##ways": 6307,
      "##ning": 6308,
      "turn": 6309,
      "born": 6310,
      "##aking": 6311,
      "erm": 6312,
      "differ": 6313,
      "ev": 6314,
      "kill": 6315,
      "mom": 6316,
      "##ave": 6317,
      "sur": 6318,
      "num": 6319,
      "##mber": 6320,
      "friend": 6321,
      "thank": 6322,
      "##sh": 6323,
      "##ank": 6324,
      "ter": 6325,
      "cap": 6326,
      "set": 6327,
      "around": 6328,
      "keep": 6329,
      "##ib": 6330,
      "please": 6331,
      "stop": 6332,
      "##lic": 6333,
      "col": 6334,
      "city": 6335,
      "##io": 6336,
      "##ew": 6337,
      "##atter": 6338,
      "exp": 6339,
      "##ased": 6340,
      "use": 6341,
      "##dy": 6342,
      "acc": 6343,
      "##up": 6344,
      "might": 6345,
      "sor": 6346,
      "ah": 6347,
      "199": 6348,
      "##ever": 6349,
      "run": 6350,
      "wait": 6351,
      "##form": 6352,
      "ob": 6353,
      "list": 6354,
      "##oup": 6355,
      "##ss": 6356,
      "##cond": 6357,
      "##uring": 6358,
      "nothing": 6359,
      "while": 6360,
      "anything": 6361,
      "##ute": 6362,
      "always": 6363,
      "##ating": 6364,
      "##ru": 6365,
      "##ower": 6366,
      "##ock": 6367,
      "miss": 6368,
      "second": 6369,
      "##az": 6370,
      "dep": 6371,
      "better": 6372,
      "stud": 6373,
      "far": 6374,
      "met": 6375,
      "inst": 6376,
      "##sp": 6377,
      "left": 6378,
      "bit": 6379,
      "inv": 6380,
      "real": 6381,
      "##mo": 6382,
      "##ween": 6383,
      "between": 6384,
      "ret": 6385,
      "##clud": 6386,
      "bus": 6387,
      "known": 6388,
      "##ms": 6389,
      "##my": 6390,
      "sorry": 6391,
      "unt": 6392,
      "##gr": 6393,
      "done": 6394,
      "state": 6395,
      "##ible": 6396,
      "bre": 6397,
      "##ier": 6398,
      "sub": 6399,
      "cle": 6400,
      "##te": 6401,
      "##ics": 6402,
      "sing": 6403,
      "##ason": 6404,
      "belie": 6405,
      "both": 6406,
      "bar": 6407,
      "ey": 6408,
      "##aught": 6409,
      "##ash": 6410,
      "##ular": 6411,
      "##ident": 6412,
      "##lish": 6413,
      "##ness": 6414,
      "##ng": 6415,
      "person": 6416,
      "word": 6417,
      "men": 6418,
      "money": 6419,
      "##led": 6420,
      "##cial": 6421,
      "coll": 6422,
      "##ale": 6423,
      "father": 6424,
      "point": 6425,
      "best": 6426,
      "next": 6427,
      "book": 6428,
      "told": 6429,
      "dec": 6430,
      "##ual": 6431,
      "che": 6432,
      "##akes": 6433,
      "gre": 6434,
      "different": 6435,
      "mm": 6436,
      "hell": 6437,
      "ass": 6438,
      "##ird": 6439,
      "##ister": 6440,
      "until": 6441,
      "each": 6442,
      "art": 6443,
      "includ": 6444,
      "ap": 6445,
      "mother": 6446,
      "water": 6447,
      "sim": 6448,
      "later": 6449,
      "lar": 6450,
      "gener": 6451,
      "king": 6452,
      "united": 6453,
      "follow": 6454,
      "##oun": 6455,
      "during": 6456,
      "##ject": 6457,
      "##ott": 6458,
      "american": 6459,
      "##ner": 6460,
      "##side": 6461,
      "since": 6462,
      "course": 6463,
      "five": 6464,
      "fun": 6465,
      "pass": 6466,
      "states": 6467,
      "sir": 6468,
      "wee": 6469,
      "sk": 6470,
      "hard": 6471,
      "number": 6472,
      "198": 6473,
      "pop": 6474,
      "seem": 6475,
      "amp": 6476,
      "actually": 6477,
      "##let": 6478,
      "produ": 6479,
      "team": 6480,
      "young": 6481,
      "##cy": 6482,
      "maybe": 6483,
      "##ny": 6484,
      "##ative": 6485,
      "##aster": 6486,
      "red": 6487,
      "##vie": 6488,
      "everything": 6489,
      "##olog": 6490,
      "once": 6491,
      "dire": 6492,
      "took": 6493,
      "##cre": 6494,
      "##ling": 6495,
      "##ton": 6496,
      "##gg": 6497,
      "##ivers": 6498,
      "doesn": 6499,
      "joh": 6500,
      "##une": 6501,
      "med": 6502,
      "family": 6503,
      "pub": 6504,
      "##vern": 6505,
      "boy": 6506,
      "##ames": 6507,
      "air": 6508,
      "music": 6509,
      "six": 6510,
      "##ision": 6511,
      "ed": 6512,
      "north": 6513,
      "##ark": 6514,
      "##cept": 6515,
      "##its": 6516,
      "cur": 6517,
      "##ities": 6518,
      "##ered": 6519,
      "chr": 6520,
      "##oy": 6521,
      "saw": 6522,
      "huh": 6523,
      "hum": 6524,
      "##ont": 6525,
      "##ane": 6526,
      "without": 6527,
      "underst": 6528,
      "son": 6529,
      "enough": 6530,
      "south": 6531,
      "light": 6532,
      "##ars": 6533,
      "##ric": 6534,
      "open": 6535,
      "##ures": 6536,
      "bad": 6537,
      "add": 6538,
      "remember": 6539,
      "##ream": 6540,
      "govern": 6541,
      "har": 6542,
      "##ired": 6543,
      "stand": 6544,
      "john": 6545,
      "leave": 6546,
      "hal": 6547,
      "win": 6548,
      "tri": 6549,
      "stay": 6550,
      "small": 6551,
      "town": 6552,
      "trans": 6553,
      "today": 6554,
      "##ork": 6555,
      "room": 6556,
      "against": 6557,
      "##eak": 6558,
      "##att": 6559,
      "197": 6560,
      "mind": 6561,
      "##mb": 6562,
      "bab": 6563,
      "##uth": 6564,
      "##son": 6565,
      "cal": 6566,
      "##row": 6567,
      "law": 6568,
      "dad": 6569,
      "loc": 6570,
      "sit": 6571,
      "toget": 6572,
      "mil": 6573,
      "together": 6574,
      "def": 6575,
      "##yp": 6576,
      "##ger": 6577,
      "10": 6578,
      "##iness": 6579,
      "move": 6580,
      "nice": 6581,
      "died": 6582,
      "isn": 6583,
      "##mm": 6584,
      "##ross": 6585,
      "##ctor": 6586,
      "national": 6587,
      "else": 6588,
      "hear": 6589,
      "ste": 6590,
      "proble": 6591,
      "##osed": 6592,
      "foot": 6593,
      "hold": 6594,
      "seen": 6595,
      "fact": 6596,
      "land": 6597,
      "rest": 6598,
      "sign": 6599,
      "coming": 6600,
      "##ote": 6601,
      "read": 6602,
      "times": 6603,
      "group": 6604,
      "bro": 6605,
      "looking": 6606,
      "##cc": 6607,
      "fil": 6608,
      "ge": 6609,
      "heart": 6610,
      "live": 6611,
      "##ines": 6612,
      "##ific": 6613,
      "few": 6614,
      "near": 6615,
      "meet": 6616,
      "became": 6617,
      "##iet": 6618,
      "pret": 6619,
      "county": 6620,
      "children": 6621,
      "watch": 6622,
      "wo": 6623,
      "wanted": 6624,
      "side": 6625,
      "lead": 6626,
      "hist": 6627,
      "##ably": 6628,
      "compan": 6629,
      "kid": 6630,
      "##ts": 6631,
      "understand": 6632,
      "pa": 6633,
      "cor": 6634,
      "ger": 6635,
      "##ps": 6636,
      "quite": 6637,
      "##ead": 6638,
      "##right": 6639,
      "says": 6640,
      "though": 6641,
      "##ution": 6642,
      "believe": 6643,
      "ra": 6644,
      "##ina": 6645,
      "woman": 6646,
      "hur": 6647,
      "##eter": 6648,
      "##ife": 6649,
      "beh": 6650,
      "##ral": 6651,
      "tom": 6652,
      "##ik": 6653,
      "##ten": 6654,
      "##ield": 6655,
      "##ung": 6656,
      "pri": 6657,
      "quest": 6658,
      "ext": 6659,
      "face": 6660,
      "main": 6661,
      "record": 6662,
      "prov": 6663,
      "##ared": 6664,
      "##ury": 6665,
      "import": 6666,
      "##hip": 6667,
      "univers": 6668,
      "##wh": 6669,
      "196": 6670,
      "yet": 6671,
      "days": 6672,
      "plan": 6673,
      "##ball": 6674,
      "##ime": 6675,
      "morn": 6676,
      "##ets": 6677,
      "##oc": 6678,
      "##stem": 6679,
      "song": 6680,
      "hour": 6681,
      "gi": 6682,
      "half": 6683,
      "black": 6684,
      "ca": 6685,
      "##uss": 6686,
      "death": 6687,
      "build": 6688,
      "##tain": 6689,
      "##ments": 6690,
      "walk": 6691,
      "##ned": 6692,
      "##ense": 6693,
      "conf": 6694,
      "resp": 6695,
      "poss": 6696,
      "##sw": 6697,
      "power": 6698,
      "mill": 6699,
      "getting": 6700,
      "dri": 6701,
      "eyes": 6702,
      "##by": 6703,
      "morning": 6704,
      "##ital": 6705,
      "system": 6706,
      "sort": 6707,
      "##ee": 6708,
      "happened": 6709,
      "rele": 6710,
      "interest": 6711,
      "prof": 6712,
      "##ush": 6713,
      "##ature": 6714,
      "##ants": 6715,
      "##ised": 6716,
      "fore": 6717,
      "fuck": 6718,
      "pay": 6719,
      "door": 6720,
      "##ient": 6721,
      "##ins": 6722,
      "##anna": 6723,
      "bas": 6724,
      "christ": 6725,
      "ten": 6726,
      "sle": 6727,
      "matter": 6728,
      "##cer": 6729,
      "having": 6730,
      "mark": 6731,
      "whole": 6732,
      "serv": 6733,
      "prob": 6734,
      "sound": 6735,
      "##aut": 6736,
      "white": 6737,
      "soon": 6738,
      "order": 6739,
      "15": 6740,
      "sn": 6741,
      "wind": 6742,
      "##ined": 6743,
      "class": 6744,
      "##rib": 6745,
      "upon": 6746,
      "##ists": 6747,
      "17": 6748,
      "cert": 6749,
      "##ters": 6750,
      "##itch": 6751,
      "##less": 6752,
      "heard": 6753,
      "lau": 6754,
      "job": 6755,
      "eat": 6756,
      "himself": 6757,
      "country": 6758,
      "speak": 6759,
      "##ta": 6760,
      "##fect": 6761,
      "##br": 6762,
      "game": 6763,
      "##cted": 6764,
      "##iam": 6765,
      "dead": 6766,
      "listen": 6767,
      "played": 6768,
      "started": 6769,
      "adv": 6770,
      "fine": 6771,
      "along": 6772,
      "women": 6773,
      "shall": 6774,
      "del": 6775,
      "party": 6776,
      "##ize": 6777,
      "mid": 6778,
      "##ues": 6779,
      "top": 6780,
      "##ene": 6781,
      "##ism": 6782,
      "prom": 6783,
      "bring": 6784,
      "talking": 6785,
      "##ready": 6786,
      "##cle": 6787,
      "##ither": 6788,
      "##ains": 6789,
      "already": 6790,
      "div": 6791,
      "offic": 6792,
      "knew": 6793,
      "ju": 6794,
      "##aph": 6795,
      "round": 6796,
      "return": 6797,
      "##ention": 6798,
      "full": 6799,
      "month": 6800,
      "mag": 6801,
      "baby": 6802,
      "line": 6803,
      "important": 6804,
      "case": 6805,
      "wrong": 6806,
      "##ience": 6807,
      "##ized": 6808,
      "area": 6809,
      "business": 6810,
      "president": 6811,
      "##ows": 6812,
      "leg": 6813,
      "contin": 6814,
      "const": 6815,
      "eff": 6816,
      "someone": 6817,
      "eas": 6818,
      "answ": 6819,
      "asked": 6820,
      "##uff": 6821,
      "##sc": 6822,
      "stre": 6823,
      "ann": 6824,
      "##ison": 6825,
      "jan": 6826,
      "##amed": 6827,
      "story": 6828,
      "##ished": 6829,
      "12": 6830,
      "however": 6831,
      "##rew": 6832,
      "saying": 6833,
      "##imes": 6834,
      "##urch": 6835,
      "university": 6836,
      "##ives": 6837,
      "##aps": 6838,
      "vo": 6839,
      "##ats": 6840,
      "expl": 6841,
      "000": 6842,
      "maj": 6843,
      "idea": 6844,
      "pretty": 6845,
      "commun": 6846,
      "polit": 6847,
      "gave": 6848,
      "trying": 6849,
      "grand": 6850,
      "certain": 6851,
      "means": 6852,
      "##ided": 6853,
      "wife": 6854,
      "ent": 6855,
      "equ": 6856,
      "fire": 6857,
      "typ": 6858,
      "est": 6859,
      "beaut": 6860,
      "##ility": 6861,
      "##den": 6862,
      "##velop": 6863,
      "creat": 6864,
      "##ying": 6865,
      "##aw": 6866,
      "##rop": 6867,
      "##ages": 6868,
      "lear": 6869,
      "##wards": 6870,
      "early": 6871,
      "ori": 6872,
      "##erg": 6873,
      "chang": 6874,
      "hon": 6875,
      "16": 6876,
      "government": 6877,
      "gone": 6878,
      "##aughter": 6879,
      "eight": 6880,
      "195": 6881,
      "prot": 6882,
      "guy": 6883,
      "sho": 6884,
      "sever": 6885,
      "tre": 6886,
      "less": 6887,
      "gt": 6888,
      "##ov": 6889,
      "sat": 6890,
      "general": 6891,
      "german": 6892,
      "brother": 6893,
      "inc": 6894,
      "pen": 6895,
      "##most": 6896,
      "age": 6897,
      "making": 6898,
      "val": 6899,
      "##ump": 6900,
      "probably": 6901,
      "sent": 6902,
      "##pped": 6903,
      "hello": 6904,
      "lost": 6905,
      "##rict": 6906,
      "pat": 6907,
      "hands": 6908,
      "dan": 6909,
      "wonder": 6910,
      "##igh": 6911,
      "brit": 6912,
      "bill": 6913,
      "movie": 6914,
      "cut": 6915,
      "develop": 6916,
      "west": 6917,
      "company": 6918,
      "##med": 6919,
      "wanna": 6920,
      "swe": 6921,
      "fight": 6922,
      "star": 6923,
      "ir": 6924,
      "hor": 6925,
      "fall": 6926,
      "pain": 6927,
      "sol": 6928,
      "##ically": 6929,
      "194": 6930,
      "aw": 6931,
      "vis": 6932,
      "##enty": 6933,
      "free": 6934,
      "oper": 6935,
      "began": 6936,
      "often": 6937,
      "intern": 6938,
      "change": 6939,
      "alb": 6940,
      "##ately": 6941,
      "##ator": 6942,
      "short": 6943,
      "sal": 6944,
      "pos": 6945,
      "##ural": 6946,
      "partic": 6947,
      "##iter": 6948,
      "##aken": 6949,
      "march": 6950,
      "exc": 6951,
      "pap": 6952,
      "var": 6953,
      "laugh": 6954,
      "ill": 6955,
      "close": 6956,
      "##ax": 6957,
      "ref": 6958,
      "##gn": 6959,
      "able": 6960,
      "dou": 6961,
      "spec": 6962,
      "guys": 6963,
      "##ony": 6964,
      "bed": 6965,
      "wasn": 6966,
      "hot": 6967,
      "happen": 6968,
      "##ained": 6969,
      "problem": 6970,
      "squ": 6971,
      "week": 6972,
      "rock": 6973,
      "public": 6974,
      "present": 6975,
      "inf": 6976,
      "road": 6977,
      "sleep": 6978,
      "hope": 6979,
      "body": 6980,
      "true": 6981,
      "##raw": 6982,
      "exper": 6983,
      "pick": 6984,
      "ready": 6985,
      "dam": 6986,
      "thanks": 6987,
      "202": 6988,
      "goes": 6989,
      "moment": 6990,
      "sil": 6991,
      "happy": 6992,
      "organ": 6993,
      "break": 6994,
      "large": 6995,
      "tele": 6996,
      "suc": 6997,
      "haven": 6998,
      "sun": 6999,
      "wouldn": 7000,
      "almost": 7001,
      "##ality": 7002,
      "working": 7003,
      "depart": 7004,
      "##ley": 7005,
      "history": 7006,
      "looked": 7007,
      "##uary": 7008,
      "adm": 7009,
      "cond": 7010,
      "tra": 7011,
      "club": 7012,
      "hund": 7013,
      "##ides": 7014,
      "given": 7015,
      "blood": 7016,
      "occ": 7017,
      "sometimes": 7018,
      "yourself": 7019,
      "hundred": 7020,
      "district": 7021,
      "bur": 7022,
      "comes": 7023,
      "contro": 7024,
      "11": 7025,
      "##arent": 7026,
      "##ape": 7027,
      "##ond": 7028,
      "um": 7029,
      "fre": 7030,
      "##me": 7031,
      "mad": 7032,
      "##ted": 7033,
      "##use": 7034,
      "##tern": 7035,
      "profess": 7036,
      "deal": 7037,
      "church": 7038,
      "##ama": 7039,
      "origin": 7040,
      "##ices": 7041,
      "##de": 7042,
      "##ional": 7043,
      "##aces": 7044,
      "friends": 7045,
      "eur": 7046,
      "##ether": 7047,
      "ago": 7048,
      "tem": 7049,
      "##ulation": 7050,
      "##ok": 7051,
      "##unch": 7052,
      "become": 7053,
      "##gue": 7054,
      "coun": 7055,
      "series": 7056,
      "mrs": 7057,
      "begin": 7058,
      "gold": 7059,
      "##ract": 7060,
      "rece": 7061,
      "##ouch": 7062,
      "##utes": 7063,
      "late": 7064,
      "##ple": 7065,
      "river": 7066,
      "camp": 7067,
      "ball": 7068,
      "clear": 7069,
      "aug": 7070,
      "pie": 7071,
      "##vers": 7072,
      "##used": 7073,
      "opp": 7074,
      "looks": 7075,
      "guess": 7076,
      "question": 7077,
      "january": 7078,
      "##where": 7079,
      "##ze": 7080,
      "jack": 7081,
      "human": 7082,
      "##bo": 7083,
      "complet": 7084,
      "york": 7085,
      "dog": 7086,
      "##orrow": 7087,
      "mur": 7088,
      "vill": 7089,
      "drink": 7090,
      "mer": 7091,
      "193": 7092,
      "lang": 7093,
      "##ety": 7094,
      "##ai": 7095,
      "aust": 7096,
      "several": 7097,
      "rom": 7098,
      "##ilt": 7099,
      "band": 7100,
      "least": 7101,
      "##ering": 7102,
      "pur": 7103,
      "consid": 7104,
      "major": 7105,
      "english": 7106,
      "##ster": 7107,
      "anim": 7108,
      "##apan": 7109,
      "elect": 7110,
      "##ium": 7111,
      "rad": 7112,
      "island": 7113,
      "port": 7114,
      "##ians": 7115,
      "album": 7116,
      "14": 7117,
      "quick": 7118,
      "myself": 7119,
      "secre": 7120,
      "13": 7121,
      "##ief": 7122,
      "august": 7123,
      "##ey": 7124,
      "##ril": 7125,
      "pict": 7126,
      "alone": 7127,
      "##gram": 7128,
      "married": 7129,
      "japan": 7130,
      "##ma": 7131,
      "super": 7132,
      "oct": 7133,
      "front": 7134,
      "##alth": 7135,
      "behind": 7136,
      "season": 7137,
      "fel": 7138,
      "food": 7139,
      "##iously": 7140,
      "##iful": 7141,
      "##iting": 7142,
      "fif": 7143,
      "gun": 7144,
      "##ample": 7145,
      "disc": 7146,
      "green": 7147,
      "east": 7148,
      "past": 7149,
      "film": 7150,
      "##oud": 7151,
      "fig": 7152,
      "reason": 7153,
      "makes": 7154,
      "train": 7155,
      "earth": 7156,
      "words": 7157,
      "##ries": 7158,
      "##eng": 7159,
      "rich": 7160,
      "step": 7161,
      "killed": 7162,
      "sept": 7163,
      "av": 7164,
      "released": 7165,
      "##ogr": 7166,
      "dece": 7167,
      "##eth": 7168,
      "enter": 7169,
      "design": 7170,
      "brought": 7171,
      "vi": 7172,
      "mount": 7173,
      "june": 7174,
      "dear": 7175,
      "champ": 7176,
      "##inc": 7177,
      "##ots": 7178,
      "##ected": 7179,
      "cause": 7180,
      "##ived": 7181,
      "exact": 7182,
      "##ler": 7183,
      "##que": 7184,
      "##ured": 7185,
      "taking": 7186,
      "special": 7187,
      "either": 7188,
      "##rench": 7189,
      "dev": 7190,
      "football": 7191,
      "30": 7192,
      "france": 7193,
      "##ards": 7194,
      "support": 7195,
      "sister": 7196,
      "program": 7197,
      "die": 7198,
      "report": 7199,
      "taken": 7200,
      "sold": 7201,
      "cop": 7202,
      "##pr": 7203,
      "##sy": 7204,
      "grow": 7205,
      "tot": 7206,
      "##ones": 7207,
      "cre": 7208,
      "strong": 7209,
      "park": 7210,
      "test": 7211,
      "##selves": 7212,
      "##ology": 7213,
      "ins": 7214,
      "##thers": 7215,
      "living": 7216,
      "september": 7217,
      "##app": 7218,
      "langu": 7219,
      "member": 7220,
      "##bert": 7221,
      "det": 7222,
      "summ": 7223,
      "##0s": 7224,
      "##con": 7225,
      "british": 7226,
      "pal": 7227,
      "phil": 7228,
      "##ring": 7229,
      "cos": 7230,
      "mess": 7231,
      "que": 7232,
      "fa": 7233,
      "hit": 7234,
      "within": 7235,
      "inform": 7236,
      "perform": 7237,
      "##atic": 7238,
      "charac": 7239,
      "##und": 7240,
      "##ike": 7241,
      "common": 7242,
      "beautiful": 7243,
      "##cover": 7244,
      "nat": 7245,
      "lab": 7246,
      "third": 7247,
      "police": 7248,
      "##ney": 7249,
      "others": 7250,
      "alright": 7251,
      "rather": 7252,
      "wood": 7253,
      "##ford": 7254,
      "wish": 7255,
      "july": 7256,
      "##lex": 7257,
      "##els": 7258,
      "seven": 7259,
      "sea": 7260,
      "stuff": 7261,
      "poor": 7262,
      "##ober": 7263,
      "##ob": 7264,
      "##dle": 7265,
      "fair": 7266,
      "million": 7267,
      "cover": 7268,
      "april": 7269,
      "check": 7270,
      "reach": 7271,
      "couldn": 7272,
      "attack": 7273,
      "je": 7274,
      "dem": 7275,
      "october": 7276,
      "##ully": 7277,
      "allow": 7278,
      "former": 7279,
      "europe": 7280,
      "geor": 7281,
      "everyone": 7282,
      "##aced": 7283,
      "cir": 7284,
      "daughter": 7285,
      "dream": 7286,
      "lord": 7287,
      "##ese": 7288,
      "da": 7289,
      "##umb": 7290,
      "thinking": 7291,
      "wall": 7292,
      "##ently": 7293,
      "named": 7294,
      "following": 7295,
      "##ove": 7296,
      "secret": 7297,
      "success": 7298,
      "example": 7299,
      "ship": 7300,
      "including": 7301,
      "##ior": 7302,
      "##port": 7303,
      "lu": 7304,
      "among": 7305,
      "perh": 7306,
      "minutes": 7307,
      "perhaps": 7308,
      "minute": 7309,
      "office": 7310,
      "##lly": 7311,
      "##rent": 7312,
      "playing": 7313,
      "##zy": 7314,
      "colle": 7315,
      "dark": 7316,
      "inside": 7317,
      "##lf": 7318,
      "abs": 7319,
      "repres": 7320,
      "##oon": 7321,
      "based": 7322,
      "held": 7323,
      "forg": 7324,
      "result": 7325,
      "ton": 7326,
      "doctor": 7327,
      "voice": 7328,
      "##fic": 7329,
      "##ann": 7330,
      "##thern": 7331,
      "december": 7332,
      "##duc": 7333,
      "french": 7334,
      "##ency": 7335,
      "mod": 7336,
      "mot": 7337,
      "##erv": 7338,
      "##band": 7339,
      "fur": 7340,
      "lady": 7341,
      "##ipp": 7342,
      "##ude": 7343,
      "192": 7344,
      "nove": 7345,
      "lived": 7346,
      "department": 7347,
      "##cil": 7348,
      "single": 7349,
      "level": 7350,
      "twenty": 7351,
      "hus": 7352,
      "vict": 7353,
      "mich": 7354,
      "wants": 7355,
      "appear": 7356,
      "repl": 7357,
      "conn": 7358,
      "career": 7359,
      "25": 7360,
      "touch": 7361,
      "court": 7362,
      "auth": 7363,
      "mor": 7364,
      "##aim": 7365,
      "##men": 7366,
      "bir": 7367,
      "##lished": 7368,
      "##ances": 7369,
      "november": 7370,
      "cann": 7371,
      "ii": 7372,
      "dest": 7373,
      "blue": 7374,
      "memb": 7375,
      "din": 7376,
      "##unt": 7377,
      "turned": 7378,
      "##itten": 7379,
      "jud": 7380,
      "outside": 7381,
      "cost": 7382,
      "trou": 7383,
      "field": 7384,
      "##ories": 7385,
      "station": 7386,
      "##ored": 7387,
      "press": 7388,
      "using": 7389,
      "cra": 7390,
      "street": 7391,
      "##ousand": 7392,
      "##key": 7393,
      "thousand": 7394,
      "ce": 7395,
      "tech": 7396,
      "ang": 7397,
      "##itting": 7398,
      "desc": 7399,
      "box": 7400,
      "send": 7401,
      "##ograph": 7402,
      "cam": 7403,
      "cup": 7404,
      "arch": 7405,
      "educ": 7406,
      "whatever": 7407,
      "##anc": 7408,
      "building": 7409,
      "everybody": 7410,
      "usually": 7411,
      "##bru": 7412,
      "exactly": 7413,
      "2010": 7414,
      "##anger": 7415,
      "##ho": 7416,
      "rid": 7417,
      "across": 7418,
      "treat": 7419,
      "pull": 7420,
      "##fully": 7421,
      "prev": 7422,
      "century": 7423,
      "##bs": 7424,
      "sam": 7425,
      "bird": 7426,
      "##bruary": 7427,
      "ground": 7428,
      "february": 7429,
      "appro": 7430,
      "##ped": 7431,
      "league": 7432,
      "hours": 7433,
      "till": 7434,
      "##ron": 7435,
      "rob": 7436,
      "service": 7437,
      "effect": 7438,
      "worked": 7439,
      "dav": 7440,
      "master": 7441,
      "months": 7442,
      "##ming": 7443,
      "post": 7444,
      "possible": 7445,
      "ran": 7446,
      "hair": 7447,
      "##airs": 7448,
      "requ": 7449,
      "ant": 7450,
      "ru": 7451,
      "felt": 7452,
      "##oke": 7453,
      "cross": 7454,
      "members": 7455,
      "norm": 7456,
      "built": 7457,
      "husband": 7458,
      "anyone": 7459,
      "population": 7460,
      "vir": 7461,
      "news": 7462,
      "college": 7463,
      "whether": 7464,
      "##ara": 7465,
      "cast": 7466,
      "somebody": 7467,
      "##ued": 7468,
      "easy": 7469,
      "control": 7470,
      "international": 7471,
      "##aged": 7472,
      "shut": 7473,
      "represent": 7474,
      "vol": 7475,
      "proper": 7476,
      "chance": 7477,
      "tomorrow": 7478,
      "##aring": 7479,
      "phone": 7480,
      "gotta": 7481,
      "lay": 7482,
      "cry": 7483,
      "##ding": 7484,
      "##fort": 7485,
      "vie": 7486,
      "##ata": 7487,
      "region": 7488,
      "mine": 7489,
      "hy": 7490,
      "mun": 7491,
      "works": 7492,
      "##ana": 7493,
      "##ham": 7494,
      "compet": 7495,
      "peter": 7496,
      "##osp": 7497,
      "##ended": 7498,
      "ep": 7499,
      "##ences": 7500,
      "##iving": 7501,
      "san": 7502,
      "##ndon": 7503,
      "deb": 7504,
      "anyway": 7505,
      "particular": 7506,
      "answer": 7507,
      "tried": 7508,
      "tit": 7509,
      "##ald": 7510,
      "low": 7511,
      "##ged": 7512,
      "complete": 7513,
      "forget": 7514,
      "techn": 7515,
      "##uct": 7516,
      "##vision": 7517,
      "event": 7518,
      "den": 7519,
      "parent": 7520,
      "fish": 7521,
      "feet": 7522,
      "buy": 7523,
      "moved": 7524,
      "current": 7525,
      "sud": 7526,
      "stra": 7527,
      "hill": 7528,
      "draw": 7529,
      "cat": 7530,
      "batt": 7531,
      "deep": 7532,
      "view": 7533,
      "bye": 7534,
      "coup": 7535,
      "local": 7536,
      "flo": 7537,
      "##outh": 7538,
      "##unk": 7539,
      "girls": 7540,
      "##oh": 7541,
      "cold": 7542,
      "army": 7543,
      "vide": 7544,
      "alth": 7545,
      "corn": 7546,
      "tour": 7547,
      "tur": 7548,
      "##gest": 7549,
      "ben": 7550,
      "##mp": 7551,
      "##ases": 7552,
      "##yn": 7553,
      "##arch": 7554,
      "written": 7555,
      "##eared": 7556,
      "boys": 7557,
      "although": 7558,
      "seems": 7559,
      "ital": 7560,
      "gets": 7561,
      "captain": 7562,
      "mass": 7563,
      "suff": 7564,
      "##aint": 7565,
      "match": 7566,
      "##ination": 7567,
      "lim": 7568,
      "shit": 7569,
      "pract": 7570,
      "##itions": 7571,
      "player": 7572,
      "sec": 7573,
      "author": 7574,
      "##ship": 7575,
      "sweet": 7576,
      "fell": 7577,
      "fav": 7578,
      "sex": 7579,
      "london": 7580,
      "100": 7581,
      "social": 7582,
      "stat": 7583,
      "luck": 7584,
      "pet": 7585,
      "##ified": 7586,
      "##hm": 7587,
      "##idge": 7588,
      "games": 7589,
      "##gress": 7590,
      "##ae": 7591,
      "direct": 7592,
      "iss": 7593,
      "command": 7594,
      "instead": 7595,
      "lives": 7596,
      "##ino": 7597,
      "##ales": 7598,
      "bri": 7599,
      "##iod": 7600,
      "sen": 7601,
      "##ept": 7602,
      "24": 7603,
      "term": 7604,
      "pot": 7605,
      "##rest": 7606,
      "tonight": 7607,
      "award": 7608,
      "bott": 7609,
      "worry": 7610,
      "knows": 7611,
      "##par": 7612,
      "chair": 7613,
      "21": 7614,
      "soci": 7615,
      "fly": 7616,
      "fast": 7617,
      "##read": 7618,
      "##por": 7619,
      "aren": 7620,
      "table": 7621,
      "di": 7622,
      "lad": 7623,
      "hall": 7624,
      "##icip": 7625,
      "rev": 7626,
      "##idence": 7627,
      "kids": 7628,
      "##cent": 7629,
      "cannot": 7630,
      "tree": 7631,
      "language": 7632,
      "##ula": 7633,
      "##ection": 7634,
      "television": 7635,
      "wel": 7636,
      "hosp": 7637,
      "##view": 7638,
      "middle": 7639,
      "health": 7640,
      "accord": 7641,
      "trust": 7642,
      "write": 7643,
      "information": 7644,
      "##raid": 7645,
      "thir": 7646,
      "ber": 7647,
      "type": 7648,
      "##oint": 7649,
      "paper": 7650,
      "running": 7651,
      "incre": 7652,
      "truth": 7653,
      "arm": 7654,
      "wrote": 7655,
      "process": 7656,
      "birth": 7657,
      "england": 7658,
      "gent": 7659,
      "afraid": 7660,
      "william": 7661,
      "couple": 7662,
      "character": 7663,
      "bud": 7664,
      "sense": 7665,
      "cell": 7666,
      "trad": 7667,
      "##dom": 7668,
      "##soci": 7669,
      "diffic": 7670,
      "##cr": 7671,
      "minister": 7672,
      "lie": 7673,
      "191": 7674,
      "space": 7675,
      "invol": 7676,
      "cook": 7677,
      "force": 7678,
      "austral": 7679,
      "seemed": 7680,
      "fut": 7681,
      "ones": 7682,
      "spir": 7683,
      "perfect": 7684,
      "cult": 7685,
      "##ches": 7686,
      "sudden": 7687,
      "associ": 7688,
      "period": 7689,
      "engine": 7690,
      "##ument": 7691,
      "##ising": 7692,
      "hang": 7693,
      "stri": 7694,
      "clean": 7695,
      "fro": 7696,
      "conv": 7697,
      "00": 7698,
      "sell": 7699,
      "##he": 7700,
      "dress": 7701,
      "mart": 7702,
      "russ": 7703,
      "america": 7704,
      "village": 7705,
      "canad": 7706,
      "##avy": 7707,
      "##come": 7708,
      "daddy": 7709,
      "ver": 7710,
      "changed": 7711,
      "gar": 7712,
      "##mer": 7713,
      "nine": 7714,
      "sand": 7715,
      "##ration": 7716,
      "paul": 7717,
      "##ls": 7718,
      "longer": 7719,
      "fail": 7720,
      "hop": 7721,
      "shot": 7722,
      "trouble": 7723,
      "##go": 7724,
      "##itive": 7725,
      "##ization": 7726,
      "champions": 7727,
      "##conom": 7728,
      "du": 7729,
      "##ges": 7730,
      "council": 7731,
      "##ission": 7732,
      "bank": 7733,
      "project": 7734,
      "final": 7735,
      "lt": 7736,
      "priv": 7737,
      "ur": 7738,
      "lik": 7739,
      "imag": 7740,
      "esp": 7741,
      "vers": 7742,
      "chief": 7743,
      "fucking": 7744,
      "ain": 7745,
      "##yal": 7746,
      "inde": 7747,
      "refer": 7748,
      "supposed": 7749,
      "received": 7750,
      "mem": 7751,
      "created": 7752,
      "fort": 7753,
      "econom": 7754,
      "position": 7755,
      "except": 7756,
      "hurt": 7757,
      "##oose": 7758,
      "pound": 7759,
      "##lin": 7760,
      "mist": 7761,
      "##asure": 7762,
      "ring": 7763,
      "##ement": 7764,
      "##uation": 7765,
      "waiting": 7766,
      "due": 7767,
      "burn": 7768,
      "rail": 7769,
      "##ael": 7770,
      "brown": 7771,
      "22": 7772,
      "##lo": 7773,
      "frank": 7774,
      "municip": 7775,
      "straight": 7776,
      "prop": 7777,
      "arri": 7778,
      "dro": 7779,
      "afric": 7780,
      "invest": 7781,
      "civ": 7782,
      "ange": 7783,
      "above": 7784,
      "honey": 7785,
      "##urs": 7786,
      "led": 7787,
      "comput": 7788,
      "terr": 7789,
      "object": 7790,
      "##ival": 7791,
      "horse": 7792,
      "surpr": 7793,
      "gas": 7794,
      "summer": 7795,
      "mhm": 7796,
      "needs": 7797,
      "rul": 7798,
      "excuse": 7799,
      "reco": 7800,
      "prince": 7801,
      "##ha": 7802,
      "nobody": 7803,
      "shoot": 7804,
      "neg": 7805,
      "gentle": 7806,
      "mach": 7807,
      "##emy": 7808,
      "##cially": 7809,
      "discover": 7810,
      "viol": 7811,
      "themselves": 7812,
      "roll": 7813,
      "lou": 7814,
      "according": 7815,
      "books": 7816,
      "##bur": 7817,
      "accept": 7818,
      "##acy": 7819,
      "aut": 7820,
      "phys": 7821,
      "##itary": 7822,
      "species": 7823,
      "dut": 7824,
      "slow": 7825,
      "##ille": 7826,
      "cho": 7827,
      "bull": 7828,
      "sett": 7829,
      "murder": 7830,
      "dar": 7831,
      "##uel": 7832,
      "hospital": 7833,
      "cy": 7834,
      "dom": 7835,
      "entire": 7836,
      "kept": 7837,
      "video": 7838,
      "##ky": 7839,
      "carry": 7840,
      "save": 7841,
      "##ef": 7842,
      "##ka": 7843,
      "track": 7844,
      "cool": 7845,
      "##iff": 7846,
      "##more": 7847,
      "pan": 7848,
      "##bers": 7849,
      "moder": 7850,
      "future": 7851,
      "jour": 7852,
      "soft": 7853,
      "beat": 7854,
      "hol": 7855,
      "##eder": 7856,
      "##work": 7857,
      "george": 7858,
      "picture": 7859,
      "esc": 7860,
      "##ician": 7861,
      "##lu": 7862,
      "prison": 7863,
      "23": 7864,
      "##ption": 7865,
      "mal": 7866,
      "##rodu": 7867,
      "##ilar": 7868,
      "##oof": 7869,
      "sugg": 7870,
      "los": 7871,
      "parents": 7872,
      "eye": 7873,
      "total": 7874,
      "further": 7875,
      "catch": 7876,
      "nar": 7877,
      "##ec": 7878,
      "suggest": 7879,
      "nin": 7880,
      "net": 7881,
      "exist": 7882,
      "gard": 7883,
      "mouth": 7884,
      "piece": 7885,
      "##yle": 7886,
      "teac": 7887,
      "feeling": 7888,
      "yell": 7889,
      "ban": 7890,
      "mis": 7891,
      "express": 7892,
      "fix": 7893,
      "resear": 7894,
      "non": 7895,
      "popular": 7896,
      "david": 7897,
      "worth": 7898,
      "##aff": 7899,
      "##ergy": 7900,
      "2019": 7901,
      "takes": 7902,
      "board": 7903,
      "central": 7904,
      "chap": 7905,
      "finished": 7906,
      "color": 7907,
      "2014": 7908,
      "##bit": 7909,
      "problems": 7910,
      "##estern": 7911,
      "letter": 7912,
      "##cing": 7913,
      "research": 7914,
      "jes": 7915,
      "##ager": 7916,
      "##room": 7917,
      "bear": 7918,
      "itself": 7919,
      "phot": 7920,
      "fill": 7921,
      "##ploy": 7922,
      "capital": 7923,
      "##itor": 7924,
      "safe": 7925,
      "##to": 7926,
      "2018": 7927,
      "crit": 7928,
      "civil": 7929,
      "quiet": 7930,
      "learn": 7931,
      "ice": 7932,
      "jer": 7933,
      "arg": 7934,
      "hen": 7935,
      "inn": 7936,
      "fem": 7937,
      "doll": 7938,
      "mary": 7939,
      "repub": 7940,
      "hung": 7941,
      "served": 7942,
      "circ": 7943,
      "##ially": 7944,
      "decided": 7945,
      "activ": 7946,
      "enj": 7947,
      "hun": 7948,
      "50": 7949,
      "center": 7950,
      "finally": 7951,
      "##owers": 7952,
      "##olution": 7953,
      "##bed": 7954,
      "broad": 7955,
      "include": 7956,
      "indian": 7957,
      "self": 7958,
      "mel": 7959,
      "shop": 7960,
      "doub": 7961,
      "breat": 7962,
      "##teen": 7963,
      "james": 7964,
      "glad": 7965,
      "union": 7966,
      "##gy": 7967,
      "grad": 7968,
      "recogn": 7969,
      "2017": 7970,
      "roman": 7971,
      "throw": 7972,
      "2011": 7973,
      "difficult": 7974,
      "earl": 7975,
      "jim": 7976,
      "peace": 7977,
      "queen": 7978,
      "danger": 7979,
      "relations": 7980,
      "announ": 7981,
      "republic": 7982,
      "rain": 7983,
      "evening": 7984,
      "##roy": 7985,
      "##zz": 7986,
      "funny": 7987,
      "bell": 7988,
      "seat": 7989,
      "wild": 7990,
      "sad": 7991,
      "whose": 7992,
      "##ental": 7993,
      "political": 7994,
      "expect": 7995,
      "community": 7996,
      "estab": 7997,
      "herself": 7998,
      "respect": 7999,
      "##itz": 8000,
      "germany": 8001,
      "famous": 8002,
      "sport": 8003,
      "26": 8004,
      "figure": 8005,
      "card": 8006,
      "mult": 8007,
      "telling": 8008,
      "meeting": 8009,
      "bes": 8010,
      "indust": 8011,
      "##ivid": 8012,
      "bag": 8013,
      "stick": 8014,
      "education": 8015,
      "##ston": 8016,
      "happens": 8017,
      "clim": 8018,
      "enjoy": 8019,
      "##ken": 8020,
      "espe": 8021,
      "##ius": 8022,
      "crazy": 8023,
      "bi": 8024,
      "similar": 8025,
      "relig": 8026,
      "##ping": 8027,
      "weeks": 8028,
      "drive": 8029,
      "aud": 8030,
      "radio": 8031,
      "##omb": 8032,
      "comb": 8033,
      "key": 8034,
      "certainly": 8035,
      "2013": 8036,
      "energy": 8037,
      "championship": 8038,
      "society": 8039,
      "27": 8040,
      "obs": 8041,
      "##olute": 8042,
      "##omes": 8043,
      "product": 8044,
      "wow": 8045,
      "battle": 8046,
      "kiss": 8047,
      "##ays": 8048,
      "sick": 8049,
      "passed": 8050,
      "meant": 8051,
      "uncle": 8052,
      "##eal": 8053,
      "susp": 8054,
      "##hy": 8055,
      "especially": 8056,
      "##amb": 8057,
      "bal": 8058,
      "##nes": 8059,
      "committ": 8060,
      "28": 8061,
      "market": 8062,
      "base": 8063,
      "2016": 8064,
      "leaving": 8065,
      "original": 8066,
      "sar": 8067,
      "clos": 8068,
      "account": 8069,
      "agre": 8070,
      "director": 8071,
      "lock": 8072,
      "natural": 8073,
      "ahead": 8074,
      "aff": 8075,
      "beginning": 8076,
      "cloth": 8077,
      "rose": 8078,
      "mum": 8079,
      "mommy": 8080,
      "students": 8081,
      "concer": 8082,
      "welcome": 8083,
      "2015": 8084,
      "nature": 8085,
      "opened": 8086,
      "disapp": 8087,
      "race": 8088,
      "calif": 8089,
      "places": 8090,
      "neigh": 8091,
      "bow": 8092,
      "##uted": 8093,
      "##la": 8094,
      "modern": 8095,
      "forward": 8096,
      "californ": 8097,
      "suppose": 8098,
      "push": 8099,
      "ord": 8100,
      "##iers": 8101,
      "fac": 8102,
      "subject": 8103,
      "##iding": 8104,
      "##gar": 8105,
      "2012": 8106,
      "role": 8107,
      "dinner": 8108,
      "exam": 8109,
      "wed": 8110,
      "alex": 8111,
      "stage": 8112,
      "mater": 8113,
      "2020": 8114,
      "michael": 8115,
      "host": 8116,
      "whom": 8117,
      "quar": 8118,
      "interesting": 8119,
      "##ending": 8120,
      "defin": 8121,
      "tv": 8122,
      "ident": 8123,
      "##bor": 8124,
      "mir": 8125,
      "absolute": 8126,
      "cand": 8127,
      "returned": 8128,
      "##king": 8129,
      "california": 8130,
      "deg": 8131,
      "quickly": 8132,
      "apart": 8133,
      "floor": 8134,
      "colon": 8135,
      "yours": 8136,
      "##uit": 8137,
      "anybody": 8138,
      "pack": 8139,
      "##riage": 8140,
      "military": 8141,
      "##empt": 8142,
      "polic": 8143,
      "fellow": 8144,
      "fing": 8145,
      "##ye": 8146,
      "sitting": 8147,
      "##hod": 8148,
      "cried": 8149,
      "individ": 8150,
      "##old": 8151,
      "giving": 8152,
      "##ume": 8153,
      "necess": 8154,
      "2008": 8155,
      "##xic": 8156,
      "separ": 8157,
      "demo": 8158,
      "travel": 8159,
      "##rible": 8160,
      "parts": 8161,
      "##ole": 8162,
      "##ceed": 8163,
      "respons": 8164,
      "stood": 8165,
      "countries": 8166,
      "claim": 8167,
      "fear": 8168,
      "development": 8169,
      "histor": 8170,
      "##ift": 8171,
      "forest": 8172,
      "science": 8173,
      "whe": 8174,
      "##ret": 8175,
      "consider": 8176,
      "##uk": 8177,
      "block": 8178,
      "##anch": 8179,
      "dance": 8180,
      "prep": 8181,
      "prim": 8182,
      "action": 8183,
      "dig": 8184,
      "ris": 8185,
      "simple": 8186,
      "spirit": 8187,
      "glass": 8188,
      "study": 8189,
      "obv": 8190,
      "tax": 8191,
      "moving": 8192,
      "damn": 8193,
      "fle": 8194,
      "bene": 8195,
      "##epend": 8196,
      "strange": 8197,
      "miles": 8198,
      "##etic": 8199,
      "indeed": 8200,
      "##inal": 8201,
      "cens": 8202,
      "personal": 8203,
      "india": 8204,
      "wide": 8205,
      "shar": 8206,
      "##ensive": 8207,
      "##line": 8208,
      "env": 8209,
      "towards": 8210,
      "van": 8211,
      "mention": 8212,
      "##ett": 8213,
      "search": 8214,
      "independ": 8215,
      "##ien": 8216,
      "finish": 8217,
      "##ica": 8218,
      "royal": 8219,
      "##raft": 8220,
      "##ires": 8221,
      "##een": 8222,
      "##van": 8223,
      "path": 8224,
      "located": 8225,
      "doc": 8226,
      "published": 8227,
      "jump": 8228,
      "aha": 8229,
      "mat": 8230,
      "kingdom": 8231,
      "questions": 8232,
      "##com": 8233,
      "2007": 8234,
      "hm": 8235,
      "japanese": 8236,
      "##medi": 8237,
      "scient": 8238,
      "teach": 8239,
      "introdu": 8240,
      "lose": 8241,
      "reached": 8242,
      "ooh": 8243,
      "western": 8244,
      "amount": 8245,
      "##nam": 8246,
      "mic": 8247,
      "lower": 8248,
      "##field": 8249,
      "appeared": 8250,
      "decl": 8251,
      "jew": 8252,
      "##erve": 8253,
      "alive": 8254,
      "mc": 8255,
      "fool": 8256,
      "sounds": 8257,
      "ren": 8258,
      "instit": 8259,
      "2009": 8260,
      "##reme": 8261,
      "2006": 8262,
      "visit": 8263,
      "famil": 8264,
      "drug": 8265,
      "fer": 8266,
      "tar": 8267,
      "window": 8268,
      "democr": 8269,
      "29": 8270,
      "##ply": 8271,
      "followed": 8272,
      "jesus": 8273,
      "commune": 8274,
      "ut": 8275,
      "lat": 8276,
      "protect": 8277,
      "experience": 8278,
      "##ray": 8279,
      "professional": 8280,
      "sour": 8281,
      "washing": 8282,
      "province": 8283,
      "prin": 8284,
      "writing": 8285,
      "fat": 8286,
      "surv": 8287,
      "pu": 8288,
      "seeing": 8289,
      "fund": 8290,
      "cab": 8291,
      "liter": 8292,
      "robert": 8293,
      "coff": 8294,
      "caught": 8295,
      "egg": 8296,
      "stone": 8297,
      "chuck": 8298,
      "belong": 8299,
      "plant": 8300,
      "##ades": 8301,
      "##hood": 8302,
      "##cious": 8303,
      "influ": 8304,
      "hous": 8305,
      "sele": 8306,
      "ways": 8307,
      "municipality": 8308,
      "##pper": 8309,
      "none": 8310,
      "date": 8311,
      "##sych": 8312,
      "acad": 8313,
      "et": 8314,
      "tor": 8315,
      "der": 8316,
      "thom": 8317,
      "jose": 8318,
      "addition": 8319,
      "situation": 8320,
      "gro": 8321,
      "mix": 8322,
      "##ii": 8323,
      "##cul": 8324,
      "stup": 8325,
      "190": 8326,
      "needed": 8327,
      "anymore": 8328,
      "employ": 8329,
      "##ruction": 8330,
      "cath": 8331,
      "ou": 8332,
      "animals": 8333,
      "official": 8334,
      "election": 8335,
      "##aur": 8336,
      "##ago": 8337,
      "census": 8338,
      "various": 8339,
      "max": 8340,
      "largest": 8341,
      "knock": 8342,
      "join": 8343,
      "psych": 8344,
      "##ites": 8345,
      "hurry": 8346,
      "##ya": 8347,
      "cust": 8348,
      "destroy": 8349,
      "##well": 8350,
      "division": 8351,
      "gree": 8352,
      "suddenly": 8353,
      "##gen": 8354,
      "##ville": 8355,
      "equal": 8356,
      "produced": 8357,
      "##ero": 8358,
      "##af": 8359,
      "insp": 8360,
      "thirty": 8361,
      "##nday": 8362,
      "ash": 8363,
      "material": 8364,
      "heavy": 8365,
      "serious": 8366,
      "##mas": 8367,
      "##inist": 8368,
      "ox": 8369,
      "hate": 8370,
      "##ns": 8371,
      "terms": 8372,
      "standing": 8373,
      "snow": 8374,
      "immedi": 8375,
      "arms": 8376,
      "somewhere": 8377,
      "discuss": 8378,
      "stopped": 8379,
      "##ids": 8380,
      "northern": 8381,
      "##dd": 8382,
      "allowed": 8383,
      "bob": 8384,
      "enc": 8385,
      "private": 8386,
      "##enth": 8387,
      "scr": 8388,
      "##iny": 8389,
      "##inct": 8390,
      "ye": 8391,
      "computer": 8392,
      "professor": 8393,
      "coast": 8394,
      "##ented": 8395,
      "##era": 8396,
      "##iled": 8397,
      "fan": 8398,
      "speed": 8399,
      "paid": 8400,
      "shows": 8401,
      "value": 8402,
      "aver": 8403,
      "speaking": 8404,
      "stars": 8405,
      "charl": 8406,
      "ach": 8407,
      "hat": 8408,
      "politician": 8409,
      "##inary": 8410,
      "stupid": 8411,
      "40": 8412,
      "feder": 8413,
      "boat": 8414,
      "##aining": 8415,
      "##wood": 8416,
      "wear": 8417,
      "european": 8418,
      "therefore": 8419,
      "favor": 8420,
      "##istic": 8421,
      "##others": 8422,
      "plays": 8423,
      "points": 8424,
      "model": 8425,
      "garden": 8426,
      "mac": 8427,
      "joined": 8428,
      "rights": 8429,
      "clock": 8430,
      "crow": 8431,
      "attempt": 8432,
      "##asons": 8433,
      "tow": 8434,
      "exec": 8435,
      "describ": 8436,
      "span": 8437,
      "spent": 8438,
      "data": 8439,
      "wer": 8440,
      "bought": 8441,
      "involved": 8442,
      "##uses": 8443,
      "##ength": 8444,
      "brain": 8445,
      "imm": 8446,
      "size": 8447,
      "##ugg": 8448,
      "##mon": 8449,
      "square": 8450,
      "ken": 8451,
      "##urity": 8452,
      "officer": 8453,
      "##resh": 8454,
      "purp": 8455,
      "jul": 8456,
      "##bour": 8457,
      "nom": 8458,
      "title": 8459,
      "southern": 8460,
      "##ises": 8461,
      "pray": 8462,
      "nearly": 8463,
      "wonderful": 8464,
      "ow": 8465,
      "ol": 8466,
      "emp": 8467,
      "lake": 8468,
      "##agon": 8469,
      "##astern": 8470,
      "kh": 8471,
      "ble": 8472,
      "desp": 8473,
      "tea": 8474,
      "asking": 8475,
      "meaning": 8476,
      "extra": 8477,
      "##ask": 8478,
      "struct": 8479,
      "##cell": 8480,
      "corre": 8481,
      "relationship": 8482,
      "leader": 8483,
      "promise": 8484,
      "amaz": 8485,
      "considered": 8486,
      "princ": 8487,
      "gives": 8488,
      "uk": 8489,
      "attention": 8490,
      "deter": 8491,
      "constit": 8492,
      "##iction": 8493,
      "numbers": 8494,
      "china": 8495,
      "##iment": 8496,
      "##nal": 8497,
      "ide": 8498,
      "##iron": 8499,
      "fifty": 8500,
      "moon": 8501,
      "plus": 8502,
      "christian": 8503,
      "##ura": 8504,
      "##ode": 8505,
      "possib": 8506,
      "yellow": 8507,
      "sens": 8508,
      "broke": 8509,
      "blow": 8510,
      "31": 8511,
      "##ners": 8512,
      "affect": 8513,
      "areas": 8514,
      "##ify": 8515,
      "mountain": 8516,
      "##irt": 8517,
      "##aven": 8518,
      "epis": 8519,
      "sky": 8520,
      "##aves": 8521,
      "answered": 8522,
      "careful": 8523,
      "loved": 8524,
      "guard": 8525,
      "spring": 8526,
      "bright": 8527,
      "init": 8528,
      "cow": 8529,
      "completely": 8530,
      "impro": 8531,
      "included": 8532,
      "pun": 8533,
      "trees": 8534,
      "share": 8535,
      "length": 8536,
      "faith": 8537,
      "tradition": 8538,
      "##val": 8539,
      "tick": 8540,
      "sight": 8541,
      "rap": 8542,
      "names": 8543,
      "##cast": 8544,
      "##ability": 8545,
      "ath": 8546,
      "##itude": 8547,
      "##lt": 8548,
      "temper": 8549,
      "page": 8550,
      "sev": 8551,
      "appoint": 8552,
      "added": 8553,
      "grew": 8554,
      "store": 8555,
      "absolutely": 8556,
      "bridge": 8557,
      "wal": 8558,
      "charge": 8559,
      "hmm": 8560,
      "mexic": 8561,
      "assist": 8562,
      "paris": 8563,
      "manage": 8564,
      "tired": 8565,
      "shouldn": 8566,
      "thus": 8567,
      "function": 8568,
      "##ique": 8569,
      "clothes": 8570,
      "cro": 8571,
      "sigh": 8572,
      "doubt": 8573,
      "bath": 8574,
      "contract": 8575,
      "rub": 8576,
      "foc": 8577,
      "method": 8578,
      "##ees": 8579,
      "rout": 8580,
      "virgin": 8581,
      "storm": 8582,
      "founded": 8583,
      "##ential": 8584,
      "evidence": 8585,
      "simply": 8586,
      "ba": 8587,
      "bottom": 8588,
      "training": 8589,
      "##iling": 8590,
      "chem": 8591,
      "##inated": 8592,
      "aunt": 8593,
      "bay": 8594,
      "actor": 8595,
      "soul": 8596,
      "starting": 8597,
      "honor": 8598,
      "directed": 8599,
      "##yr": 8600,
      "broken": 8601,
      "boss": 8602,
      "governor": 8603,
      "ros": 8604,
      "appl": 8605,
      "environ": 8606,
      "##ano": 8607,
      "hero": 8608,
      "##asing": 8609,
      "##ography": 8610,
      "##ators": 8611,
      "higher": 8612,
      "coach": 8613,
      "scream": 8614,
      "surf": 8615,
      "##fri": 8616,
      "aftern": 8617,
      "yester": 8618,
      "##asc": 8619,
      "oly": 8620,
      "medic": 8621,
      "capt": 8622,
      "movement": 8623,
      "christmas": 8624,
      "yesterday": 8625,
      "difference": 8626,
      "regular": 8627,
      "##iot": 8628,
      "##icle": 8629,
      "bord": 8630,
      "parl": 8631,
      "watching": 8632,
      "##ctions": 8633,
      "arrest": 8634,
      "chick": 8635,
      "charles": 8636,
      "services": 8637,
      "##ails": 8638,
      "lovely": 8639,
      "189": 8640,
      "formula": 8641,
      "percent": 8642,
      "continued": 8643,
      "australia": 8644,
      "site": 8645,
      "honest": 8646,
      "princip": 8647,
      "##ga": 8648,
      "marriage": 8649,
      "style": 8650,
      "caused": 8651,
      "normal": 8652,
      "marry": 8653,
      "bey": 8654,
      "coffee": 8655,
      "2000": 8656,
      "drop": 8657,
      "##ground": 8658,
      "henry": 8659,
      "##burg": 8660,
      "##uts": 8661,
      "security": 8662,
      "saint": 8663,
      "machine": 8664,
      "below": 8665,
      "richard": 8666,
      "threat": 8667,
      "schools": 8668,
      "##ena": 8669,
      "arr": 8670,
      "avail": 8671,
      "vall": 8672,
      "##ato": 8673,
      "##ological": 8674,
      "weap": 8675,
      "whoa": 8676,
      "muse": 8677,
      "text": 8678,
      "unless": 8679,
      "2005": 8680,
      "address": 8681,
      "inj": 8682,
      "##ference": 8683,
      "groups": 8684,
      "twel": 8685,
      "eth": 8686,
      "afternoon": 8687,
      "princess": 8688,
      "dise": 8689,
      "farm": 8690,
      "olymp": 8691,
      "stren": 8692,
      "talked": 8693,
      "songs": 8694,
      "note": 8695,
      "##friend": 8696,
      "##illy": 8697,
      "calling": 8698,
      "choice": 8699,
      "comfort": 8700,
      "formed": 8701,
      "washington": 8702,
      "oppos": 8703,
      "heaven": 8704,
      "##itted": 8705,
      "production": 8706,
      "penn": 8707,
      "administ": 8708,
      "kick": 8709,
      "warm": 8710,
      "fol": 8711,
      "##uce": 8712,
      "helped": 8713,
      "##ki": 8714,
      "laughing": 8715,
      "winter": 8716,
      "louis": 8717,
      "weren": 8718,
      "pounds": 8719,
      "sac": 8720,
      "stories": 8721,
      "##board": 8722,
      "##antic": 8723,
      "gall": 8724,
      "##astic": 8725,
      "version": 8726,
      "##inese": 8727,
      "novel": 8728,
      "fit": 8729,
      "closed": 8730,
      "bang": 8731,
      "##ror": 8732,
      "##cient": 8733,
      "accom": 8734,
      "##iced": 8735,
      "##antly": 8736,
      "##iday": 8737,
      "##oted": 8738,
      "##oming": 8739,
      "opport": 8740,
      "##wise": 8741,
      "spend": 8742,
      "math": 8743,
      "tex": 8744,
      "bound": 8745,
      "frog": 8746,
      "##ils": 8747,
      "##light": 8748,
      "bor": 8749,
      "##ida": 8750,
      "tast": 8751,
      "regard": 8752,
      "birthday": 8753,
      "determ": 8754,
      "canada": 8755,
      "defe": 8756,
      "silver": 8757,
      "intell": 8758,
      "anne": 8759,
      "amb": 8760,
      "opportun": 8761,
      "pictures": 8762,
      "interested": 8763,
      "##gth": 8764,
      "fox": 8765,
      "centre": 8766,
      "neck": 8767,
      "records": 8768,
      "tall": 8769,
      "react": 8770,
      "mov": 8771,
      "custom": 8772,
      "whis": 8773,
      "ray": 8774,
      "announced": 8775,
      "##aker": 8776,
      "prime": 8777,
      "##ging": 8778,
      "emb": 8779,
      "strength": 8780,
      "lines": 8781,
      "feed": 8782,
      "earlier": 8783,
      "##ively": 8784,
      "cele": 8785,
      "anal": 8786,
      "chinese": 8787,
      "showed": 8788,
      "access": 8789,
      "##oles": 8790,
      "imagine": 8791,
      "environment": 8792,
      "##erson": 8793,
      "trade": 8794,
      "2004": 8795,
      "186": 8796,
      "##ari": 8797,
      "##olic": 8798,
      "skin": 8799,
      "jun": 8800,
      "##gu": 8801,
      "ya": 8802,
      "##ca": 8803,
      "italian": 8804,
      "demand": 8805,
      "fred": 8806,
      "multip": 8807,
      "cred": 8808,
      "putting": 8809,
      "investig": 8810,
      "##usion": 8811,
      "explain": 8812,
      "##ledge": 8813,
      "ride": 8814,
      "liber": 8815,
      "spread": 8816,
      "youth": 8817,
      "##aud": 8818,
      "staff": 8819,
      "changes": 8820,
      "average": 8821,
      "chann": 8822,
      "##ests": 8823,
      "franc": 8824,
      "happening": 8825,
      "association": 8826,
      "celebr": 8827,
      "cit": 8828,
      "double": 8829,
      "fourth": 8830,
      "##iel": 8831,
      "price": 8832,
      "female": 8833,
      "nick": 8834,
      "##atures": 8835,
      "carried": 8836,
      "##ples": 8837,
      "offer": 8838,
      "accident": 8839,
      "forces": 8840,
      "eh": 8841,
      "##itely": 8842,
      "specific": 8843,
      "worse": 8844,
      "rule": 8845,
      "distance": 8846,
      "brand": 8847,
      "##hib": 8848,
      "thomas": 8849,
      "medical": 8850,
      "singer": 8851,
      "ven": 8852,
      "##fact": 8853,
      "##lement": 8854,
      "developed": 8855,
      "museum": 8856,
      "bon": 8857,
      "ham": 8858,
      "animal": 8859,
      "milk": 8860,
      "range": 8861,
      "distrib": 8862,
      "joe": 8863,
      "corner": 8864,
      "oce": 8865,
      "##reen": 8866,
      "##str": 8867,
      "##eg": 8868,
      "review": 8869,
      "conc": 8870,
      "magn": 8871,
      "fresh": 8872,
      "huge": 8873,
      "dry": 8874,
      "kar": 8875,
      "##ams": 8876,
      "##aded": 8877,
      "pig": 8878,
      "established": 8879,
      "wol": 8880,
      "impress": 8881,
      "##berg": 8882,
      "africa": 8883,
      "ancient": 8884,
      "nu": 8885,
      "ta": 8886,
      "committee": 8887,
      "student": 8888,
      "lee": 8889,
      "##istics": 8890,
      "teacher": 8891,
      "birds": 8892,
      "ended": 8893,
      "busy": 8894,
      "leaves": 8895,
      "##ript": 8896,
      "message": 8897,
      "chall": 8898,
      "##ension": 8899,
      "##asion": 8900,
      "##ilities": 8901,
      "events": 8902,
      "ess": 8903,
      "smell": 8904,
      "terrible": 8905,
      "##ket": 8906,
      "movies": 8907,
      "russian": 8908,
      "wil": 8909,
      "chic": 8910,
      "##oops": 8911,
      "suit": 8912,
      "decision": 8913,
      "spl": 8914,
      "learned": 8915,
      "##za": 8916,
      "flight": 8917,
      "available": 8918,
      "scott": 8919,
      "##off": 8920,
      "stock": 8921,
      "elected": 8922,
      "immediately": 8923,
      "rac": 8924,
      "##set": 8925,
      "spoke": 8926,
      "obviously": 8927,
      "create": 8928,
      "judge": 8929,
      "beyond": 8930,
      "##aries": 8931,
      "deliver": 8932,
      "lots": 8933,
      "reading": 8934,
      "theory": 8935,
      "##oop": 8936,
      "188": 8937,
      "effort": 8938,
      "gal": 8939,
      "##yer": 8940,
      "##ek": 8941,
      "commission": 8942,
      "##ification": 8943,
      "##atives": 8944,
      "eastern": 8945,
      "mont": 8946,
      "##ipped": 8947,
      "occur": 8948,
      "eating": 8949,
      "spot": 8950,
      "##for": 8951,
      "fest": 8952,
      "depend": 8953,
      "iron": 8954,
      "kore": 8955,
      "mostly": 8956,
      "congress": 8957,
      "compl": 8958,
      "reb": 8959,
      "nose": 8960,
      "agree": 8961,
      "sem": 8962,
      "ladies": 8963,
      "gri": 8964,
      "oil": 8965,
      "cases": 8966,
      "und": 8967,
      "martin": 8968,
      "brothers": 8969,
      "##wor": 8970,
      "hotel": 8971,
      "##ables": 8972,
      "crime": 8973,
      "foreign": 8974,
      "contact": 8975,
      "##sequ": 8976,
      "flowers": 8977,
      "fighting": 8978,
      "##ider": 8979,
      "##oph": 8980,
      "##arily": 8981,
      "shout": 8982,
      "scared": 8983,
      "electric": 8984,
      "twelve": 8985,
      "##iest": 8986,
      "link": 8987,
      "swim": 8988,
      "collect": 8989,
      "carol": 8990,
      "magaz": 8991,
      "code": 8992,
      "2001": 8993,
      "disp": 8994,
      "dick": 8995,
      "hors": 8996,
      "continue": 8997,
      "##ech": 8998,
      "smith": 8999,
      "goal": 9000,
      "legs": 9001,
      "sant": 9002,
      "parliam": 9003,
      "feature": 9004,
      "spanish": 9005,
      "prem": 9006,
      "lying": 9007,
      "secretary": 9008,
      "##istan": 9009,
      "golden": 9010,
      "##sey": 9011,
      "##ipe": 9012,
      "scene": 9013,
      "grant": 9014,
      "joy": 9015,
      "ell": 9016,
      "connect": 9017,
      "neither": 9018,
      "calm": 9019,
      "male": 9020,
      "texas": 9021,
      "##ita": 9022,
      "release": 9023,
      "individual": 9024,
      "signed": 9025,
      "section": 9026,
      "ought": 9027,
      "wound": 9028,
      "libr": 9029,
      "tail": 9030,
      "##ander": 9031,
      "aged": 9032,
      "##uc": 9033,
      "media": 9034,
      "fault": 9035,
      "##ette": 9036,
      "lift": 9037,
      "convers": 9038,
      "liked": 9039,
      "pil": 9040,
      "older": 9041,
      "##bing": 9042,
      "rate": 9043,
      "acqu": 9044,
      "parliament": 9045,
      "##aign": 9046,
      "perm": 9047,
      "hide": 9048,
      "##ria": 9049,
      "eventually": 9050,
      "communic": 9051,
      "repe": 9052,
      "##bon": 9053,
      "compos": 9054,
      "tal": 9055,
      "likely": 9056,
      "rules": 9057,
      "necessary": 9058,
      "##phone": 9059,
      "beach": 9060,
      "##ously": 9061,
      "walking": 9062,
      "covered": 9063,
      "ideas": 9064,
      "print": 9065,
      "##ips": 9066,
      "lucky": 9067,
      "wake": 9068,
      "greater": 9069,
      "truck": 9070,
      "##ining": 9071,
      "wit": 9072,
      "loss": 9073,
      "throughout": 9074,
      "network": 9075,
      "log": 9076,
      "2003": 9077,
      "twice": 9078,
      "purpose": 9079,
      "buck": 9080,
      "raised": 9081,
      "practice": 9082,
      "##amm": 9083,
      "pieces": 9084,
      "journal": 9085,
      "##fl": 9086,
      "weight": 9087,
      "discovered": 9088,
      "##iation": 9089,
      "forty": 9090,
      "##pping": 9091,
      "187": 9092,
      "dun": 9093,
      "mut": 9094,
      "##no": 9095,
      "rab": 9096,
      "campaign": 9097,
      "victor": 9098,
      "##vin": 9099,
      "players": 9100,
      "2002": 9101,
      "holding": 9102,
      "lunch": 9103,
      "positive": 9104,
      "trick": 9105,
      "##aine": 9106,
      "ocean": 9107,
      "approach": 9108,
      "pressure": 9109,
      "enemy": 9110,
      "flor": 9111,
      "##oid": 9112,
      "arrived": 9113,
      "ast": 9114,
      "##gl": 9115,
      "freed": 9116,
      "transport": 9117,
      "achie": 9118,
      "direction": 9119,
      "dim": 9120,
      "##illa": 9121,
      "##atory": 9122,
      "##ban": 9123,
      "manager": 9124,
      "knowledge": 9125,
      "mission": 9126,
      "slight": 9127,
      "attract": 9128,
      "sports": 9129,
      "letters": 9130,
      "believed": 9131,
      "notice": 9132,
      "##ij": 9133,
      "wedding": 9134,
      "##pe": 9135,
      "weak": 9136,
      "successful": 9137,
      "federal": 9138,
      "imposs": 9139,
      "##rupt": 9140,
      "chicago": 9141,
      "cart": 9142,
      "##lvan": 9143,
      "##ev": 9144,
      "palace": 9145,
      "valley": 9146,
      "##ansas": 9147,
      "policy": 9148,
      "soldiers": 9149,
      "chapter": 9150,
      "##iar": 9151,
      "500": 9152,
      "revolution": 9153,
      "particip": 9154,
      "##chan": 9155,
      "unl": 9156,
      "angry": 9157,
      "km": 9158,
      "row": 9159,
      "plat": 9160,
      "braz": 9161,
      "dangerous": 9162,
      "nation": 9163,
      "breath": 9164,
      "##tered": 9165,
      "cars": 9166,
      "qual": 9167,
      "thou": 9168,
      "##lands": 9169,
      "##fast": 9170,
      "comed": 9171,
      "##eds": 9172,
      "described": 9173,
      "##itar": 9174,
      "swed": 9175,
      "condition": 9176,
      "2021": 9177,
      "related": 9178,
      "awards": 9179,
      "sin": 9180,
      "holy": 9181,
      "bless": 9182,
      "##osh": 9183,
      "laws": 9184,
      "micro": 9185,
      "trip": 9186,
      "##erved": 9187,
      "castle": 9188,
      "##itation": 9189,
      "extreme": 9190,
      "italy": 9191,
      "teams": 9192,
      "kitch": 9193,
      "gather": 9194,
      "les": 9195,
      "issue": 9196,
      "surface": 9197,
      "shad": 9198,
      "screen": 9199,
      "crowd": 9200,
      "##anced": 9201,
      "##ini": 9202,
      "basket": 9203,
      "launch": 9204,
      "35": 9205,
      "##ims": 9206,
      "degree": 9207,
      "##lvania": 9208,
      "satis": 9209,
      "tells": 9210,
      "##ateg": 9211,
      "empt": 9212,
      "newsp": 9213,
      "walked": 9214,
      "##aper": 9215,
      "##oms": 9216,
      "##ills": 9217,
      "frequ": 9218,
      "beg": 9219,
      "spr": 9220,
      "missing": 9221,
      "##reg": 9222,
      "property": 9223,
      "systems": 9224,
      "occup": 9225,
      "pin": 9226,
      "cancer": 9227,
      "studio": 9228,
      "rank": 9229,
      "shown": 9230,
      "##using": 9231,
      "crim": 9232,
      "gradu": 9233,
      "##uments": 9234,
      "tend": 9235,
      "recorded": 9236,
      "empire": 9237,
      "impossible": 9238,
      "memory": 9239,
      "##hab": 9240,
      "##west": 9241,
      "##isc": 9242,
      "singing": 9243,
      "##eless": 9244,
      "jen": 9245,
      "placed": 9246,
      "cities": 9247,
      "mike": 9248,
      "eld": 9249,
      "choose": 9250,
      "smart": 9251,
      "currently": 9252,
      "correct": 9253,
      "joseph": 9254,
      "atl": 9255,
      "standard": 9256,
      "weather": 9257,
      "amazing": 9258,
      "kim": 9259,
      "##yl": 9260,
      "hasn": 9261,
      "bloody": 9262,
      "##ware": 9263,
      "houses": 9264,
      "tun": 9265,
      "cant": 9266,
      "##round": 9267,
      "hom": 9268,
      "culture": 9269,
      "flat": 9270,
      "gentlemen": 9271,
      "wash": 9272,
      "performance": 9273,
      "##viet": 9274,
      "##aped": 9275,
      "leading": 9276,
      "planet": 9277,
      "##ota": 9278,
      "possess": 9279,
      "##lled": 9280,
      "calls": 9281,
      "smile": 9282,
      "technology": 9283,
      "painting": 9284,
      "pennsy": 9285,
      "replied": 9286,
      "writer": 9287,
      "##ris": 9288,
      "poet": 9289,
      "disease": 9290,
      "kitchen": 9291,
      "duck": 9292,
      "##ients": 9293,
      "entered": 9294,
      "theat": 9295,
      "rough": 9296,
      "originally": 9297,
      "anywhere": 9298,
      "##izing": 9299,
      "definitely": 9300,
      "surprise": 9301,
      "##vey": 9302,
      "scot": 9303,
      "asse": 9304,
      "arab": 9305,
      "##asant": 9306,
      "##stairs": 9307,
      "easily": 9308,
      "actress": 9309,
      "haw": 9310,
      "signific": 9311,
      "proud": 9312,
      "slowly": 9313,
      "##ios": 9314,
      "artist": 9315,
      "##house": 9316,
      "pennsylvania": 9317,
      "unc": 9318,
      "families": 9319,
      "emerg": 9320,
      "##ibility": 9321,
      "##oved": 9322,
      "##ols": 9323,
      "uses": 9324,
      "brazil": 9325,
      "growing": 9326,
      "transl": 9327,
      "##apt": 9328,
      "hole": 9329,
      "opin": 9330,
      "magic": 9331,
      "gay": 9332,
      "ly": 9333,
      "fal": 9334,
      "2022": 9335,
      "excl": 9336,
      "justice": 9337,
      "native": 9338,
      "ign": 9339,
      "alt": 9340,
      "opening": 9341,
      "soviet": 9342,
      "commer": 9343,
      "academy": 9344,
      "citiz": 9345,
      "##ba": 9346,
      "quarter": 9347,
      "##craft": 9348,
      "bomb": 9349,
      "dollars": 9350,
      "##how": 9351,
      "surround": 9352,
      "blind": 9353,
      "subst": 9354,
      "grass": 9355,
      "##hold": 9356,
      "bigger": 9357,
      "labor": 9358,
      "remain": 9359,
      "vac": 9360,
      "shoes": 9361,
      "motor": 9362,
      "generally": 9363,
      "hid": 9364,
      "dropped": 9365,
      "##vert": 9366,
      "illust": 9367,
      "industry": 9368,
      "boo": 9369,
      "competition": 9370,
      "philos": 9371,
      "channel": 9372,
      "horses": 9373,
      "apparent": 9374,
      "rat": 9375,
      "fash": 9376,
      "types": 9377,
      "##ado": 9378,
      "taught": 9379,
      "##otten": 9380,
      "##anda": 9381,
      "greek": 9382,
      "##ex": 9383,
      "##under": 9384,
      "escape": 9385,
      "forgot": 9386,
      "pock": 9387,
      "##rian": 9388,
      "bread": 9389,
      "risk": 9390,
      "behav": 9391,
      "copy": 9392,
      "##ched": 9393,
      "excell": 9394,
      "beauty": 9395,
      "##aret": 9396,
      "thinks": 9397,
      "##pect": 9398,
      "agreed": 9399,
      "unit": 9400,
      "forth": 9401,
      "ry": 9402,
      "rh": 9403,
      "learning": 9404,
      "saf": 9405,
      "1999": 9406,
      "mistake": 9407,
      "results": 9408,
      "leaders": 9409,
      "includes": 9410,
      "railway": 9411,
      "##bles": 9412,
      "highest": 9413,
      "##ses": 9414,
      "heads": 9415,
      "##back": 9416,
      "contrib": 9417,
      "##ker": 9418,
      "particularly": 9419,
      "descri": 9420,
      "independent": 9421,
      "source": 9422,
      "organization": 9423,
      "zero": 9424,
      "laughter": 9425,
      "bod": 9426,
      "greatest": 9427,
      "##aching": 9428,
      "opportunity": 9429,
      "wheel": 9430,
      "##nie": 9431,
      "yo": 9432,
      "evil": 9433,
      "mort": 9434,
      "##gypt": 9435,
      "smaller": 9436,
      "driving": 9437,
      "archit": 9438,
      "agent": 9439,
      "##play": 9440,
      "shr": 9441,
      "na": 9442,
      "##isions": 9443,
      "territ": 9444,
      "##zen": 9445,
      "darling": 9446,
      "##ulations": 9447,
      "progress": 9448,
      "benef": 9449,
      "dir": 9450,
      "kr": 9451,
      "runs": 9452,
      "32": 9453,
      "basically": 9454,
      "##aled": 9455,
      "opt": 9456,
      "##rel": 9457,
      "patient": 9458,
      "##che": 9459,
      "colonel": 9460,
      "egypt": 9461,
      "interview": 9462,
      "pleasure": 9463,
      "fashion": 9464,
      "besides": 9465,
      "##iverse": 9466,
      "prize": 9467,
      "architect": 9468,
      "crack": 9469,
      "scar": 9470,
      "operation": 9471,
      "##isted": 9472,
      "firm": 9473,
      "appre": 9474,
      "vote": 9475,
      "emper": 9476,
      "virginia": 9477,
      "nic": 9478,
      "weird": 9479,
      "##imate": 9480,
      "instr": 9481,
      "##utions": 9482,
      "trib": 9483,
      "cub": 9484,
      "##lor": 9485,
      "##iety": 9486,
      "horn": 9487,
      "wat": 9488,
      "heat": 9489,
      "edge": 9490,
      "##ores": 9491,
      "studied": 9492,
      "spell": 9493,
      "##icient": 9494,
      "jane": 9495,
      "remained": 9496,
      "entertain": 9497,
      "francis": 9498,
      "assemb": 9499,
      "companies": 9500,
      "witness": 9501,
      "laughs": 9502,
      "60": 9503,
      "ot": 9504,
      "carl": 9505,
      "studies": 9506,
      "##iana": 9507,
      "sunday": 9508,
      "saved": 9509,
      "otherwise": 9510,
      "turns": 9511,
      "worried": 9512,
      "plans": 9513,
      "##ening": 9514,
      "forced": 9515,
      "##cise": 9516,
      "finger": 9517,
      "expected": 9518,
      "stan": 9519,
      "pred": 9520,
      "designed": 9521,
      "upper": 9522,
      "##head": 9523,
      "##pan": 9524,
      "##ja": 9525,
      "becomes": 9526,
      "mayor": 9527,
      "##kin": 9528,
      "laid": 9529,
      "##oned": 9530,
      "breakfast": 9531,
      "mentioned": 9532,
      "rand": 9533,
      "185": 9534,
      "negative": 9535,
      "indic": 9536,
      "emot": 9537,
      "mechan": 9538,
      "speech": 9539,
      "magazine": 9540,
      "provide": 9541,
      "aye": 9542,
      "loud": 9543,
      "flying": 9544,
      "##iance": 9545,
      "##ishop": 9546,
      "##ada": 9547,
      "sword": 9548,
      "hungry": 9549,
      "picked": 9550,
      "crying": 9551,
      "larger": 9552,
      "toward": 9553,
      "shape": 9554,
      "plane": 9555,
      "adult": 9556,
      "starts": 9557,
      "wearing": 9558,
      "african": 9559,
      "harm": 9560,
      "filled": 9561,
      "complex": 9562,
      "corpor": 9563,
      "ram": 9564,
      "##ona": 9565,
      "cham": 9566,
      "coo": 9567,
      "butter": 9568,
      "bitch": 9569,
      "mere": 9570,
      "chart": 9571,
      "acting": 9572,
      "library": 9573,
      "powerful": 9574,
      "tape": 9575,
      "structure": 9576,
      "episode": 9577,
      "concept": 9578,
      "es": 9579,
      "forever": 9580,
      "bother": 9581,
      "sighs": 9582,
      "airport": 9583,
      "vot": 9584,
      "killing": 9585,
      "features": 9586,
      "patter": 9587,
      "sha": 9588,
      "islands": 9589,
      "##ems": 9590,
      "cas": 9591,
      "spok": 9592,
      "minus": 9593,
      "dogs": 9594,
      "adam": 9595,
      "totally": 9596,
      "mexico": 9597,
      "45": 9598,
      "forms": 9599,
      "plants": 9600,
      "crew": 9601,
      "##ala": 9602,
      "reve": 9603,
      "##rif": 9604,
      "charlie": 9605,
      "##rey": 9606,
      "legal": 9607,
      "strugg": 9608,
      "##mond": 9609,
      "pink": 9610,
      "##rael": 9611,
      "reported": 9612,
      "1998": 9613,
      "canadian": 9614,
      "##arm": 9615,
      "##iles": 9616,
      "applic": 9617,
      "chairman": 9618,
      "empty": 9619,
      "democratic": 9620,
      "festival": 9621,
      "##iano": 9622,
      "camera": 9623,
      "cere": 9624,
      "conference": 9625,
      "cloud": 9626,
      "##ads": 9627,
      "apple": 9628,
      "target": 9629,
      "##iant": 9630,
      "windows": 9631,
      "##isl": 9632,
      "sides": 9633,
      "bast": 9634,
      "1996": 9635,
      "##itzer": 9636,
      "conserv": 9637,
      "kinds": 9638,
      "##wr": 9639,
      "colour": 9640,
      "brief": 9641,
      "physical": 9642,
      "nav": 9643,
      "satur": 9644,
      "fright": 9645,
      "arts": 9646,
      "australian": 9647,
      "anth": 9648,
      "finan": 9649,
      "fant": 9650,
      "yep": 9651,
      "wine": 9652,
      "conditions": 9653,
      "stuck": 9654,
      "##icles": 9655,
      "mountains": 9656,
      "sav": 9657,
      "contr": 9658,
      "hardly": 9659,
      "duty": 9660,
      "resour": 9661,
      "##istry": 9662,
      "gate": 9663,
      "aware": 9664,
      "lack": 9665,
      "tight": 9666,
      "dare": 9667,
      "retired": 9668,
      "metal": 9669,
      "##aked": 9670,
      "demon": 9671,
      "turning": 9672,
      "##ulous": 9673,
      "clearly": 9674,
      "critic": 9675,
      "symb": 9676,
      "thick": 9677,
      "sher": 9678,
      "issues": 9679,
      "##sec": 9680,
      "freedom": 9681,
      "minor": 9682,
      "economic": 9683,
      "grun": 9684,
      "##ashed": 9685,
      "switch": 9686,
      "dor": 9687,
      "orders": 9688,
      "kil": 9689,
      "teeth": 9690,
      "candid": 9691,
      "likes": 9692,
      "neighbor": 9693,
      "anti": 9694,
      "##wa": 9695,
      "document": 9696,
      "grown": 9697,
      "emperor": 9698,
      "detect": 9699,
      "obl": 9700,
      "##oul": 9701,
      "religious": 9702,
      "ninet": 9703,
      "narr": 9704,
      "handle": 9705,
      "israel": 9706,
      "orch": 9707,
      "spain": 9708,
      "forgive": 9709,
      "##utive": 9710,
      "drew": 9711,
      "pac": 9712,
      "rush": 9713,
      "increase": 9714,
      "web": 9715,
      "pitch": 9716,
      "##igned": 9717,
      "intellig": 9718,
      "winning": 9719,
      "advent": 9720,
      "##nel": 9721,
      "sarah": 9722,
      "becoming": 9723,
      "transfer": 9724,
      "characters": 9725,
      "drama": 9726,
      "hyd": 9727,
      "ec": 9728,
      "##uten": 9729,
      "active": 9730,
      "temple": 9731,
      "remind": 9732,
      "georg": 9733,
      "serve": 9734,
      "construction": 9735,
      "wing": 9736,
      "seriously": 9737,
      "pair": 9738,
      "delight": 9739,
      "flag": 9740,
      "##han": 9741,
      "rome": 9742,
      "silly": 9743,
      "divided": 9744,
      "previous": 9745,
      "performed": 9746,
      "lies": 9747,
      "##esty": 9748,
      "statistics": 9749,
      "eggs": 9750,
      "##hen": 9751,
      "biggest": 9752,
      "veh": 9753,
      "catholic": 9754,
      "1994": 9755,
      "1995": 9756,
      "##va": 9757,
      "bat": 9758,
      "##cend": 9759,
      "cous": 9760,
      "meat": 9761,
      "measure": 9762,
      "##ost": 9763,
      "##omm": 9764,
      "appointed": 9765,
      "ourselves": 9766,
      "rare": 9767,
      "separate": 9768,
      "odd": 9769,
      "stream": 9770,
      "drag": 9771,
      "authority": 9772,
      "##ques": 9773,
      "##father": 9774,
      "##oring": 9775,
      "##ola": 9776,
      "possibly": 9777,
      "recently": 9778,
      "36": 9779,
      "reasons": 9780,
      "rod": 9781,
      "plain": 9782,
      "waste": 9783,
      "##ulf": 9784,
      "russia": 9785,
      "keeping": 9786,
      "1992": 9787,
      "realize": 9788,
      "##esh": 9789,
      "sus": 9790,
      "noise": 9791,
      "##oe": 9792,
      "autom": 9793,
      "offered": 9794,
      "dyn": 9795,
      "tong": 9796,
      "quality": 9797,
      "missed": 9798,
      "gang": 9799,
      "lawyer": 9800,
      "##host": 9801,
      "dutch": 9802,
      "wet": 9803,
      "ordered": 9804,
      "directly": 9805,
      "##ties": 9806,
      "resist": 9807,
      "maid": 9808,
      "responsible": 9809,
      "##oma": 9810,
      "##aling": 9811,
      "prove": 9812,
      "##imately": 9813,
      "##ckey": 9814,
      "teaching": 9815,
      "sake": 9816,
      "##roll": 9817,
      "orange": 9818,
      "crown": 9819,
      "ty": 9820,
      "##jo": 9821,
      "##nis": 9822,
      "management": 9823,
      "influence": 9824,
      "concert": 9825,
      "##the": 9826,
      "##bi": 9827,
      "ghost": 9828,
      "branch": 9829,
      "##cles": 9830,
      "roof": 9831,
      "jean": 9832,
      "willing": 9833,
      "despite": 9834,
      "bul": 9835,
      "cash": 9836,
      "planning": 9837,
      "##pa": 9838,
      "decide": 9839,
      "medicine": 9840,
      "buildings": 9841,
      "harry": 9842,
      "mama": 9843,
      "ax": 9844,
      "shock": 9845,
      "religion": 9846,
      "redu": 9847,
      "nan": 9848,
      "seconds": 9849,
      "replaced": 9850,
      "jam": 9851,
      "drunk": 9852,
      "constitution": 9853,
      "dirty": 9854,
      "##bel": 9855,
      "saturday": 9856,
      "pure": 9857,
      "guns": 9858,
      "nucle": 9859,
      "appreci": 9860,
      "##mar": 9861,
      "officers": 9862,
      "mob": 9863,
      "dreams": 9864,
      "failed": 9865,
      "diam": 9866,
      "image": 9867,
      "##oured": 9868,
      "taste": 9869,
      "musical": 9870,
      "ted": 9871,
      "ga": 9872,
      "os": 9873,
      "favour": 9874,
      "promised": 9875,
      "refle": 9876,
      "tower": 9877,
      "screw": 9878,
      "##ule": 9879,
      "listening": 9880,
      "sharp": 9881,
      "##iences": 9882,
      "doct": 9883,
      "ult": 9884,
      "##ruct": 9885,
      "##night": 9886,
      "1997": 9887,
      "journey": 9888,
      "01": 9889,
      "##igr": 9890,
      "recover": 9891,
      "adop": 9892,
      "sleeping": 9893,
      "owned": 9894,
      "sup": 9895,
      "meas": 9896,
      "##aging": 9897,
      "giant": 9898,
      "workers": 9899,
      "tournam": 9900,
      "silence": 9901,
      "pier": 9902,
      "rang": 9903,
      "prior": 9904,
      "route": 9905,
      "##lam": 9906,
      "introduced": 9907,
      "partner": 9908,
      "onto": 9909,
      "safety": 9910,
      "produce": 9911,
      "knowing": 9912,
      "concerned": 9913,
      "godd": 9914,
      "britain": 9915,
      "##fortun": 9916,
      "syn": 9917,
      "prepared": 9918,
      "map": 9919,
      "thro": 9920,
      "1990": 9921,
      "surprised": 9922,
      "honour": 9923,
      "exch": 9924,
      "dish": 9925,
      "bond": 9926,
      "##hi": 9927,
      "motion": 9928,
      "edward": 9929,
      "swear": 9930,
      "ire": 9931,
      "broadcast": 9932,
      "##iger": 9933,
      "opinion": 9934,
      "nations": 9935,
      "##har": 9936,
      "jeff": 9937,
      "succeed": 9938,
      "prefer": 9939,
      "florida": 9940,
      "grace": 9941,
      "##ox": 9942,
      "##kn": 9943,
      "trial": 9944,
      "##ube": 9945,
      "desert": 9946,
      "maintain": 9947,
      "flower": 9948,
      "pad": 9949,
      "worst": 9950,
      "##rial": 9951,
      "universe": 9952,
      "medal": 9953,
      "glo": 9954,
      "relax": 9955,
      "nap": 9956,
      "everywhere": 9957,
      "languages": 9958,
      "1993": 9959,
      "altern": 9960,
      "mainly": 9961,
      "fifth": 9962,
      "fixed": 9963,
      "continues": 9964,
      "##umn": 9965,
      "jac": 9966,
      "assum": 9967,
      "33": 9968,
      "smoke": 9969,
      "##abeth": 9970,
      "ears": 9971,
      "som": 9972,
      "lieuten": 9973,
      "destroyed": 9974,
      "traff": 9975,
      "circum": 9976,
      "coat": 9977,
      "tan": 9978,
      "##kes": 9979,
      "##leep": 9980,
      "chemical": 9981,
      "debut": 9982,
      "manner": 9983,
      "americans": 9984,
      "advant": 9985,
      "##ias": 9986,
      "institute": 9987,
      "iv": 9988,
      "angeles": 9989,
      "appearance": 9990,
      "actual": 9991,
      "##shire": 9992,
      "80": 9993,
      "height": 9994,
      "athlet": 9995,
      "##kins": 9996,
      "guitar": 9997,
      "dying": 9998,
      "##lla": 9999,
      "defend": 10000,
      "##idents": 10001,
      "finding": 10002,
      "sugar": 10003,
      "##lict": 10004,
      "tough": 10005,
      "grab": 10006,
      "##ault": 10007,
      "##cks": 10008,
      "feels": 10009,
      "humans": 10010,
      "occasion": 10011,
      "confir": 10012,
      "fifteen": 10013,
      "bun": 10014,
      "collection": 10015,
      "kent": 10016,
      "pulled": 10017,
      "younger": 10018,
      "treatment": 10019,
      "ends": 10020,
      "switzer": 10021,
      "ireland": 10022,
      "pool": 10023,
      "##orter": 10024,
      "marsh": 10025,
      "easier": 10026,
      "thy": 10027,
      "damage": 10028,
      "##ector": 10029,
      "bush": 10030,
      "thousands": 10031,
      "commander": 10032,
      "hast": 10033,
      "flow": 10034,
      "ships": 10035,
      "switzerland": 10036,
      "awful": 10037,
      "financial": 10038,
      "provided": 10039,
      "legisl": 10040,
      "traditional": 10041,
      "mate": 10042,
      "hind": 10043,
      "sequ": 10044,
      "asleep": 10045,
      "sail": 10046,
      "lieutenant": 10047,
      "##ux": 10048,
      "reality": 10049,
      "hook": 10050,
      "unfortun": 10051,
      "rise": 10052,
      "##enced": 10053,
      "restaur": 10054,
      "barb": 10055,
      "remark": 10056,
      "robin": 10057,
      "raise": 10058,
      "steps": 10059,
      "chicken": 10060,
      "drum": 10061,
      "expression": 10062,
      "cabin": 10063,
      "##achel": 10064,
      "audience": 10065,
      "location": 10066,
      "billy": 10067,
      "##ste": 10068,
      "1991": 10069,
      "pocket": 10070,
      "cream": 10071,
      "pard": 10072,
      "managed": 10073,
      "driver": 10074,
      "##aver": 10075,
      "##road": 10076,
      "border": 10077,
      "threw": 10078,
      "apparently": 10079,
      "wid": 10080,
      "##ani": 10081,
      "##ram": 10082,
      "##east": 10083,
      "##sa": 10084,
      "tiny": 10085,
      "##time": 10086,
      "conversation": 10087,
      "spoken": 10088,
      "goodby": 10089,
      "watched": 10090,
      "##elle": 10091,
      "stret": 10092,
      "##ushing": 10093,
      "anx": 10094,
      "showing": 10095,
      "usual": 10096,
      "trop": 10097,
      "walls": 10098,
      "##mark": 10099,
      "##uries": 10100,
      "manu": 10101,
      "whisper": 10102,
      "strike": 10103,
      "eliz": 10104,
      "appears": 10105,
      "terror": 10106,
      "background": 10107,
      "circle": 10108,
      "grave": 10109,
      "az": 10110,
      "tru": 10111,
      "gift": 10112,
      "##bc": 10113,
      "vice": 10114,
      "##tle": 10115,
      "bub": 10116,
      "##arr": 10117,
      "hadn": 10118,
      "pak": 10119,
      "delic": 10120,
      "admir": 10121,
      "han": 10122,
      "mail": 10123,
      "##da": 10124,
      "papers": 10125,
      "loves": 10126,
      "remains": 10127,
      "lights": 10128,
      "poly": 10129,
      "hockey": 10130,
      "##urance": 10131,
      "##kend": 10132,
      "shell": 10133,
      "##ulty": 10134,
      "reven": 10135,
      "##rid": 10136,
      "exer": 10137,
      "fingers": 10138,
      "sab": 10139,
      "fu": 10140,
      "losing": 10141,
      "propos": 10142,
      "innoc": 10143,
      "##rawn": 10144,
      "request": 10145,
      "ross": 10146,
      "laughed": 10147,
      "constant": 10148,
      "chea": 10149,
      "goodbye": 10150,
      "fruit": 10151,
      "184": 10152,
      "hills": 10153,
      "kitt": 10154,
      "##inois": 10155,
      "feelings": 10156,
      "lind": 10157,
      "zeal": 10158,
      "gor": 10159,
      "element": 10160,
      "jobs": 10161,
      "1989": 10162,
      "comedy": 10163,
      "##cel": 10164,
      "schol": 10165,
      "wrest": 10166,
      "buried": 10167,
      "johnny": 10168,
      "content": 10169,
      "##itan": 10170,
      "daily": 10171,
      "##onse": 10172,
      "scale": 10173,
      "##over": 10174,
      "illinois": 10175,
      "units": 10176,
      "300": 10177,
      "credit": 10178,
      "lic": 10179,
      "##apes": 10180,
      "complic": 10181,
      "drugs": 10182,
      "kansas": 10183,
      "understood": 10184,
      "##rison": 10185,
      "relative": 10186,
      "stayed": 10187,
      "bare": 10188,
      "improve": 10189,
      "focus": 10190,
      "encour": 10191,
      "favorite": 10192,
      "##ops": 10193,
      "cake": 10194,
      "##inate": 10195,
      "ves": 10196,
      "territory": 10197,
      "exhib": 10198,
      "opposite": 10199,
      "noticed": 10200,
      "wolf": 10201,
      "##ji": 10202,
      "statement": 10203,
      "bottle": 10204,
      "90": 10205,
      "cells": 10206,
      "tony": 10207,
      "troops": 10208,
      "excellent": 10209,
      "jimmy": 10210,
      "file": 10211,
      "##uals": 10212,
      "##ern": 10213,
      "hearing": 10214,
      "nerv": 10215,
      "required": 10216,
      "latin": 10217,
      "primary": 10218,
      "thoughts": 10219,
      "limited": 10220,
      "theatre": 10221,
      "##imum": 10222,
      "##hol": 10223,
      "ron": 10224,
      "somehow": 10225,
      "##ingu": 10226,
      "score": 10227,
      "##ocol": 10228,
      "##gs": 10229,
      "gran": 10230,
      "lect": 10231,
      "labour": 10232,
      "##resp": 10233,
      "##quar": 10234,
      "##azz": 10235,
      "thin": 10236,
      "bishop": 10237,
      "##icide": 10238,
      "poll": 10239,
      "##attle": 10240,
      "inte": 10241,
      "completed": 10242,
      "victory": 10243,
      "chuckles": 10244,
      "sid": 10245,
      "faster": 10246,
      "nur": 10247,
      "weekend": 10248,
      "assembly": 10249,
      "notes": 10250,
      "bac": 10251,
      "dust": 10252,
      "rapid": 10253,
      "friday": 10254,
      "selling": 10255,
      "effects": 10256,
      "angel": 10257,
      "depress": 10258,
      "shadow": 10259,
      "##put": 10260,
      "fought": 10261,
      "earn": 10262,
      "sym": 10263,
      "billion": 10264,
      "falling": 10265,
      "helping": 10266,
      "temperature": 10267,
      "split": 10268,
      "lion": 10269,
      "gentleman": 10270,
      "gray": 10271,
      "vari": 10272,
      "challen": 10273,
      "comment": 10274,
      "recent": 10275,
      "ded": 10276,
      "steve": 10277,
      "struck": 10278,
      "previously": 10279,
      "##die": 10280,
      "bringing": 10281,
      "majesty": 10282,
      "advice": 10283,
      "##do": 10284,
      "senior": 10285,
      "##rick": 10286,
      "upset": 10287,
      "34": 10288,
      "require": 10289,
      "dude": 10290,
      "streets": 10291,
      "trail": 10292,
      "ped": 10293,
      "ninety": 10294,
      "ts": 10295,
      "mathem": 10296,
      "tournament": 10297,
      "scotland": 10298,
      "protest": 10299,
      "##book": 10300,
      "##rie": 10301,
      "glob": 10302,
      "internet": 10303,
      "fired": 10304,
      "grey": 10305,
      "climate": 10306,
      "##ko": 10307,
      "lif": 10308,
      "sixty": 10309,
      "establish": 10310,
      "desire": 10311,
      "mole": 10312,
      "hay": 10313,
      "shore": 10314,
      "maria": 10315,
      "chris": 10316,
      "thee": 10317,
      "##ali": 10318,
      "##ili": 10319,
      "##win": 10320,
      "basic": 10321,
      "click": 10322,
      "piano": 10323,
      "matters": 10324,
      "philosop": 10325,
      "attend": 10326,
      "jackson": 10327,
      "cooper": 10328,
      "concent": 10329,
      "imper": 10330,
      "shel": 10331,
      "nineteen": 10332,
      "cott": 10333,
      "soldier": 10334,
      "##enc": 10335,
      "ability": 10336,
      "conscious": 10337,
      "weapons": 10338,
      "batter": 10339,
      "jail": 10340,
      "consum": 10341,
      "adj": 10342,
      "newspaper": 10343,
      "etc": 10344,
      "lips": 10345,
      "majority": 10346,
      "thor": 10347,
      "afford": 10348,
      "ther": 10349,
      "bodies": 10350,
      "tears": 10351,
      "cock": 10352,
      "webs": 10353,
[...]
