[PAD]
[UNK]
[CLS]
[SEP]
[MASK]
!
"
#
$
%
&
'
(
)
*
+
,
-
.
/
0
1
2
3
4
5
6
7
8
9
:
;
<
=
>
?
@
[
\
]
^
_
`
a
b
c
d
e
f
g
h
i
j
k
l
m
n
o
p
q
r
s
t
u
v
w
x
y
z
{
|
}
~
¡
¢
£
¤
¥
¦
§
¨
©
ª
«
¬
®
¯
°
±
²
³
´
µ
¶
·
¸
¹
º
»
¼
½
¾
¿
×
ß
æ
ð
÷
ø
þ
đ
ħ
ı
ł
ŉ
ŋ
œ
ŧ
ſ
ƌ
ƒ
ƶ
ǁ
ǂ
ǃ
ǝ
ȝ
ȷ
ɂ
ɐ
ɑ
ɒ
ɓ
ɔ
ɕ
ɖ
ɗ
ɘ
ə
ɛ
ɜ
ɝ
ɠ
ɡ
ɢ
ɣ
ɥ
ɦ
ɨ
ɪ
ɫ
ɬ
ɮ
ɯ
ɲ
ɳ
ɴ
ɵ
ɶ
ɹ
ɽ
ɾ
ʀ
ʁ
ʂ
ʃ
ʄ
ʈ
ʉ
ʊ
ʋ
ʌ
ʎ
ʏ
ʐ
ʒ
ʔ
ʕ
ʙ
ʛ
ʜ
ʟ
ʤ
ʦ
ʰ
ʱ
ʲ
ʳ
ʷ
ʹ
ʻ
ʼ
ʽ
ʾ
ʿ
ˀ
ˁ
ˆ
ˇ
ˈ
ˊ
ˋ
ˌ
ː
˙
˚
˛
˜
ˡ
ˤ
˥
˧
˨
˩
˹
˺
΄
α
β
γ
δ
ε
ζ
η
θ
ι
κ
λ
μ
ν
ξ
ο
π
ρ
ς
σ
τ
υ
φ
χ
ψ
ω
ϑ
ϕ
ϙ
ϛ
ϝ
ϲ
ϵ
ϸ
ϻ
а
б
в
г
д
е
ж
з
и
к
л
м
н
о
п
р
с
т
у
ф
х
ц
ч
ш
щ
ъ
ы
ь
э
ю
я
ђ
є
ѕ
і
ј
љ
њ
ћ
џ
ѡ
ѣ
ѧ
ѫ
ѯ
ѱ
ѳ
ҁ
ҍ
ҏ
ґ
ғ
қ
ҡ
ҧ
ҫ
ү
ұ
ҹ
ӆ
ӈ
ӏ
ә
ө
ԁ
ԙ
ա
բ
գ
դ
ե
զ
է
թ
ժ
ի
լ
խ
կ
հ
ձ
ղ
մ
յ
ն
շ
ո
չ
պ
ջ
ռ
ս
վ
տ
ր
ց
ւ
փ
ք
օ
ֆ
־
א
ב
ג
ד
ה
ו
ז
ח
ט
י
ך
כ
ל
ם
מ
ן
נ
ס
ע
ף
פ
ץ
צ
ק
ר
ש
ת
װ
״
،
ء
ا
ب
ة
ت
ث
ج
ح
خ
د
ذ
ر
ز
س
ش
ص
ض
ط
ظ
ع
غ
ـ
ف
ق
ك
ل
م
ن
ه
و
ى
ي
١
٢
٤
٥
٦
٧
٨
٩
ٱ
ٹ
ٽ
پ
ٿ
ڄ
څ
چ
ڈ
ڊ
ڌ
ڑ
ڕ
ژ
ښ
ڠ
ڤ
ک
ڬ
ڭ
گ
ڵ
ں
ڽ
ھ
ہ
ۆ
ی
ێ
ې
ے
ە
ۥ
۶
۷
܅
ܐ
ܒ
ܕ
ܘ
ܚ
ܟ
ܡ
ܣ
ܪ
ܫ
ܬ
ݢ
ހ
ށ
ނ
ރ
ބ
ކ
އ
ވ
މ
ފ
ދ
ތ
ލ
ގ
ސ
ޑ
ޒ
ޔ
ޖ
ޙ
ޛ
ޝ
ޞ
ޢ
ޣ
ޤ
ߊ
ߌ
ߏ
ߖ
ߛ
ߝ
ߞ
ߟ
ߡ
ߣ
ः
अ
आ
इ
उ
ऊ
ऋ
ए
ओ
क
ख
ग
घ
ङ
च
छ
ज
झ
ञ
ट
ठ
ड
ढ
ण
त
थ
द
ध
न
प
फ
ब
भ
म
य
र
ल
ळ
व
श
ष
स
ह
ऽ
ा
ि
ी
ॉ
ो
ौ
।
॥
०
१
२
३
४
५
६
७
ং
অ
আ
ই
উ
এ
ও
ক
খ
গ
ঘ
ঙ
চ
ছ
জ
ঞ
ট
ড
ঢ
ণ
ত
থ
দ
ধ
ন
প
ফ
ব
ভ
ম
য
র
ল
শ
ষ
স
হ
া
ি
ী
ে
ৈ
ৎ
ৗ
ৰ
ਅ
ਆ
ਈ
ਓ
ਔ
ਖ
ਗ
ਘ
ਚ
ਜ
ਠ
ਣ
ਤ
ਥ
ਦ
ਨ
ਪ
ਫ
ਬ
ਮ
ਰ
ਲ
ਵ
ਸ
ਹ
ਾ
ਿ
ੀ
ੜ
ક
ગ
ચ
છ
જ
ટ
ડ
ત
દ
ન
પ
બ
ય
ર
લ
સ
હ
ા
િ
ી
ો
ଂ
କ
ଙ
ଛ
ଜ
ଟ
ଡ
ଣ
ତ
ଦ
ଧ
ନ
ପ
ବ
ମ
ର
ଶ
ସ
ହ
ା
ୀ
େ
ୟ
ஃ
அ
இ
ஈ
உ
ஊ
எ
ஐ
ஒ
க
ங
ச
ஜ
ஞ
ட
ண
த
ந
ன
ப
ம
ய
ர
ற
ல
ள
ழ
வ
ஸ
ா
ி
ு
ூ
ெ
ே
ை
ం
ః
అ
ఆ
ఇ
ఈ
ఉ
ఊ
ఋ
ఎ
ఏ
ఐ
ఒ
ఓ
ఔ
క
ఖ
గ
ఘ
ఙ
చ
ఛ
జ
ఝ
ఞ
ట
ఠ
డ
ఢ
ణ
త
థ
ద
ధ
న
ప
ఫ
బ
భ
మ
య
ర
ఱ
ల
ళ
వ
శ
ష
స
హ
ు
ూ
ౠ
౦
౧
౨
౩
౪
౫
౬
౭
౮
౯
ಂ
ಕ
ಗ
ಜ
ಟ
ಡ
ಣ
ತ
ನ
ಪ
ಬ
ಭ
ಮ
ಯ
ರ
ಲ
ಳ
ವ
ಶ
ಸ
ಹ
ಾ
ು
ೂ
ೕ
ೖ
ം
അ
ഇ
ഉ
ക
ഗ
ങ
ച
ജ
ഞ
ട
ണ
ത
ദ
ന
പ
മ
യ
ര
റ
ല
ള
വ
ശ
ഷ
സ
ഹ
ാ
ി
ീ
െ
േ
ൻ
ർ
ൽ
ං
අ
ආ
ඇ
ඉ
එ
ඖ
ක
ග
ච
ජ
ඥ
ට
ඨ
ඩ
ණ
ත
ද
ධ
න
ප
බ
භ
ම
ය
ර
ල
ව
ශ
ෂ
ස
හ
ා
ැ
ෘ
ෙ
ก
ข
ค
ง
จ
ฉ
ช
ซ
ญ
ฎ
ฏ
ฐ
ฑ
ฒ
ณ
ด
ต
ถ
ท
ธ
น
บ
ป
ผ
ฝ
พ
ฟ
ภ
ม
ย
ร
ฤ
ล
ว
ศ
ษ
ส
ห
ฬ
อ
ฯ
ะ
า
ำ
เ
แ
โ
ใ
ไ
๏
ກ
ຄ
ຊ
ຍ
ດ
ທ
ນ
ບ
ຜ
ພ
ລ
ວ
ສ
ຫ
ອ
ຮ
ະ
າ
ຳ
ເ
ແ
ໃ
ໄ
་
།
ཀ
ག
ང
ཆ
ཏ
ཐ
ད
ན
པ
ཕ
བ
མ
ཙ
ཞ
ཡ
ར
ལ
ས
ཧ
က
ဃ
င
စ
ဆ
ဇ
ဈ
ဉ
ည
ဋ
ဌ
ဍ
ဎ
ဏ
တ
ထ
ဓ
န
ပ
ဗ
ဘ
မ
ရ
လ
ဝ
သ
ဟ
ဠ
အ
ဥ
ါ
ာ
ေ
း
ျ
ြ
၀
၁
၂
၃
၄
၅
၆
၇
၈
၉
ၐ
ၑ
ა
ბ
გ
დ
ე
ვ
ზ
თ
ი
კ
ლ
მ
ნ
ო
რ
ს
ტ
უ
ქ
ღ
შ
ც
ძ
წ
ჭ
ხ
ჯ
ᄀ
ᄁ
ᄂ
ᄃ
ᄄ
ᄅ
ᄆ
ᄇ
ᄈ
ᄉ
ᄊ
ᄋ
ᄌ
ᄍ
ᄎ
ᄏ
ᄐ
ᄑ
ᄒ
ᅡ
ᅢ
ᅣ
ᅥ
ᅦ
ᅧ
ᅨ
ᅩ
ᅪ
ᅫ
ᅬ
ᅭ
ᅮ
ᅯ
ᅰ
ᅱ
ᅲ
ᅳ
ᅴ
ᅵ
ᆨ
ᆫ
ᆯ
ᆷ
ᆸ
ᆺ
ᆻ
ᆼ
ᆽ
ᆾ
ᇀ
ᇁ
ᇂ
ሁ
ህ
ለ
ሊ
ላ
ሌ
ሓ
ሕ
መ
ማ
ሜ
ም
ረ
ሪ
ራ
ር
ሮ
ሰ
ሱ
ሳ
ሴ
ስ
ቂ
ቃ
ቅ
ቆ
ቈ
ቢ
ባ
ብ
ቦ
ቲ
ታ
ቴ
ት
ቸ
ነ
ን
ኖ
አ
ኢ
ኣ
ከ
ኩ
ኮ
ወ
ዊ
ው
ዎ
ዐ
ዕ
ዘ
ዝ
የ
ያ
ይ
ዮ
ዲ
ዳ
ዴ
ድ
ገ
ጌ
ግ
ጎ
ጵ
ፍ
ᏹ
ᐃ
ᐄ
ᐅ
ᐆ
ᐊ
ᐋ
ᐦ
ᐯ
ᐱ
ᐸ
ᑉ
ᑐ
ᑕ
ᑦ
ᑲ
ᒃ
ᒡ
ᒪ
ᒻ
ᓂ
ᓄ
ᓇ
ᓐ
ᓗ
ᓪ
ᓯ
ᓴ
ᔅ
ᔨ
ᔪ
ᔭ
ᔾ
ᕐ
ᕙ
ᕝ
ᕿ
ᖃ
ᖅ
ᖏ
ᖑ
ᖕ
ᖖ
ᖦ
ᗸ
ᘅ
ᚠ
ᚢ
ᚦ
ᚨ
ᚱ
ᚲ
ᛖ
ᝢ
ᝮ
ក
ខ
គ
ង
ច
ជ
ញ
ឌ
ណ
ត
ទ
ន
ប
ព
ភ
ម
យ
រ
ល
ស
អ
ឧ
ា
ៀ
េ
ែ
ោ
ៅ
ះ
០
១
២
៣
៤
៥
៦
៧
៨
៩
ᴀ
ᴄ
ᴅ
ᴇ
ᴍ
ᴏ
ᴖ
ᴘ
ᴛ
ᴜ
ᴢ
ᴥ
ᴫ
ᵇ
ᵉ
ᵢ
‐
‑
‒
–
—
―
‖
‘
’
‚
‛
“
”
„
‟
†
‡
•
…
‧
‰
′
″
›
※
‼
‽
‾
‿
⁄
⁈
⁰
⁴
⁵
⁶
⁸
⁹
⁺
⁻
ⁿ
₀
₁
₂
₃
₄
₅
₆
₇
₈
₋
ₑ
ₚ
₡
₣
₤
₦
₩
₪
₫
€
₱
₵
₹
₺
₽
₿
℃
℈
ℓ
℔
ℕ
№
℗
ℚ
ℝ
℞
℠
™
℥
⅓
⅔
⅕
⅘
⅛
⅜
⅝
⅞
ⅰ
ⅱ
ⅲ
←
↑
→
↓
↔
↦
↵
↺
⇐
⇒
⇔
∀
∂
∃
∅
∆
∇
∈
∑
−
∕
√
∛
∝
∞
∠
∧
∨
∩
∪
∫
∴
∼
≃
≅
≈
≒
≔
≡
≤
≥
≧
≫
⊂
⊆
⊕
⊗
⊙
⋅
⌀
⌂
⌬
⏣
①
②
③
④
⑤
⑥
⑦
ⓒ
ⓢ
─
│
┌
┐
└
┘
┬
┴
┼
═
╗
╚
█
■
◅
◊
○
◌
●
◾
☃
★
☆
☉
☎
☛
☣
☭
☺
☻
♀
♄
♆
♋
♑
♙
♟
♠
♡
♣
♥
♦
♪
♫
♬
♭
♮
♯
⚥
✓
✚
❤
⟨
⟩
⨳
⬄
ⱡ
ⲁ
ⲏ
ⲓ
ⲙ
ⲛ
ⲟ
ⲡ
ⲣ
ⲥ
ⲫ
ⲱ
ⴰ
ⴱ
ⴳ
ⴷ
ⴹ
ⴻ
ⴽ
ⵀ
ⵃ
ⵅ
ⵉ
ⵊ
ⵍ
ⵎ
ⵏ
ⵓ
ⵔ
ⵖ
ⵙ
ⵛ
ⵜ
ⵡ
ⵢ
ⵣ
⸺
⿰
⿱
⿺
、
。
〃
々
〈
〉
《
》
「
」
『
』
【
】
〔
〕
〜
ぁ
あ
ぃ
い
う
え
お
か
き
く
け
こ
さ
し
す
せ
そ
た
ち
っ
つ
て
と
な
に
ね
の
は
ひ
ふ
へ
ほ
ま
み
む
め
も
ゃ
や
ゅ
ゆ
ょ
よ
ら
り
る
れ
ろ
わ
を
ん
ァ
ア
ィ
イ
ウ
ェ
エ
ォ
オ
カ
キ
ク
ケ
コ
サ
シ
ス
セ
ソ
タ
チ
ッ
ツ
テ
ト
ナ
ニ
ヌ
ネ
ノ
ハ
ヒ
フ
ヘ
ホ
マ
ミ
ム
メ
モ
ャ
ヤ
ュ
ユ
ョ
ヨ
ラ
リ
ル
レ
ロ
ワ
ン
ヶ
・
ー
ㄌ
ㄑ
ㄒ
ㄓ
ㄕ
ㄘ
ㄚ
ㄢ
ㄣ
ㄤ
ㄧ
ㄨ
ㄩ
ㄱ
ㄴ
ㄷ
ㄹ
ㅁ
ㅂ
ㅅ
ㅇ
ㅈ
ㅊ
ㅋ
ㅌ
ㅍ
ㅎ
ㅗ
ㅜ
ㅠ
ㅡ
㎜
㎡
㎥
一
丁
七
万
丈
三
上
下
不
与
丑
且
世
丘
丙
业
东
丞
两
並
个
中
串
丸
丹
为
主
丽
乃
久
么
义
之
乌
乐
乙
九
也
书
乱
乳
乾
亂
亅
了
予
争
事
二
于
云
五
井
亚
些
亜
亞
亡
亣
交
亦
亨
京
亭
亮
亵
人
亻
什
仁
仇
今
介
仏
仑
仔
他
付
仙
仝
代
令
以
们
仰
仲
件
任
伉
伊
伎
伏
伐
休
伙
会
伟
传
伦
伪
伯
伸
似
伽
位
住
佐
体
佔
何
佘
余
佛
作
你
佩
佳
併
使
來
侍
侘
供
依
侧
侯
便
促
俄
俊
俗
保
俞
俟
信
俭
修
俱
倉
倍
候
借
値
倩
倪
倫
假
偈
偉
偏
做
健
側
傑
備
傣
傳
傷
働
像
僕
僖
儀
億
儒
優
儿
兀
允
元
充
兇
先
光
克
児
兒
党
兜
入
內
全
八
公
六
兰
共
关
兴
兵
其
典
养
兼
冀
冂
内
円
再
冒
写
军
农
冠
冨
冬
冰
决
冶
凍
几
凰
凱
出
函
刀
刃
分
切
刊
列
刘
刚
初
判
別
利
到
制
刻
剅
則
剋
前
剑
剔
剛
剣
剧
剱
創
劈
劉
劍
力
功
加
务
动
助
努
励
劳
勇
勉
勒
動
務
勛
勝
勞
勢
勤
勲
勳
勸
勾
勿
包
化
北
匙
匯
匱
区
區
十
千
升
午
半
华
协
卓
協
单
南
単
博
卜
卞
占
卡
卢
卫
卬
卵
卿
厂
历
厚
厝
原
厥
厳
去
县
参
參
又
叉
及
友
双
反
収
叔
受
叟
叢
口
古
句
只
可
台
叱
史
叶
号
司
吃
合
吉
同
名
后
向
吕
吗
君
吝
吟
吧
含
启
吳
吴
吸
吹
吾
呂
呈
员
周
味
呼
命
咋
和
咒
咖
咨
咲
哀
品
哈
哉
員
哥
哪
哲
唐
唯
商
問
啓
啟
啡
啦
喃
善
喆
喇
喜
單
営
嗣
嘉
嘗
嘛
嘴
噌
器
嚎
嚴
囁
囂
囘
四
回
因
团
団
囧
囬
园
囯
囲
围
固
国
图
圃
國
圍
園
圖
團
土
圣
在
地
场
坂
均
坊
坐
坡
坤
垂
型
垣
城
埔
域
執
培
基
埼
堀
堂
堤
堪
堯
報
場
塊
塔
塚
塞
塩
塽
境
墓
墨
壁
壤
士
声
売
壳
壽
复
夏
夕
外
多
夜
够
夢
大
天
太
夫
央
失
头
夷
夾
奇
奈
奉
契
奕
奖
套
奚
奥
奮
女
奴
奶
她
好
如
妃
妏
妖
妙
妮
妹
妻
姊
始
姑
委
姚
姜
姫
姬
威
娃
娜
娣
娥
娱
婆
婉
婦
媛
媽
嬌
嬰
孃
子
孔
字
存
孙
孚
孝
孟
季
学
孩
孫
學
宁
它
宅
宇
守
安
宋
完
宏
宓
宕
宗
官
宙
定
宛
宜
宝
实
実
客
宣
室
宮
宰
害
家
容
宿
寂
寄
寇
富
寒
寓
寛
察
實
寧
寨
寬
寵
寶
对
寺
対
寿
封
専
射
將
專
尉
尊
尋
對
小
少
尔
尘
尚
尝
尭
就
尸
尹
尼
尾
局
屁
居
屈
屋
屏
展
属
屠
履
山
岁
岑
岛
岡
岩
岱
岳
岸
峡
峨
峯
峰
島
峻
崇
崎
崔
崛
崧
崴
嵯
嶋
嶺
巉
巖
川
州
巢
工
左
巧
差
己
巳
巴
巻
市
布
帅
帆
师
希
帝
帥
带
師
帯
帶
常
帽
幅
幕
幡
幫
干
平
年
幸
幹
幻
幽
幾
广
庁
広
庄
庆
序
店
庙
府
度
座
庫
庭
庵
庶
康
庸
庾
廈
廉
廊
廓
廟
廣
延
建
廻
廽
弁
异
弄
弅
弈
式
弓
弗
弘
张
弥
弦
張
強
弹
强
弾
彈
归
当
彤
彥
彦
彩
彪
彫
彭
影
彼
往
征
径
待
很
律
後
徐
徒
従
得
徙
從
御
復
徳
徵
德
徽
心
忌
忍
志
忘
忠
快
念
怎
怖
思
怡
急
性
怪
总
恂
恋
恐
恒
恪
恭
息
恵
悠
悪
情
惜
惠
惡
惮
想
意
愛
感
愿
慈
慢
慧
慮
慶
憲
應
懷
懿
戀
戊
戌
戎
成
我
战
戟
戦
戯
戰
戲
戶
户
戸
房
所
扇
手
才
打
托
扣
扬
承
技
把
折
抛
抠
护
报
披
抵
抹
拂
拉
拌
拓
拔
拙
拜
拨
拭
拯
拳
拿
持
挂
指
按
挑
挙
掃
授
掌
掐
掘
探
推
掩
措
掸
揚
搏
搖
搜
搞
搯
携
摘
摩
摺
撃
撑
撥
播
撮
擇
擒
據
攀
攔
支
攻
放
政
故
敎
敏
救
教
散
敦
敬
文
斉
斋
斎
斗
料
斛
斩
斬
断
斯
新
方
於
施
旅
旋
族
旗
无
既
日
旧
早
旱
时
旺
旽
昂
昆
昇
昌
明
昏
易
昔
星
映
春
昭
是
晁
時
晃
晉
晋
晗
晨
晩
普
景
晴
晶
智
暁
暐
暢
暦
暨
暴
曉
曙
曜
曰
曲
曳
更
曷
書
曹
曼
曽
曾
最
會
月
有
朗
望
朝
期
朧
木
未
末
本
朮
术
朱
朴
权
杉
李
杏
村
杖
杜
杞
束
条
来
杨
杰
東
松
板
极
析
林
果
枝
枣
枪
枫
枯
枳
架
枸
柄
柏
柑
染
柔
柚
柜
柱
柳
柴
査
栄
标
树
栗
校
株
样
根
桂
桃
案
桐
桑
桥
梁
梅
梓
梔
梗
梢
梦
梨
检
棋
棠
森
植
椎
椒
椙
椛
楊
楝
楠
業
極
楼
楽
榆
榔
榜
榧
榮
榴
槍
槐
槑
樂
樊
樓
樣
横
樫
樵
樸
樹
橋
橘
橙
機
檔
檳
欠
次
欧
欲
欽
款
歌
歙
止
正
步
武
歩
歯
歳
歴
歷
歸
死
殊
残
殘
段
殷
殺
殿
毁
毅
母
毒
比
毗
毘
毛
氏
民
气
気
氣
水
永
氾
汀
汁
求
汉
汝
江
池
汪
決
汽
汾
沈
沉
沒
沖
沘
沙
沛
沟
没
沢
沤
沮
河
治
沼
沽
況
泉
泊
法
泛
波
泥
注
泰
泱
泳
泻
洁
洋
洗
洙
洚
洛
洞
津
洪
洲
活
派
流
浄
浅
济
浚
浜
浦
浩
浪
浮
海
涇
消
涉
涌
涙
涼
淇
淑
淚
淡
淨
淫
淮
深
淳
淵
混
淸
淺
清
済
渉
渋
渎
減
渝
渠
渡
温
港
游
渹
渾
湄
湖
湘
湛
湯
湾
満
源
溜
溪
溫
滅
滑
滚
滝
满
滾
漁
漆
演
漢
漫
漬
潔
潘
潤
潭
澤
澧
澳
濃
濟
濡
濫
濬
濮
瀉
瀑
瀟
灘
灣
火
灯
灶
灸
炊
炎
炒
炙
炜
炟
炮
炳
為
烈
烏
無
焰
焱
然
煊
煌
煙
煞
煥
照
煬
煮
熊
熙
熟
熱
燁
燃
燕
營
燦
爆
爱
父
爷
爸
爺
爽
爾
片
版
牙
牛
牡
物
特
牽
犀
犬
狂
狐
狗
狙
狩
独
狮
狱
狼
猛
猪
猫
献
猱
猶
猿
獄
獎
獨
獸
玄
玉
王
玑
玛
玫
玲
玻
珈
珊
珍
珠
珪
班
現
球
琅
理
琉
琊
琛
琤
琪
琮
琲
琴
瑚
瑛
瑜
瑞
瑟
瑤
瑪
瑰
璃
環
瓊
瓜
瓦
甄
甘
生
産
用
甫
田
由
甲
申
电
男
町
画
畅
界
畔
留
畢
略
番
畫
異
畵
當
疆
疊
疎
疏
疤
痒
痕
痛
痴
癯
発
登
發
白
百
的
皆
皇
皓
皮
盆
益
盐
监
盛
盟
監
盤
盥
盧
目
直
相
盾
省
眉
県
真
眷
眼
眾
睛
睡
督
瞎
瞳
矗
矛
矢
矣
知
矩
矯
石
砂
研
砕
破
硏
硝
碁
碇
碑
碗
碟
碣
碧
磁
磐
磨
磯
礁
礼
社
祀
祈
祉
祐
祕
祖
祜
神
祠
祥
祭
祯
祿
禁
禄
禎
福
禧
禪
禮
禰
禹
禽
禾
禿
秀
私
秂
秉
秋
科
秒
秘
秦
程
稔
稚
種
稲
稷
稽
穀
穂
穆
積
穎
究
穷
空
穿
突
窗
窟
竇
竈
立
站
竜
竞
章
童
竦
端
競
竹
笈
笏
笑
笔
第
笼
筆
等
筑
筒
策
筠
筷
签
简
箋
箍
箏
管
箸
節
篆
篠
篤
簡
籌
籍
籜
米
粉
粗
粤
粥
粵
精
糖
糸
系
紀
約
紅
紆
紋
納
紐
純
紘
紙
素
紡
索
紫
細
紹
終
絃
組
経
結
絜
給
絨
絫
統
絲
絵
絹
經
続
維
綱
綸
綿
総
線
緩
縄
縣
縫
總
織
繡
繩
纂
红
约
级
纪
纳
纵
纶
细
绍
经
绒
结
绛
绝
统
绥
续
维
缺
罗
罨
置
署
羁
羅
羊
羌
美
羡
群
義
羲
羽
翁
習
翔
翘
翠
翰
翻
翼
耀
老
考
者
耉
而
耐
耦
耳
耶
耿
聂
职
联
聖
聚
聞
聯
聰
聲
聶
聽
聾
聿
肆
肉
肖
股
肤
肥
育
胆
背
胎
胜
胞
胡
胶
能
脂
脈
脊
脚
脩
脫
脱
腐
腕
腥
腹
腺
腾
膏
膾
臣
臥
臧
臨
自
臭
臯
至
致
臺
臼
舂
與
興
舉
舊
舜
舞
舟
航
般
船
艘
良
色
艺
艽
艾
芈
芍
芎
芒
芝
芡
芥
芦
芩
芫
芬
芭
花
芳
芷
芸
芽
苇
苍
苏
苓
苔
苗
苚
苡
若
苦
苧
英
苾
范
茅
茜
茯
茱
茴
茵
茶
茸
茹
荆
荇
草
荑
荒
荖
荡
荫
药
荳
荷
莉
莊
莧
莨
莪
莫
莱
莲
莽
菀
菅
菊
菎
菔
菖
菜
華
菱
菴
菹
萆
萊
萌
萧
萨
萬
萸
落
葆
葉
著
葛
葱
葵
葶
蒋
蒐
蒙
蒜
蒟
蒡
蒲
蒻
蒼
蒿
蓀
蓁
蓉
蓋
蓑
蓝
蓟
蓮
蓯
蔡
蔵
蔻
蕤
蕩
蕭
薄
薇
薏
薑
薔
薛
薢
薤
薩
薪
薰
薷
藍
藏
藤
藥
藩
藻
藿
蘄
蘇
蘊
蘭
虎
處
虛
虫
虹
蚧
蛇
蛙
蛤
蛭
蛸
蜀
蜕
蝉
蝶
融
螞
螵
蟻
蟾
蠅
蠣
血
衆
行
術
街
衛
衝
衣
补
衫
衰
袁
袋
裏
裕
裙
補
裳
裴
裸
製
褻
襲
西
要
覆
見
視
覚
親
観
覺
觀
见
观
视
角
解
言
訓
記
訣
設
訶
証
評
詠
話
詳
誌
語
誠
說
説
読
誰
調
談
論
諸
謁
謎
謝
謫
識
譜
警
議
護
讃
變
讓
认
让
训
讯
记
讲
许
诏
诗
诚
话
该
语
说
请
谎
谐
谦
谷
豆
豉
豊
豐
豚
象
豫
豬
貝
貞
財
貫
責
貳
貴
貶
買
貼
資
賈
賓
賔
賜
賞
賢
賦
質
賴
賽
贊
贝
贞
财
贤
败
贫
贯
贵
贺
贼
资
赛
赞
赤
赫
赭
走
赵
起
超
越
趙
趣
足
跌
路
蹊
蹴
身
躬
車
軍
軒
転
軫
軸
軼
軾
輔
輝
輪
輯
輿
轄
轉
车
轮
载
辆
辈
辛
辞
辣
辦
辰
農
边
辺
込
辽
达
迅
过
迈
运
近
返
还
进
远
连
迦
迪
迫
述
迴
迷
追
送
逃
逆
选
逊
透
途
通
速
造
連
逥
週
進
逴
逸
遂
遇
遊
運
遍
過
道
達
違
遠
選
遼
邉
邊
邑
邡
那
邦
邯
邳
邴
邵
邸
邻
郁
郎
郑
郡
部
郭
郷
都
鄉
鄒
鄧
鄭
鄮
鄰
配
酒
酱
酸
醂
醉
醋
醤
醫
醲
釈
釋
里
重
野
量
金
釘
釜
鈴
鈸
鉄
鉅
鉢
鉴
銀
銃
銘
鋏
鋼
錄
錢
錦
録
鍋
鍠
鍾
鎌
鎖
鎞
鎭
鎮
鏊
鏟
鏡
鐵
鑑
鑛
鑴
针
钏
钞
钟
钱
铁
铃
银
锅
键
镇
镜
長
镸
长
門
閆
開
閏
閑
間
関
閣
閻
闘
關
闞
门
闫
闭
问
间
闻
阁
阜
队
阪
阮
防
阳
阴
阿
陀
附
际
陆
陈
降
限
院
陣
险
陰
陳
陵
陶
陸
険
陽
隆
隐
隗
障
險
隱
隷
难
雀
雁
雄
雅
集
雋
雒
雖
雙
雞
雨
雪
雲
零
雷
電
需
霄
霆
震
霊
霍
霖
霜
霞
霧
霸
靂
靈
青
靖
静
靜
非
靠
面
革
靴
鞠
韓
韜
韦
韩
音
韶
響
頂
順
須
頓
領
頭
頷
頼
題
顏
願
類
顧
顯
顶
顺
题
風
风
飘
飛
飞
食
飯
餅
養
餐
館
饅
饭
馆
首
香
馨
馬
馮
駅
駰
駻
駿
騎
騭
驅
驚
马
驻
骨
體
高
髪
髮
鬚
鬱
鬼
魁
魂
魅
魏
魔
魚
魯
鮎
鮑
鮓
鮨
鮪
鮮
鯀
鯊
鰯
鱀
鱈
鱉
鱒
鱚
鱼
鲁
鲜
鳥
鳳
鳴
鳶
鴻
鵝
鵬
鵰
鷆
鸞
鸡
鸿
鹅
鹤
鹰
鹽
鹿
麒
麓
麗
麝
麟
麦
麩
麴
麹
麻
黃
黄
黎
黑
黒
默
黛
點
黨
鼐
鼠
鼻
齊
齋
齦
齿
龍
龐
龙
龜
龟
ꙑ
ꙥ
ꙩ
ꜧ
꞉
ꞯ
ꤷ
ꤼ
ꥁ
ꦑ
ꦗ
ꦢ
ꦮ
꧈
ꭰ
ꭲ
ꭴ
ꭵ
ꭶ
ꭹ
ꭿ
ꮃ
ꮅ
ꮕ
ꮝ
ꮢ
ꮣ
ꮧ
ꮪ
ꮵ
ꮻ
ꮿ
ꯀ
ꯁ
ꯂ
ꯃ
ꯄ
ꯅ
ꯆ
ꯇ
ꯈ
ꯉ
ꯊ
ꯍ
ꯎ
ꯏ
ꯑ
ꯔ
ꯕ
ꯖ
ꯗ
ꯛ
ꯜ
ꯝ
ꯟ
ꯡ
ꯢ
ꯣ
ꯤ
ꯦ
ꯧ
ꯩ
﨑
ﬁ
ﬂ
ﷲ
﹎
﹔
ﺍ
ﺎ
ﺏ
ﺒ
ﺠ
ﺤ
ﺩ
ﺪ
ﺴ
ﺷ
ﻀ
ﻁ
ﻋ
ﻓ
ﻙ
ﻞ
ﻟ
ﻠ
ﻣ
ﻨ
ﻩ
ﻫ
ﻮ
ﻲ
！
＄
（
）
＊
，
－
．
／
２
５
：
；
＞
？
＿
｝
～
ｺ
ﾁ
ﾃ
ﾄ
￣
￥
￦
￼
𐎹
𐤁
𐤂
𐤋
𐨐
𐨤
𐨪
𐬀
𐬌
𐬨
𐬫
𑐣
𑐰
𑐵
𑐾
𑑅
𒀸
𒁺
𒋗
𓏞
𓏟
𝄆
𝄇
𝄫
𝝱
𞤢
𞤣
𞤤
𞤥
𞤪
𞤫
𞤭
𞤲
𞥄
𞥆
🇪
🇸
💗
💩
😃
😆
😞
😷
🜸
🤓
##r
##i
##g
##h
##t
##e
##n
##s
##a
##o
##u
##d
##f
##l
##p
##y
##b
##k
##c
##w
##m
##j
##1
##3
##z
##7
##0
##8
##v
##x
##α
##ν
##τ
##σ
##ι
##ς
##2
##9
##6
##5
##q
##4
##¸
##´
##υ
##ρ
##ο
##λ
##γ
##η
##ャ
##ー
##チ
##¨
##а
##з
##х
##с
##т
##н
##ø
##ꯡ
##ꯃ
##ꯩ
##ꯇ
##ꯣ
##ꯟ
##ଙ
##କ
##ା
##°
##π
##μ
##æ
##ি
##শ
##ব
##দ
##য
##া
##ল
##ı
##ᅡ
##ᄑ
##ᅦ
##ग
##र
##ा
##ऊ
##®
##¤
##£
##±
##ð
##о
##ণ
##প
##র
##জ
##ত
##ন
##ী
##ل
##ي
##س
##ا
##⁄
##₃
##ß
##κ
##ﬂ
##œ
##ł
##ꯧ
##ꯗ
##ε
##м
##е
##і
##る
##た
##め
##の
##к
##р
##ь
##€
##ᅧ
##ᆼ
##ᄋ
##ᆫ
##ᄃ
##ᅩ
##ᄇ
##ᄆ
##ᄌ
##ᅥ
##ᆯ
##ᄉ
##ر
##ة
##タ
##モ
##テ
##പ
##ങ
##и
##ج
##د
##п
##ด
##ก
##ำ
##แ
##พ
##ง
##ล
##þ
##ʼ
##¢
##β
##щ
##त
##य
##ी
##গ
##ে
##ζ
##♪
##ш
##в
##ц
##ป
##า
##ค
##อ
##ม
##ะ
##ข
##เ
##ฒ
##ो
##ʿ
##²
##マ
##χ
##ː
##ɪ
##у
##ن
##⁻
##⁸
##¹
##ω
##ʔ
##₄
##ר
##ע
##ק
##ʾ
##ⴰ
##ⵏ
##ⵊ
##ੀ
##ਨ
##ਾ
##л
##و
##ح
##¬
##ع
##٥
##٨
##١
##م
##し
##ق
##ª
##ʃ
##स
##ა
##ლ
##ვ
##ძ
##ე
##º
##ᅮ
##ᅢ
##ᄒ
##ᆨ
##ᄀ
##ᅭ
##←
##ء
##ෙ
##ද
##न
##ᅵ
##ᅪ
##δ
##ч
##ы
##½
##०
##ب
##я
##ت
##ਜ
##ਮ
##ਰ
##ニ
##ハ
##サ
##ル
##シ
##ィ
##ю
##ɛ
##บ
##д
##น
##ว
##ร
##ห
##ย
##ى
##ز
##ە
##ك
##−
##ッ
##カ
##ف
##خ
##ث
##¼
##ラ
##ヒ
##ア
##イ
##ト
##ɬ
##ד
##ל
##ש
##ט
##י
##ן
##∇
##˜
##♫
##ท
##ʻ
##φ
##θ
##౦
##א
##כ
##ו
##ב
##⋅
##گ
##व
##क
##て
##こ
##リ
##ク
##フ
##ం
##ధ
##ర
##ప
##ద
##శ
##ش
##ン
##ธ
##ต
##ꯔ
##ꯦ
##ん
##г
##ᆷ
##ส
##ถ
##¯
##ᅣ
##ᄎ
##ᄂ
##ᅬ
##ס
##ʒ
##♬
##˺
##ʁ
##ж
##đ
##ୟ
##େ
##ତ
##ସ
##ନ
##ی
##ʰ
##ि
##¥
##µ
##ไ
##ใ
##ญ
##ه
##╗
##ј
##も
##ɾ
##ल
##द
##ʹ
##ே
##ன
##ﻀ
##ﻞ
##¾
##٤
##٩
##ћ
##→
##ℕ
##ර
##ස
##ං
##ග
##ය
##ᄐ
##×
##ᅳ
##ᄅ
##わ
##さ
##き
##え
##ə
##ص
##ط
##ூ
##ர
##ி
##ய
##б
##ɔ
##ɹ
##ᅲ
##ɳ
##ᴍ
##り
##ʳ
##ᅨ
##ㄨ
##ㄣ
##¦
##け
##আ
##ᆸ
##হ
##म
##ः
##ロ
##ի
##ր
##ա
##կ
##च
##♯
##コ
##ߊ
##ߛ
##ߏ
##ߖ
##ߡ
##ߣ
##נ
##ψ
##ゆ
##み
##ם
##ज
##ञ
##ℝ
##│
##چ
##զ
##ħ
##ഷ
##േ
##ത
##ര
##ം
##⊙
##ꯢ
##უ
##რ
##ჯ
##ნ
##ᅯ
##ˆ
##থ
##™
##ภ
##ณ
##ฑ
##ช
##ـ
##ﬁ
##ゅ
##う
##い
##٧
##ʷ
##գ
##ո
##ˈ
##ण
##ड
##ス
##ক
##ނ
##ބ
##ޑ
##ރ
##ら
##ک
##ү
##ф
##ә
##─
##┴
##ղ
##յ
##ն
##ʌ
##ฬ
##ᴇ
##ケ
##に
##ট
##ض
##ӏ
##♥
##ბ
##ජ
##න
##や
##भ
##ъ
##ம
##ப
##ை
##จ
##ה
##ʲ
##ڑ
##ہ
##ށ
##މ
##☆
##΄
##โ
##ฟ
##ʎ
##┬
##श
##ө
##ौ
##ᗸ
##ᒡ
##ᄁ
##ᆾ
##エ
##ˌ
##ʊ
##ㅡ
##ट
##ණ
##ව
##ක
##ळ
##ா
##த
##ு
##க
##ޝ
##ւ
##ք
##³
##©
##ϲ
##ɐ
##を
##か
##ម
##פ
##ា
##ェ
##ಂ
##ಗ
##ಣ
##ಯ
##ɨ
##ɑ
##ম
##ᅴ
##≥
##ξ
##ब
##ʦ
##չ
##љ
##ۆ
##प
##∈
##ษ
##ા
##બ
##ડ
##ɡ
##ゃ
##ג
##ᄍ
##ꯤ
##ꯊ
##あ
##く
##せ
##ঞ
##ই
##ሊ
##ং
##ꯕ
##త
##ు
##క
##ూ
##ల
##÷
##מ
##ך
##∀
##ெ
##ண
##ட
##խ
##ㅂ
##ㅇ
##ತ
##ೕ
##ಶ
##ವ
##ರ
##ผ
##ﺤ
##ඥ
##ා
##স
##ह
##ᓄ
##ᐃ
##ᑦ
##ظ
##ਲ
##∞
##ち
##ਬ
##˚
##భ
##ష
##э
##ת
##ꯜ
##ذ
##ɒ
##ᝢ
##ま
##す
##よ
##₂
##ᅱ
##ʏ
##ම
##ಾ
##ಕ
##ಟ
##њ
##ष
##ひ
##ホ
##ພ
##ຫ
##ສ
##ލ
##ގ
##ފ
##ॉ
##غ
##ז
##ທ
##ຍ
##ໃ
##ဆ
##ပ
##ရ
##ศ
##ध
##ད
##℃
##ڠ
##ৈ
##メ
##ナ
##ヌ
##ㅎ
##ꯝ
##ප
##ෂ
##⁴
##⁵
##ˀ
##պ
##ե
##օ
##ߟ
##ߌ
##ܚ
##ܐ
##ܒ
##ソ
##ム
##އ
##ޒ
##ތ
##ウ
##ৎ
##ŋ
##վ
##հ
##ս
##ር
##አ
##٢
##ޖ
##ސ
##ೂ
##ಲ
##թ
##⅓
##は
##と
##ㄩ
##ን
##ዲ
##ፍ
##ራ
##ው
##ङ
##ǝ
##մ
##ڌ
##ⵎ
##ⴽ
##ⵙ
##ɣ
##キ
##ɵ
##ח
##ʱ
##ף
##ი
##ო
##そ
##れ
##ɯ
##३
##ধ
##セ
##ғ
##ར
##お
##ல
##լ
##ﾃ
##ｺ
##ೖ
##ಪ
##ള
##ി
##բ
##տ
##ख
##ڵ
##ꯏ
##ވ
##ހ
##₁
##ས
##ධ
##な
##ネ
##ත
##ᅰ
##ミ
##ŧ
##ⵅ
##ⵍ
##ヘ
##ワ
##ڈ
##ﻠ
##ﻮ
##ᖑ
##ᐱ
##ᓗ
##ᒃ
##ᑐ
##ᖅ
##ڤ
##ڽ
##⅛
##જ
##ર
##ત
##ી
##फ
##ҡ
##თ
##ꯂ
##٦
##ˤ
##ள
##ල
##ꯅ
##ㄧ
##ˊ
##𞤢
##𞥄
##𞤤
##𞤭
##ು
##ಡ
##₋
##ର
##ୀ
##ବ
##ଛ
##വ
##ാ
##റ
##𑐾
##𑐰
##𑐵
##𑑅
##ན
##ශ
##ല
##ਖ
##ལ
##រ
##ះ
##ត
##េ
##ជ
##ព
##គ
##ណ
##घ
##გ
##ㄷ
##ㅅ
##ㄴ
##ழ
##ˋ
##ޔ
##ᆺ
##₀
##ଂ
##ହ
##ٱ
##𐤁
##𐤋
##ਈ
##ਦ
##ฤ
##♭
##थ
##ລ
##ຄ
##າ
##ໄ
##ຊ
##ฎ
##צ
##ڬ
##ქ
##წ
##ʐ
##ঙ
##⅔
##ህ
##ለ
##ወ
##ቅ
##˙
##ܪ
##ܫ
##ɕ
##ந
##ޙ
##ދ
##ⁿ
##ఘ
##ফ
##џ
##ሳ
##ይ
##ያ
##ስ
##ց
##চ
##မ
##ထ
##း
##က
##ေ
##ာ
##င
##څ
##⁶
##ෘ
##ો
##ક
##ረ
##ぃ
##ˁ
##ﻫ
##～
##ါ
##ҍ
##オ
##ァ
##レ
##ᄈ
##अ
##इ
##ꯄ
##ꯛ
##మ
##ュ
##ག
##ھ
##ਠ
##ਿ
##භ
##₅
##☉
##མ
##ڭ
##ฝ
##१
##ແ
##ກ
##ວ
##ດ
##つ
##య
##ນ
##ເ
##ຳ
##ᆻ
##ს
##ᴀ
##ᴏ
##ᇁ
##ᵉ
##ട
##ろ
##ছ
##₵
##ʋ
##ৰ
##⅞
##ⴳ
##ⵡ
##ⵉ
##ⵔ
##ⵜ
##っ
##₆
##ൻ
##ቢ
##ฏ
##ᄏ
##ᇂ
##ষ
##ㅋ
##ਤ
##ں
##ச
##வ
##ஸ
##┐
##⁰
##˨
##˩
##ზ
##ٹ
##￼
##ീ
##ൽ
##ɫ
##🇪
##🇸
##ϙ
##ᅫ
##ซ
##ਫ
##ባ
##⅝
##ⲱ
##ⲙ
##ⲁ
##ዕ
##ቆ
##ብ
##┼
##ょ
##ʕ
##კ
##≤
##ョ
##ອ
##ང
##⅘
##😞
##😆
##😷
##🤓
##💩
##െ
##ഹ
##ദ
##ർ
##ᄊ
##ツ
##∫
##ढ
##ӆ
##യ
##ញ
##ន
##ច
##ង
##ប
##ទ
##ღ
##შ
##ⅱ
##ɴ
##ᴜ
##ʀ
##ᴄ
##ठ
##⁹
##շ
##ℚ
##జ
##ʂ
##ျ
##န
##ხ
##ტ
##ላ
##ੜ
##ձ
##𒋗
##𒁺
##ங
##ക
##ヨ
##ച
##ሕ
##መ
##ድ
##ϝ
##ێ
##ৗ
##ۥ
##ែ
##উ
##ノ
##ſ
##ژ
##ః
##ચ
##છ
##ැ
##ʟ
##ꯆ
##ਘ
##១
##២
##៣
##៤
##៥
##៦
##៧
##៨
##៩
##ふ
##ね
##⊂
##⊆
##ଣ
##ଡ
##☻
##හ
##ऽ
##ʈ
##ኢ
##የ
##ሱ
##ﷲ
##उ
##˧
##တ
##စ
##５
##ᘅ
##ڊ
##ڄ
##₈
##ѣ
##ᴘ
##ռ
##ഞ
##𐨐
##𐨪
##ਆ
##ට
##ᓐ
##ᐊ
##ᔪ
##ཙ
##४
##ɜ
##ȝ
##ᄄ
##ꯖ
##ܕ
##ے
##ታ
##ቲ
##ኖ
##ᐅ
##ᔨ
##ᒪ
##ᔭ
##ᖃ
##ᖏ
##☃
##ড
##ђ
##է
##સ
##હ
##િ
##ય
##ਹ
##㎜
##ֆ
##█
##☺
##む
##ಸ
##ಳ
##ɘ
##પ
##═
##ᴖ
##ᴥ
##⌂
##ຮ
##ҹ
##ኮ
##դ
##ほ
##ɮ
##ҧ
##ㄢ
##ㄒ
##ㄚ
##ㄕ
##ບ
##ຜ
##ஜ
##ⱡ
##၀
##√
##⅜
##ቂ
##ಮ
##≡
##ʽ
##ગ
##લ
##ฉ
##ˇ
##↓
##♡
##★
##پ
##ⵓ
##ⵢ
##ⵀ
##ⴻ
##ᴛ
##७
##५
##ᴅ
##ᴢ
##ʜ
##ꮝ
##ꭶ
##ꮿ
##ꮧ
##ꭿ
##ኩ
##ሪ
##ォ
##ぁ
##খ
##६
##ﺎ
##ﻩ
##დ
##ଜ
##♙
##⇒
##ﾄ
##װ
##ማ
##ሁ
##⁺
##ᇀ
##₩
##ನ
##ಜ
##ቃ
##ꦢ
##ⲏ
##ⲥ
##ც
##ඩ
##へ
##ₑ
##ɽ
##⬄
##ዝ
##ﻟ
##ﻨ
##ﺒ
##ﻲ
##∴
##ℓ
##ޞ
##ည
##ဇ
##ဟ
##˛
##ᓯ
##ᕙ
##ਸ
##ក
##ៅ
##ល
##ស
##ៀ
##ⵛ
##ⵃ
##ₚ
##ކ
##˥
##ɲ
##ভ
##ѕ
##ච
##ꯈ
##ት
##ዮ
##ጵ
##ዊ
##ነ
##ግ
##ඨ
##ꯍ
##㎥
##ቸ
##ए
##∕
##ㅈ
##ⲓ
##ⲟ
##ዴ
##𞤫
##𞤲
##𞥆
##𞤣
##ꦑ
##ꦮ
##ణ
##స
##ሮ
##ឌ
##ﻁ
##∼
##꞉
##ᵇ
##ˡ
##వ
##ㄤ
##ฯ
##छ
##ꭵ
##ꭲ
##ꮕ
##∨
##қ
##လ
##ሌ
##∃
##ڕ
##ܘ
##ܬ
##ዎ
##ㄹ
##ㅁ
##ㅊ
##ㅌ
##ㅍ
##ਥ
##ꮅ
##ⲛ
##ⴹ
##є
##០
##┘
##მ
##𐬌
##𐬨
##𐬀
##ⵣ
##ⵖ
##ޛ
##ұ
##ᓇ
##ᑕ
##മ
##ዐ
##ᓂ
##ץ
##ജ
##ᆽ
##ភ
##ﺴ
##ﺠ
##ﺪ
##ŉ
##ற
##ɖ
##₇
##ണ
##ਗ
##ᵢ
##ʉ
##ዳ
##ヤ
##ⴱ
##ϵ
##ϕ
##♟
##ሓ
##ም
##බ
##ꮢ
##ꮣ
##ᏹ
##చ
##ɝ
##ݢ
##ਵ
##ɗ
##≈
##ഗ
##ꮵ
##ꮃ
##ꭹ
##փ
##ਓ
##ਣ
##ટ
##ǂ
##ǃ
##ቦ
##ન
##យ
##ោ
##ꥁ
##ꤼ
##●
##ฐ
##ଧ
th
the
##er
##in
##ou
##at
##nd
##on
##re
##an
##ed
##ing
##en
##or
##es
to
you
##ll
and
##ar
in
of
##is
##it
##as
##om
wh
it
##ic
##ow
##al
##et
##ot
##le
that
he
be
is
##ve
on
##ay
##ut
##st
re
ha
##ion
##id
##gh
we
was
##se
##ld
##ent
st
##ac
for
sh
##am
##im
##ly
##ad
##ur
##ir
##ver
##oo
an
##ght
##ere
me
##ith
do
##ch
##ke
as
##th
se
##all
with
##ter
what
this
##ro
##ct
li
##ce
so
ch
go
##ill
not
are
at
##ri
##ome
have
##il
ne
##ight
de
they
##ust
but
##ould
##ant
fr
kn
no
##ation
##op
his
##ain
su
al
can
mo
all
there
##ea
##ge
she
##and
##us
##est
my
##un
know
##ers
##ul
##ol
your
##pp
ab
don
by
or
one
from
com
con
her
##ist
##out
##art
##ie
##um
##ess
tr
##her
##ab
up
wor
pl
##os
##ate
had
##ard
like
##ally
out
ex
pro
##el
if
##ap
sp
19
##em
sa
##ack
get
just
him
##ig
##res
##ook
##ood
who
##ive
##ake
un
##ame
##if
##au
about
##ck
te
##ink
##our
did
20
##ast
##ich
##ong
man
here
am
were
##ound
ar
##ind
##one
##ity
##ber
br
us
le
when
##ort
well
now
right
##ry
will
en
lo
some
##ies
##ak
tim
oh
how
ll
##ish
co
would
want
cl
##ag
yea
yeah
##ine
them
any
##ore
think
gr
##ect
##are
see
##ous
##ven
look
##ment
tw
fe
pe
got
then
bec
has
ro
which
##ud
pr
ag
##itt
ve
##ice
af
##ough
##nt
##own
##ure
say
##hing
ever
##ear
time
##ep
##ip
than
##ery
come
##ia
##ian
int
bo
##iv
good
been
##ue
##ire
##ide
##ther
mar
said
##ace
let
where
##way
##ick
more
their
er
off
peop
##ause
could
##end
people
over
qu
going
bl
##reat
##ree
two
fir
##age
back
sc
ok
##ach
##na
very
yes
##so
##ra
work
##nder
##ite
comp
##ary
first
##ose
##pt
ad
thing
##orn
##ang
##other
new
##qu
##ass
##ble
##act
part
##ount
other
##per
every
too
year
##ase
may
after
jo
##ff
po
##sel
because
our
##ans
##ated
down
##ord
##omet
im
into
why
##ance
##od
##ci
way
call
##ade
##ittle
okay
gu
only
##ions
little
##ub
##alk
ac
##ence
also
201
somet
play
bet
per
day
act
take
##ved
pre
##iz
##wn
##ild
##co
fl
again
these
car
##ater
mu
fo
##av
res
tell
cont
dis
bu
##urn
really
make
need
##ought
comm
ser
##fe
app
##ath
##ress
##ty
does
##pl
thr
should
##we
##ving
##iss
##ory
wr
under
##ile
##fore
##self
##ens
##able
happ
put
cr
##ical
##cl
##fer
##ied
##ft
something
##ict
##thing
ind
inter
##ool
sm
even
##uck
##ign
much
long
ho
##ather
##red
##int
count
##orm
mean
200
never
its
made
dr
gon
##og
before
hi
ph
##oth
rem
gonna
##ult
old
em
great
min
hel
talk
ke
##man
##ks
sch
lea
##ail
##ren
##les
##ys
##iver
many
##land
didn
hu
mr
most
uh
##amp
three
##ates
##ell
hand
##ations
##ious
la
bel
##ons
str
##ting
rep
des
years
ear
world
##00
##du
##ouse
through
those
##ward
##ily
life
##ady
##atch
##ition
##ves
##be
imp
give
##ix
##ors
##ited
##ise
##ually
start
##vel
help
##ull
##ial
##air
ple
found
love
##ph
dif
still
pol
pres
##ful
wa
par
things
form
cour
##get
##day
last
ma
thought
home
mon
show
must
18
find
war
##der
##ince
ask
sl
el
att
fin
##ried
away
used
##ug
being
##ces
end
##cess
##ction
nor
##oss
##eric
doing
gen
own
rec
big
care
##irl
fri
char
house
##ings
won
wom
sy
fam
americ
reg
called
##ents
god
name
##ert
child
such
##ational
spe
hey
high
head
op
##ne
went
sou
came
id
ele
night
try
##ody
##ened
##oney
##ced
##gin
sw
same
lot
cent
sure
##als
##ange
##ember
##xt
feel
school
##llow
##gan
gl
supp
kind
mus
pers
another
four
eng
##ah
cons
##ope
girl
##body
place
dist
rel
##ways
##ning
turn
born
##aking
erm
differ
ev
kill
mom
##ave
sur
num
##mber
friend
thank
##sh
##ank
ter
cap
set
around
keep
##ib
please
stop
##lic
col
city
##io
##ew
##atter
exp
##ased
use
##dy
acc
##up
might
sor
ah
199
##ever
run
wait
##form
ob
list
##oup
##ss
##cond
##uring
nothing
while
anything
##ute
always
##ating
##ru
##ower
##ock
miss
second
##az
dep
better
stud
far
met
inst
##sp
left
bit
inv
real
##mo
##ween
between
ret
##clud
bus
known
##ms
##my
sorry
unt
##gr
done
state
##ible
bre
##ier
sub
cle
##te
##ics
sing
##ason
belie
both
bar
ey
##aught
##ash
##ular
##ident
##lish
##ness
##ng
person
word
men
money
##led
##cial
coll
##ale
father
point
best
next
book
told
dec
##ual
che
##akes
gre
different
mm
hell
ass
##ird
##ister
until
each
art
includ
ap
mother
water
sim
later
lar
gener
king
united
follow
##oun
during
##ject
##ott
american
##ner
##side
since
course
five
fun
pass
states
sir
wee
sk
hard
number
198
pop
seem
amp
actually
##let
produ
team
young
##cy
maybe
##ny
##ative
##aster
red
##vie
everything
##olog
once
dire
took
##cre
##ling
##ton
##gg
##ivers
doesn
joh
##une
med
family
pub
##vern
boy
##ames
air
music
six
##ision
ed
north
##ark
##cept
##its
cur
##ities
##ered
chr
##oy
saw
huh
hum
##ont
##ane
without
underst
son
enough
south
light
##ars
##ric
open
##ures
bad
add
remember
##ream
govern
har
##ired
stand
john
leave
hal
win
tri
stay
small
town
trans
today
##ork
room
against
##eak
##att
197
mind
##mb
bab
##uth
##son
cal
##row
law
dad
loc
sit
toget
mil
together
def
##yp
##ger
10
##iness
move
nice
died
isn
##mm
##ross
##ctor
national
else
hear
ste
proble
##osed
foot
hold
seen
fact
land
rest
sign
coming
##ote
read
times
group
bro
looking
##cc
fil
ge
heart
live
##ines
##ific
few
near
meet
became
##iet
pret
county
children
watch
wo
wanted
side
lead
hist
##ably
compan
kid
##ts
understand
pa
cor
ger
##ps
quite
##ead
##right
says
though
##ution
believe
ra
##ina
woman
hur
##eter
##ife
beh
##ral
tom
##ik
##ten
##ield
##ung
pri
quest
ext
face
main
record
prov
##ared
##ury
import
##hip
univers
##wh
196
yet
days
plan
##ball
##ime
morn
##ets
##oc
##stem
song
hour
gi
half
black
ca
##uss
death
build
##tain
##ments
walk
##ned
##ense
conf
resp
poss
##sw
power
mill
getting
dri
eyes
##by
morning
##ital
system
sort
##ee
happened
rele
interest
prof
##ush
##ature
##ants
##ised
fore
fuck
pay
door
##ient
##ins
##anna
bas
christ
ten
sle
matter
##cer
having
mark
whole
serv
prob
sound
##aut
white
soon
order
15
sn
wind
##ined
class
##rib
upon
##ists
17
cert
##ters
##itch
##less
heard
lau
job
eat
himself
country
speak
##ta
##fect
##br
game
##cted
##iam
dead
listen
played
started
adv
fine
along
women
shall
del
party
##ize
mid
##ues
top
##ene
##ism
prom
bring
talking
##ready
##cle
##ither
##ains
already
div
offic
knew
ju
##aph
round
return
##ention
full
month
mag
baby
line
important
case
wrong
##ience
##ized
area
business
president
##ows
leg
contin
const
eff
someone
eas
answ
asked
##uff
##sc
stre
ann
##ison
jan
##amed
story
##ished
12
however
##rew
saying
##imes
##urch
university
##ives
##aps
vo
##ats
expl
000
maj
idea
pretty
commun
polit
gave
trying
grand
certain
means
##ided
wife
ent
equ
fire
typ
est
beaut
##ility
##den
##velop
creat
##ying
##aw
##rop
##ages
lear
##wards
early
ori
##erg
chang
hon
16
government
gone
##aughter
eight
195
prot
guy
sho
sever
tre
less
gt
##ov
sat
general
german
brother
inc
pen
##most
age
making
val
##ump
probably
sent
##pped
hello
lost
##rict
pat
hands
dan
wonder
##igh
brit
bill
movie
cut
develop
west
company
##med
wanna
swe
fight
star
ir
hor
fall
pain
sol
##ically
194
aw
vis
##enty
free
oper
began
often
intern
change
alb
##ately
##ator
short
sal
pos
##ural
partic
##iter
##aken
march
exc
pap
var
laugh
ill
close
##ax
ref
##gn
able
dou
spec
guys
##ony
bed
wasn
hot
happen
##ained
problem
squ
week
rock
public
present
inf
road
sleep
hope
body
true
##raw
exper
pick
ready
dam
thanks
202
goes
moment
sil
happy
organ
break
large
tele
suc
haven
sun
wouldn
almost
##ality
working
depart
##ley
history
looked
##uary
adm
cond
tra
club
hund
##ides
given
blood
occ
sometimes
yourself
hundred
district
bur
comes
contro
11
##arent
##ape
##ond
um
fre
##me
mad
##ted
##use
##tern
profess
deal
church
##ama
origin
##ices
##de
##ional
##aces
friends
eur
##ether
ago
tem
##ulation
##ok
##unch
become
##gue
coun
series
mrs
begin
gold
##ract
rece
##ouch
##utes
late
##ple
river
camp
ball
clear
aug
pie
##vers
##used
opp
looks
guess
question
january
##where
##ze
jack
human
##bo
complet
york
dog
##orrow
mur
vill
drink
mer
193
lang
##ety
##ai
aust
several
rom
##ilt
band
least
##ering
pur
consid
major
english
##ster
anim
##apan
elect
##ium
rad
island
port
##ians
album
14
quick
myself
secre
13
##ief
august
##ey
##ril
pict
alone
##gram
married
japan
##ma
super
oct
front
##alth
behind
season
fel
food
##iously
##iful
##iting
fif
gun
##ample
disc
green
east
past
film
##oud
fig
reason
makes
train
earth
words
##ries
##eng
rich
step
killed
sept
av
released
##ogr
dece
##eth
enter
design
brought
vi
mount
june
dear
champ
##inc
##ots
##ected
cause
##ived
exact
##ler
##que
##ured
taking
special
either
##rench
dev
football
30
france
##ards
support
sister
program
die
report
taken
sold
cop
##pr
##sy
grow
tot
##ones
cre
strong
park
test
##selves
##ology
ins
##thers
living
september
##app
langu
member
##bert
det
summ
##0s
##con
british
pal
phil
##ring
cos
mess
que
fa
hit
within
inform
perform
##atic
charac
##und
##ike
common
beautiful
##cover
nat
lab
third
police
##ney
others
alright
rather
wood
##ford
wish
july
##lex
##els
seven
sea
stuff
poor
##ober
##ob
##dle
fair
million
cover
april
check
reach
couldn
attack
je
dem
october
##ully
allow
former
europe
geor
everyone
##aced
cir
daughter
dream
lord
##ese
da
##umb
thinking
wall
##ently
named
following
##ove
secret
success
example
ship
including
##ior
##port
lu
among
perh
minutes
perhaps
minute
office
##lly
##rent
playing
##zy
colle
dark
inside
##lf
abs
repres
##oon
based
held
forg
result
ton
doctor
voice
##fic
##ann
##thern
december
##duc
french
##ency
mod
mot
##erv
##band
fur
lady
##ipp
##ude
192
nove
lived
department
##cil
single
level
twenty
hus
vict
mich
wants
appear
repl
conn
career
25
touch
court
auth
mor
##aim
##men
bir
##lished
##ances
november
cann
ii
dest
blue
memb
din
##unt
turned
##itten
jud
outside
cost
trou
field
##ories
station
##ored
press
using
cra
street
##ousand
##key
thousand
ce
tech
ang
##itting
desc
box
send
##ograph
cam
cup
arch
educ
whatever
##anc
building
everybody
usually
##bru
exactly
2010
##anger
##ho
rid
across
treat
pull
##fully
prev
century
##bs
sam
bird
##bruary
ground
february
appro
##ped
league
hours
till
##ron
rob
service
effect
worked
dav
master
months
##ming
post
possible
ran
hair
##airs
requ
ant
ru
felt
##oke
cross
members
norm
built
husband
anyone
population
vir
news
college
whether
##ara
cast
somebody
##ued
easy
control
international
##aged
shut
represent
vol
proper
chance
tomorrow
##aring
phone
gotta
lay
cry
##ding
##fort
vie
##ata
region
mine
hy
mun
works
##ana
##ham
compet
peter
##osp
##ended
ep
##ences
##iving
san
##ndon
deb
anyway
particular
answer
tried
tit
##ald
low
##ged
complete
forget
techn
##uct
##vision
event
den
parent
fish
feet
buy
moved
current
sud
stra
hill
draw
cat
batt
deep
view
bye
coup
local
flo
##outh
##unk
girls
##oh
cold
army
vide
alth
corn
tour
tur
##gest
ben
##mp
##ases
##yn
##arch
written
##eared
boys
although
seems
ital
gets
captain
mass
suff
##aint
match
##ination
lim
shit
pract
##itions
player
sec
author
##ship
sweet
fell
fav
sex
london
100
social
stat
luck
pet
##ified
##hm
##idge
games
##gress
##ae
direct
iss
command
instead
lives
##ino
##ales
bri
##iod
sen
##ept
24
term
pot
##rest
tonight
award
bott
worry
knows
##par
chair
21
soci
fly
fast
##read
##por
aren
table
di
lad
hall
##icip
rev
##idence
kids
##cent
cannot
tree
language
##ula
##ection
television
wel
hosp
##view
middle
health
accord
trust
write
information
##raid
thir
ber
type
##oint
paper
running
incre
truth
arm
wrote
process
birth
england
gent
afraid
william
couple
character
bud
sense
cell
trad
##dom
##soci
diffic
##cr
minister
lie
191
space
invol
cook
force
austral
seemed
fut
ones
spir
perfect
cult
##ches
sudden
associ
period
engine
##ument
##ising
hang
stri
clean
fro
conv
00
sell
##he
dress
mart
russ
america
village
canad
##avy
##come
daddy
ver
changed
gar
##mer
nine
sand
##ration
paul
##ls
longer
fail
hop
shot
trouble
##go
##itive
##ization
champions
##conom
du
##ges
council
##ission
bank
project
final
lt
priv
ur
lik
imag
esp
vers
chief
fucking
ain
##yal
inde
refer
supposed
received
mem
created
fort
econom
position
except
hurt
##oose
pound
##lin
mist
##asure
ring
##ement
##uation
waiting
due
burn
rail
##ael
brown
22
##lo
frank
municip
straight
prop
arri
dro
afric
invest
civ
ange
above
honey
##urs
led
comput
terr
object
##ival
horse
surpr
gas
summer
mhm
needs
rul
excuse
reco
prince
##ha
nobody
shoot
neg
gentle
mach
##emy
##cially
discover
viol
themselves
roll
lou
according
books
##bur
accept
##acy
aut
phys
##itary
species
dut
slow
##ille
cho
bull
sett
murder
dar
##uel
hospital
cy
dom
entire
kept
video
##ky
carry
save
##ef
##ka
track
cool
##iff
##more
pan
##bers
moder
future
jour
soft
beat
hol
##eder
##work
george
picture
esc
##ician
##lu
prison
23
##ption
mal
##rodu
##ilar
##oof
sugg
los
parents
eye
total
further
catch
nar
##ec
suggest
nin
net
exist
gard
mouth
piece
##yle
teac
feeling
yell
ban
mis
express
fix
resear
non
popular
david
worth
##aff
##ergy
2019
takes
board
central
chap
finished
color
2014
##bit
problems
##estern
letter
##cing
research
jes
##ager
##room
bear
itself
phot
fill
##ploy
capital
##itor
safe
##to
2018
crit
civil
quiet
learn
ice
jer
arg
hen
inn
fem
doll
mary
repub
hung
served
circ
##ially
decided
activ
enj
hun
50
center
finally
##owers
##olution
##bed
broad
include
indian
self
mel
shop
doub
breat
##teen
james
glad
union
##gy
grad
recogn
2017
roman
throw
2011
difficult
earl
jim
peace
queen
danger
relations
announ
republic
rain
evening
##roy
##zz
funny
bell
seat
wild
sad
whose
##ental
political
expect
community
estab
herself
respect
##itz
germany
famous
sport
26
figure
card
mult
telling
meeting
bes
indust
##ivid
bag
stick
education
##ston
happens
clim
enjoy
##ken
espe
##ius
crazy
bi
similar
relig
##ping
weeks
drive
aud
radio
##omb
comb
key
certainly
2013
energy
championship
society
27
obs
##olute
##omes
product
wow
battle
kiss
##ays
sick
passed
meant
uncle
##eal
susp
##hy
especially
##amb
bal
##nes
committ
28
market
base
2016
leaving
original
sar
clos
account
agre
director
lock
natural
ahead
aff
beginning
cloth
rose
mum
mommy
students
concer
welcome
2015
nature
opened
disapp
race
calif
places
neigh
bow
##uted
##la
modern
forward
californ
suppose
push
ord
##iers
fac
subject
##iding
##gar
2012
role
dinner
exam
wed
alex
stage
mater
2020
michael
host
whom
quar
interesting
##ending
defin
tv
ident
##bor
mir
absolute
cand
returned
##king
california
deg
quickly
apart
floor
colon
yours
##uit
anybody
pack
##riage
military
##empt
polic
fellow
fing
##ye
sitting
##hod
cried
individ
##old
giving
##ume
necess
2008
##xic
separ
demo
travel
##rible
parts
##ole
##ceed
respons
stood
countries
claim
fear
development
histor
##ift
forest
science
whe
##ret
consider
##uk
block
##anch
dance
prep
prim
action
dig
ris
simple
spirit
glass
study
obv
tax
moving
damn
fle
bene
##epend
strange
miles
##etic
indeed
##inal
cens
personal
india
wide
shar
##ensive
##line
env
towards
van
mention
##ett
search
independ
##ien
finish
##ica
royal
##raft
##ires
##een
##van
path
located
doc
published
jump
aha
mat
kingdom
questions
##com
2007
hm
japanese
##medi
scient
teach
introdu
lose
reached
ooh
western
amount
##nam
mic
lower
##field
appeared
decl
jew
##erve
alive
mc
fool
sounds
ren
instit
2009
##reme
2006
visit
famil
drug
fer
tar
window
democr
29
##ply
followed
jesus
commune
ut
lat
protect
experience
##ray
professional
sour
washing
province
prin
writing
fat
surv
pu
seeing
fund
cab
liter
robert
coff
caught
egg
stone
chuck
belong
plant
##ades
##hood
##cious
influ
hous
sele
ways
municipality
##pper
none
date
##sych
acad
et
tor
der
thom
jose
addition
situation
gro
mix
##ii
##cul
stup
190
needed
anymore
employ
##ruction
cath
ou
animals
official
election
##aur
##ago
census
various
max
largest
knock
join
psych
##ites
hurry
##ya
cust
destroy
##well
division
gree
suddenly
##gen
##ville
equal
produced
##ero
##af
insp
thirty
##nday
ash
material
heavy
serious
##mas
##inist
ox
hate
##ns
terms
standing
snow
immedi
arms
somewhere
discuss
stopped
##ids
northern
##dd
allowed
bob
enc
private
##enth
scr
##iny
##inct
ye
computer
professor
coast
##ented
##era
##iled
fan
speed
paid
shows
value
aver
speaking
stars
charl
ach
hat
politician
##inary
stupid
40
feder
boat
##aining
##wood
wear
european
therefore
favor
##istic
##others
plays
points
model
garden
mac
joined
rights
clock
crow
attempt
##asons
tow
exec
describ
span
spent
data
wer
bought
involved
##uses
##ength
brain
imm
size
##ugg
##mon
square
ken
##urity
officer
##resh
purp
jul
##bour
nom
title
southern
##ises
pray
nearly
wonderful
ow
ol
emp
lake
##agon
##astern
kh
ble
desp
tea
asking
meaning
extra
##ask
struct
##cell
corre
relationship
leader
promise
amaz
considered
princ
gives
uk
attention
deter
constit
##iction
numbers
china
##iment
##nal
ide
##iron
fifty
moon
plus
christian
##ura
##ode
possib
yellow
sens
broke
blow
31
##ners
affect
areas
##ify
mountain
##irt
##aven
epis
sky
##aves
answered
careful
loved
guard
spring
bright
init
cow
completely
impro
included
pun
trees
share
length
faith
tradition
##val
tick
sight
rap
names
##cast
##ability
ath
##itude
##lt
temper
page
sev
appoint
added
grew
store
absolutely
bridge
wal
charge
hmm
mexic
assist
paris
manage
tired
shouldn
thus
function
##ique
clothes
cro
sigh
doubt
bath
contract
rub
foc
method
##ees
rout
virgin
storm
founded
##ential
evidence
simply
ba
bottom
training
##iling
chem
##inated
aunt
bay
actor
soul
starting
honor
directed
##yr
broken
boss
governor
ros
appl
environ
##ano
hero
##asing
##ography
##ators
higher
coach
scream
surf
##fri
aftern
yester
##asc
oly
medic
capt
movement
christmas
yesterday
difference
regular
##iot
##icle
bord
parl
watching
##ctions
arrest
chick
charles
services
##ails
lovely
189
formula
percent
continued
australia
site
honest
princip
##ga
marriage
style
caused
normal
marry
bey
coffee
2000
drop
##ground
henry
##burg
##uts
security
saint
machine
below
richard
threat
schools
##ena
arr
avail
vall
##ato
##ological
weap
whoa
muse
text
unless
2005
address
inj
##ference
groups
twel
eth
afternoon
princess
dise
farm
olymp
stren
talked
songs
note
##friend
##illy
calling
choice
comfort
formed
washington
oppos
heaven
##itted
production
penn
administ
kick
warm
fol
##uce
helped
##ki
laughing
winter
louis
weren
pounds
sac
stories
##board
##antic
gall
##astic
version
##inese
novel
fit
closed
bang
##ror
##cient
accom
##iced
##antly
##iday
##oted
##oming
opport
##wise
spend
math
tex
bound
frog
##ils
##light
bor
##ida
tast
regard
birthday
determ
canada
defe
silver
intell
anne
amb
opportun
pictures
interested
##gth
fox
centre
neck
records
tall
react
mov
custom
whis
ray
announced
##aker
prime
##ging
emb
strength
lines
feed
earlier
##ively
cele
anal
chinese
showed
access
##oles
imagine
environment
##erson
trade
2004
186
##ari
##olic
skin
jun
##gu
ya
##ca
italian
demand
fred
multip
cred
putting
investig
##usion
explain
##ledge
ride
liber
spread
youth
##aud
staff
changes
average
chann
##ests
franc
happening
association
celebr
cit
double
fourth
##iel
price
female
nick
##atures
carried
##ples
offer
accident
forces
eh
##itely
specific
worse
rule
distance
brand
##hib
thomas
medical
singer
ven
##fact
##lement
developed
museum
bon
ham
animal
milk
range
distrib
joe
corner
oce
##reen
##str
##eg
review
conc
magn
fresh
huge
dry
kar
##ams
##aded
pig
established
wol
impress
##berg
africa
ancient
nu
ta
committee
student
lee
##istics
teacher
birds
ended
busy
leaves
##ript
message
chall
##ension
##asion
##ilities
events
ess
smell
terrible
##ket
movies
russian
wil
chic
##oops
suit
decision
spl
learned
##za
flight
available
scott
##off
stock
elected
immediately
rac
##set
spoke
obviously
create
judge
beyond
##aries
deliver
lots
reading
theory
##oop
188
effort
gal
##yer
##ek
commission
##ification
##atives
eastern
mont
##ipped
occur
eating
spot
##for
fest
depend
iron
kore
mostly
congress
compl
reb
nose
agree
sem
ladies
gri
oil
cases
und
martin
brothers
##wor
hotel
##ables
crime
foreign
contact
##sequ
flowers
fighting
##ider
##oph
##arily
shout
scared
electric
twelve
##iest
link
swim
collect
carol
magaz
code
2001
disp
dick
hors
continue
##ech
smith
goal
legs
sant
parliam
feature
spanish
prem
lying
secretary
##istan
golden
##sey
##ipe
scene
grant
joy
ell
connect
neither
calm
male
texas
##ita
release
individual
signed
section
ought
wound
libr
tail
##ander
aged
##uc
media
fault
##ette
lift
convers
liked
pil
older
##bing
rate
acqu
parliament
##aign
perm
hide
##ria
eventually
communic
repe
##bon
compos
tal
likely
rules
necessary
##phone
beach
##ously
walking
covered
ideas
print
##ips
lucky
wake
greater
truck
##ining
wit
loss
throughout
network
log
2003
twice
purpose
buck
raised
practice
##amm
pieces
journal
##fl
weight
discovered
##iation
forty
##pping
187
dun
mut
##no
rab
campaign
victor
##vin
players
2002
holding
lunch
positive
trick
##aine
ocean
approach
pressure
enemy
flor
##oid
arrived
ast
##gl
freed
transport
achie
direction
dim
##illa
##atory
##ban
manager
knowledge
mission
slight
attract
sports
letters
believed
notice
##ij
wedding
##pe
weak
successful
federal
imposs
##rupt
chicago
cart
##lvan
##ev
palace
valley
##ansas
policy
soldiers
chapter
##iar
500
revolution
particip
##chan
unl
angry
km
row
plat
braz
dangerous
nation
breath
##tered
cars
qual
thou
##lands
##fast
comed
##eds
described
##itar
swed
condition
2021
related
awards
sin
holy
bless
##osh
laws
micro
trip
##erved
castle
##itation
extreme
italy
teams
kitch
gather
les
issue
surface
shad
screen
crowd
##anced
##ini
basket
launch
35
##ims
degree
##lvania
satis
tells
##ateg
empt
newsp
walked
##aper
##oms
##ills
frequ
beg
spr
missing
##reg
property
systems
occup
pin
cancer
studio
rank
shown
##using
crim
gradu
##uments
tend
recorded
empire
impossible
memory
##hab
##west
##isc
singing
##eless
jen
placed
cities
mike
eld
choose
smart
currently
correct
joseph
atl
standard
weather
amazing
kim
##yl
hasn
bloody
##ware
houses
tun
cant
##round
hom
culture
flat
gentlemen
wash
performance
##viet
##aped
leading
planet
##ota
possess
##lled
calls
smile
technology
painting
pennsy
replied
writer
##ris
poet
disease
kitchen
duck
##ients
entered
theat
rough
originally
anywhere
##izing
definitely
surprise
##vey
scot
asse
arab
##asant
##stairs
easily
actress
haw
signific
proud
slowly
##ios
artist
##house
pennsylvania
unc
families
emerg
##ibility
##oved
##ols
uses
brazil
growing
transl
##apt
hole
opin
magic
gay
ly
fal
2022
excl
justice
native
ign
alt
opening
soviet
commer
academy
citiz
##ba
quarter
##craft
bomb
dollars
##how
surround
blind
subst
grass
##hold
bigger
labor
remain
vac
shoes
motor
generally
hid
dropped
##vert
illust
industry
boo
competition
philos
channel
horses
apparent
rat
fash
types
##ado
taught
##otten
##anda
greek
##ex
##under
escape
forgot
pock
##rian
bread
risk
behav
copy
##ched
excell
beauty
##aret
thinks
##pect
agreed
unit
forth
ry
rh
learning
saf
1999
mistake
results
leaders
includes
railway
##bles
highest
##ses
heads
##back
contrib
##ker
particularly
descri
independent
source
organization
zero
laughter
bod
greatest
##aching
opportunity
wheel
##nie
yo
evil
mort
##gypt
smaller
driving
archit
agent
##play
shr
na
##isions
territ
##zen
darling
##ulations
progress
benef
dir
kr
runs
32
basically
##aled
opt
##rel
patient
##che
colonel
egypt
interview
pleasure
fashion
besides
##iverse
prize
architect
crack
scar
operation
##isted
firm
appre
vote
emper
virginia
nic
weird
##imate
instr
##utions
trib
cub
##lor
##iety
horn
wat
heat
edge
##ores
studied
spell
##icient
jane
remained
entertain
francis
assemb
companies
witness
laughs
60
ot
carl
studies
##iana
sunday
saved
otherwise
turns
worried
plans
##ening
forced
##cise
finger
expected
stan
pred
designed
upper
##head
##pan
##ja
becomes
mayor
##kin
laid
##oned
breakfast
mentioned
rand
185
negative
indic
emot
mechan
speech
magazine
provide
aye
loud
flying
##iance
##ishop
##ada
sword
hungry
picked
crying
larger
toward
shape
plane
adult
starts
wearing
african
harm
filled
complex
corpor
ram
##ona
cham
coo
butter
bitch
mere
chart
acting
library
powerful
tape
structure
episode
concept
es
forever
bother
sighs
airport
vot
killing
features
patter
sha
islands
##ems
cas
spok
minus
dogs
adam
totally
mexico
45
forms
plants
crew
##ala
reve
##rif
charlie
##rey
legal
strugg
##mond
pink
##rael
reported
1998
canadian
##arm
##iles
applic
chairman
empty
democratic
festival
##iano
camera
cere
conference
cloud
##ads
apple
target
##iant
windows
##isl
sides
bast
1996
##itzer
conserv
kinds
##wr
colour
brief
physical
nav
satur
fright
arts
australian
anth
finan
fant
yep
wine
conditions
stuck
##icles
mountains
sav
contr
hardly
duty
resour
##istry
gate
aware
lack
tight
dare
retired
metal
##aked
demon
turning
##ulous
clearly
critic
symb
thick
sher
issues
##sec
freedom
minor
economic
grun
##ashed
switch
dor
orders
kil
teeth
candid
likes
neighbor
anti
##wa
document
grown
emperor
detect
obl
##oul
religious
ninet
narr
handle
israel
orch
spain
forgive
##utive
drew
pac
rush
increase
web
pitch
##igned
intellig
winning
advent
##nel
sarah
becoming
transfer
characters
drama
hyd
ec
##uten
active
temple
remind
georg
serve
construction
wing
seriously
pair
delight
flag
##han
rome
silly
divided
previous
performed
lies
##esty
statistics
eggs
##hen
biggest
veh
catholic
1994
1995
##va
bat
##cend
cous
meat
measure
##ost
##omm
appointed
ourselves
rare
separate
odd
stream
drag
authority
##ques
##father
##oring
##ola
possibly
recently
36
reasons
rod
plain
waste
##ulf
russia
keeping
1992
realize
##esh
sus
noise
##oe
autom
offered
dyn
tong
quality
missed
gang
lawyer
##host
dutch
wet
ordered
directly
##ties
resist
maid
responsible
##oma
##aling
prove
##imately
##ckey
teaching
sake
##roll
orange
crown
ty
##jo
##nis
management
influence
concert
##the
##bi
ghost
branch
##cles
roof
jean
willing
despite
bul
cash
planning
##pa
decide
medicine
buildings
harry
mama
ax
shock
religion
redu
nan
seconds
replaced
jam
drunk
constitution
dirty
##bel
saturday
pure
guns
nucle
appreci
##mar
officers
mob
dreams
failed
diam
image
##oured
taste
musical
ted
ga
os
favour
promised
refle
tower
screw
##ule
listening
sharp
##iences
doct
ult
##ruct
##night
1997
journey
01
##igr
recover
adop
sleeping
owned
sup
meas
##aging
giant
workers
tournam
silence
pier
rang
prior
route
##lam
introduced
partner
onto
safety
produce
knowing
concerned
godd
britain
##fortun
syn
prepared
map
thro
1990
surprised
honour
exch
dish
bond
##hi
motion
edward
swear
ire
broadcast
##iger
opinion
nations
##har
jeff
succeed
prefer
florida
grace
##ox
##kn
trial
##ube
desert
maintain
flower
pad
worst
##rial
universe
medal
glo
relax
nap
everywhere
languages
1993
altern
mainly
fifth
fixed
continues
##umn
jac
assum
33
smoke
##abeth
ears
som
lieuten
destroyed
traff
circum
coat
tan
##kes
##leep
chemical
debut
manner
americans
advant
##ias
institute
iv
angeles
appearance
actual
##shire
80
height
athlet
##kins
guitar
dying
##lla
defend
##idents
finding
sugar
##lict
tough
grab
##ault
##cks
feels
humans
occasion
confir
fifteen
bun
collection
kent
pulled
younger
treatment
ends
switzer
ireland
pool
##orter
marsh
easier
thy
damage
##ector
bush
thousands
commander
hast
flow
ships
switzerland
awful
financial
provided
legisl
traditional
mate
hind
sequ
asleep
sail
lieutenant
##ux
reality
hook
unfortun
rise
##enced
restaur
barb
remark
robin
raise
steps
chicken
drum
expression
cabin
##achel
audience
location
billy
##ste
1991
pocket
cream
pard
managed
driver
##aver
##road
border
threw
apparently
wid
##ani
##ram
##east
##sa
tiny
##time
conversation
spoken
goodby
watched
##elle
stret
##ushing
anx
showing
usual
trop
walls
##mark
##uries
manu
whisper
strike
eliz
appears
terror
background
circle
grave
az
tru
gift
##bc
vice
##tle
bub
##arr
hadn
pak
delic
admir
han
mail
##da
papers
loves
remains
lights
poly
hockey
##urance
##kend
shell
##ulty
reven
##rid
exer
fingers
sab
fu
losing
propos
innoc
##rawn
request
ross
laughed
constant
chea
goodbye
fruit
184
hills
kitt
##inois
feelings
lind
zeal
gor
element
jobs
1989
comedy
##cel
schol
wrest
buried
johnny
content
##itan
daily
##onse
scale
##over
illinois
units
300
credit
lic
##apes
complic
drugs
kansas
understood
##rison
relative
stayed
bare
improve
focus
encour
favorite
##ops
cake
##inate
ves
territory
exhib
opposite
noticed
wolf
##ji
statement
bottle
90
cells
tony
troops
excellent
jimmy
file
##uals
##ern
hearing
nerv
required
latin
primary
thoughts
limited
theatre
##imum
##hol
ron
somehow
##ingu
score
##ocol
##gs
gran
lect
labour
##resp
##quar
##azz
thin
bishop
##icide
poll
##attle
inte
completed
victory
chuckles
sid
faster
nur
weekend
assembly
notes
bac
dust
rapid
friday
selling
effects
angel
depress
shadow
##put
fought
earn
sym
billion
falling
helping
temperature
split
lion
gentleman
gray
vari
challen
comment
recent
ded
steve
struck
previously
##die
bringing
majesty
advice
##do
senior
##rick
upset
34
require
dude
streets
trail
ped
ninety
ts
mathem
tournament
scotland
protest
##book
##rie
glob
internet
fired
grey
climate
##ko
lif
sixty
establish
desire
mole
hay
shore
maria
chris
thee
##ali
##ili
##win
basic
click
piano
matters
philosop
attend
jackson
cooper
concent
imper
shel
nineteen
cott
soldier
##enc
ability
conscious
weapons
batter
jail
consum
adj
newspaper
etc
lips
majority
thor
afford
ther
bodies
tears
cock
webs
arth
powers
70
amy
##aly
##osph
serge
inhab
parish
stro
presence
dressed
closer
##rees
dancing
graph
##igan
##cher
eleven
champion
mas
forgotten
##ua
##gor
confess
response
##arian
##ez
useful
bid
manufact
figures
matches
ward
contains
scientific
alph
spect
electron
ko
fran
divor
economy
register
habit
traffic
##agn
kir
administr
1980
cher
plenty
##can
purs
tab
vent
surely
rum
joke
afterwards
awarded
rot
##uing
iran
sons
prevent
bol
jon
quant
films
1988
declared
supply
cousin
voc
accepted
plate
kat
entirely
musl
producer
fields
##ador
drinking
witch
wise
arrange
tam
laura
##isher
perfectly
aircraft
excited
columb
coal
receive
proceed
drawing
ker
resc
##eping
##asty
183
##emic
basis
protection
devil
knight
foundation
sum
carefully
grandfather
detail
marg
cris
##eral
##ila
mah
1987
chos
##rier
sexual
##athan
setting
##ima
string
irish
wick
##itter
alice
tommy
lin
growth
##aren
affairs
stad
editor
baseball
virt
connected
38
hyp
apolog
proof
fully
selected
mixed
uns
dip
citizens
##bury
signal
achieve
keeps
obtain
cheer
hunting
interp
changing
pardon
75
bunch
article
lone
##isse
counter
domin
##abor
categ
brill
buddy
##lling
##acle
shooting
sched
knife
girlfriend
significant
rug
##mn
memor
jewish
dial
spin
reform
andrew
beside
electr
breaking
politics
cheese
resources
brook
joint
multiple
passing
basketball
37
schem
##ipping
arro
guil
eighty
tone
##isa
wings
incred
executive
pleased
elements
##iber
##ysis
activity
recomm
##uous
##stand
islam
##bey
recording
paying
ay
leon
scen
blank
telephone
##ige
##anged
highly
solution
programs
budget
generation
challenge
##here
increased
punish
zealand
##aming
olympics
shirt
examples
represented
navy
shame
falls
myst
failure
congr
slightly
commercial
apartment
artists
##while
throat
##pet
satisf
unf
planned
pill
wealth
##wich
purch
status
removed
circumst
yard
scientists
##gend
wave
42
doors
products
##gers
carrying
elizabeth
bass
quit
sales
gaz
republican
##bre
1984
aven
cru
johnson
transform
soph
arrested
unkn
defense
activities
task
priest
1986
extremely
##owa
unlike
kidding
##iring
numer
alan
rever
tropical
poison
nervous
carbon
pul
goals
pregn
veget
##roph
chamber
ka
settled
advantage
brave
iii
potential
chosen
latter
idiot
hidden
roles
##ulated
normally
platform
assistant
##ception
opera
suspect
approx
mile
dism
upstairs
silent
sheep
pra
hiding
daniel
nut
chest
killer
passion
crick
steel
connection
understanding
bron
guilty
avoid
pakistan
##mes
scored
smok
narrow
ug
salt
orchest
solid
calcul
whist
owner
elev
##ih
invited
tie
##aimed
##porary
expand
##illed
faces
belief
hanging
fancy
##nic
##oos
trave
simon
comfortable
rabbit
happiness
criminal
jones
1979
senate
##uch
suggested
1983
##ached
danny
chain
weapon
exchange
tay
1985
furn
wire
ari
deput
tongue
carolina
##urb
##vi
entr
liqu
advance
squad
levels
sees
nurs
contest
mental
integr
##bl
false
##ora
##ading
guest
details
1981
##olved
##ulate
roger
##aning
py
whenever
administration
##chester
industrial
consequ
congrat
diss
asia
cards
agric
arthur
heav
1972
infect
writ
online
mouse
##rate
##iy
expensive
consist
##stein
drawn
variety
plot
sang
beast
impact
##isation
reck
transm
screaming
photograph
global
capac
defeated
agricult
anton
causes
vessel
##lyn
begg
fate
##ito
paint
folks
##zo
##rence
unknown
##eman
instance
advert
dram
aband
apply
neighbour
mand
1982
naz
inqu
promot
ali
fairly
cig
boston
familiar
##rated
display
operations
##ares
##war
conflict
gods
truly
sel
crash
dragon
wondering
impl
remembered
aim
legend
##izes
settle
hydro
municipal
championships
classes
supported
homes
##erves
parties
instrument
blame
smo
seasons
hamm
fold
income
disappoint
##don
stadium
pir
##li
buzz
rocks
realized
draft
staying
responsibility
respond
elder
gil
flew
48
oldest
farmer
sole
matt
##ache
las
1976
pant
tu
cla
cha
historical
por
##rd
##min
##what
fairy
determined
39
##20
luc
woods
##iform
pow
rings
aid
monday
flood
monster
entertainment
nuclear
camer
##gment
vision
lam
surg
hundreds
seek
pas
##athers
observ
literature
clever
dub
shoulder
stations
beer
peak
dread
headquar
vic
gig
costs
portug
##see
korea
kings
conduct
sweden
andy
condu
convention
sisters
ens
script
flu
##fall
estim
##usted
serving
pleasant
towns
presented
frame
conqu
1970
##icated
1974
partners
violence
cultural
innocent
wales
associated
burning
tel
ate
toy
software
cute
ms
begins
duke
jersey
od
admit
vel
##rol
hes
##etch
label
1978
##lend
##ropri
diamond
20th
loose
ridic
1973
hurric
budd
locked
steam
gh
pope
banks
flash
headed
goodness
courage
increasing
pale
nurse
pit
##odes
existence
turk
eleph
ordinary
emergency
attacked
finds
##aria
ukr
pacific
##eding
appeal
##omy
compared
disappeared
bite
jung
era
independence
bastard
400
fallen
inhabit
refused
keys
junior
contain
matth
ak
teen
##ivity
chocol
santa
unus
suicide
##aka
jess
stated
##ira
equip
supreme
eve
victim
vert
boyfriend
##ague
stress
armed
##mann
restaurant
saving
##wan
township
gy
##urt
tip
thunder
applause
tort
agreement
41
suffered
degrees
attended
button
##ologist
##ario
proposed
##hl
waited
##iro
myth
##icted
tied
gain
helps
occurred
44
explos
eric
##enn
1975
treated
subm
symbol
pretend
consult
overall
stands
earned
55
##aya
1968
##ela
folk
1969
canton
##oot
alco
regional
atm
buff
perman
juice
chose
touched
mud
additional
polish
rooms
sess
##mans
insurance
##down
listed
##respond
iowa
referred
moo
lands
disappear
depends
##urally
kong
argument
rick
highway
##gle
correspond
breast
1977
##born
au
philipp
suffering
severe
##aki
wars
objects
teachers
bones
suck
43
aspect
turkey
walter
georgia
sweetie
bern
darkness
anc
holly
reports
##uits
cel
pride
values
##ati
##asy
##bra
client
officially
clar
brilliant
##eaks
volume
##gie
##ds
pupp
steal
##enger
181
##outs
##ucky
brian
borrow
friendly
unfortunately
1971
racing
lem
winner
##ico
sentence
##entially
lane
appreciate
##onia
francisco
liver
suppl
##alous
mathemat
fab
jr
##inent
handsome
follows
riding
stom
hoping
lit
engaged
bowl
sed
recognized
berlin
swimming
engineering
analysis
sergeant
estate
proph
distinct
featured
descend
intelligence
bom
bible
65
albert
theme
horrible
alexander
chat
##you
withd
behavior
publish
signs
repeated
cav
grandma
patients
critical
oxford
##tha
brad
subt
romantic
butt
cin
leaf
circumstances
##mother
investigation
##any
180
1967
settlement
urban
meg
##bow
annual
limit
grade
craw
unh
ages
waters
##idae
chatter
dies
##iments
swing
##rit
##oln
dawn
importance
recognize
agency
fortune
19th
decor
oak
##hire
jerry
lew
equipment
benefit
aside
alf
sixth
papa
marc
cord
##bridge
mood
shake
desk
holiday
forb
discip
household
ark
tracks
doctors
unique
##stone
root
bran
1964
properly
##sect
instru
factory
##athy
drove
noted
somewhat
narrator
pic
##sters
shortly
ryan
conver
ze
conce
dum
bitter
##owed
marks
##rom
individuals
mmm
presidential
ale
tender
representatives
fame
cod
reaction
##gas
matthew
airl
creature
##angle
recon
seventy
ku
##onic
dave
##ouri
hearts
bent
desper
rig
rhy
##emies
bh
intended
meal
trains
retire
commonly
arrond
advanced
atlantic
47
premier
argent
merc
nominated
arrondisse
##aints
##imp
brid
sets
babies
subsequ
organiz
cycl
##acing
51
rural
goods
website
accompan
hunt
##ethe
curious
woo
fishing
##rb
myster
survive
chocolate
via
districts
##arest
##osphere
ky
provin
bos
brush
fiction
sale
nearby
pushed
##gues
##oll
prote
applied
zone
merry
committed
linc
moves
acts
philosophy
acid
pump
korean
reject
bullet
simpl
obvious
beneath
46
historic
launched
lonely
pip
##rant
brings
##ropol
mcc
##wide
belg
##etts
##ika
##unte
ours
symp
evolution
noble
incident
neighborhood
##ros
roads
cheap
holds
albums
smooth
##´s
fed
lap
shh
splend
profit
##lers
dur
detective
describe
volunte
hunter
hurricane
##encies
nether
solve
49
explained
northwest
viet
rice
boom
ancest
bone
load
##ella
marked
prepare
toil
bah
##bb
distribution
##eps
hong
gab
##otic
williams
deck
rib
1960
##works
tap
nest
##achus
merely
diet
##alled
##ller
fleet
headquarters
cou
elections
smiling
embarr
interact
madam
pattern
##place
pilot
clay
##of
tools
64
stole
bedroom
ridiculous
lincoln
meters
accompl
##ester
asian
actions
##ingly
beth
closely
dow
gord
numerous
merch
surgery
##mont
##iser
##adel
exercise
brick
organized
inhabitants
illeg
##orpor
##estic
trump
distingu
embarrass
marie
composed
situ
suffer
brig
1945
jay
1966
eaten
deputy
prec
spo
barn
rent
pity
harv
uniform
taylor
rif
remaining
edition
speaker
random
ira
suspic
puzz
proved
##atherine
toys
frightened
bride
yu
stol
guar
frag
warning
##cho
##ternal
ere
fuel
##iac
administrative
aer
candidate
##ais
commit
slept
stranger
experiment
authorities
chase
proced
programme
jealous
factor
victoria
concl
enemies
colors
cutting
captured
sending
contem
missouri
wilson
nights
singles
balls
skills
claimed
relief
##oses
illustration
##uls
application
182
##esis
bathroom
creation
##writer
owe
snake
regret
##nda
painted
dna
instant
steven
raj
stronger
infant
vehicle
materials
cave
harder
burst
approximately
##ender
mos
warri
owners
massachus
geography
jason
allows
voices
ohio
purple
adopted
##umber
michigan
pregnant
massachusetts
discovery
digital
oxy
waves
dealing
##ching
bure
gotten
spiritual
methods
wag
##acks
##burgh
concern
ugly
stephen
efforts
##anes
stones
spare
monkey
rivers
sources
congratulations
nag
phr
attorn
initial
wished
mummy
chop
grav
corps
bart
##ancy
mam
engage
millions
naturally
torn
operating
stomach
effective
tum
reward
surre
thrown
lesson
blo
##water
distributed
competed
netherlands
creating
shared
permission
unable
##ifying
appropri
senator
nons
##inity
seats
handed
mirror
soil
spite
challeng
##greg
orchestra
pointed
principal
cruel
pants
ford
compound
pour
##ava
##leg
pron
##eau
attitude
lor
##esar
roy
rising
##worth
unusual
tank
##amin
ske
neur
loyal
il
tag
delay
susan
dump
kal
##isy
rein
slave
cricket
cree
cass
##cha
1965
regions
poetry
gained
explan
astron
##ashing
##aska
##osis
scottish
identity
attacks
balance
1963
winds
blocks
guide
moral
whoever
##force
trained
olympic
gosh
photo
select
scholar
oblig
quietly
sara
defeat
##inations
angle
hired
technical
reference
wins
lux
complicated
##ament
metropol
margaret
52
scratch
badly
observed
wore
pear
shir
##inger
spending
sufficient
sque
54
alternative
hans
##hin
mobile
device
fortun
bust
stairs
buying
columbia
##iat
secure
goo
consists
burned
wounded
##oti
disney
lung
pete
whoo
enjoyed
founder
poland
breathing
cooking
description
struggle
inner
rud
179
austria
vast
copies
prisoners
lamp
dozen
faced
##oman
exped
##iven
communication
##erable
aah
cats
cd
anna
pup
bund
sust
persons
##mad
collea
belongs
evident
initially
##eness
inher
##otted
##itors
compar
inch
grate
assume
trem
##onent
andre
debt
crisis
wand
healthy
bits
sorts
eag
piss
cem
##iev
ticket
pages
##utor
reserve
elim
extended
##ogue
rus
leads
1962
corporation
56
confidence
greet
experien
capable
53
revol
liberal
capacity
ministry
driven
affair
literally
##ova
expert
sites
guarant
fasc
beck
##sell
nonsense
returning
gif
mi
anger
##osaur
1961
eager
shook
ls
dipl
guests
##elled
##rich
core
funeral
##heim
coord
sacrif
profession
##vant
##attered
introduce
rachel
betray
kevin
crap
##othy
classic
mall
yards
##ulpt
##apers
charges
notable
friendship
cryst
holl
centuries
affected
visited
remove
memorial
amend
loan
mystery
von
conclud
interests
campus
interrupt
talks
solo
murdered
graduated
fantastic
wy
##bled
accur
fans
##ithm
arrow
initi
stolen
lily
aqu
bold
bc
bend
revealed
defence
sculpt
survey
150
prepar
facts
gasps
mans
prosec
1956
attorney
dumb
##char
madame
ruled
housing
exclaimed
atmosphere
1970s
shopping
mak
plastic
genus
crossed
starring
personally
rolling
sink
stab
formal
om
##illing
##sen
stir
khan
##standing
rescue
mead
betty
cough
entrance
##wick
whit
##entions
##urg
tak
childhood
glor
##awa
practical
raw
squared
conservative
nuts
bav
stamp
##ensity
defined
##ni
illness
bureau
poem
impression
succeeded
recommend
merg
##umes
slide
straw
lover
issued
views
sooner
belt
glasses
1948
swall
answers
breathe
jews
##zer
moments
##aws
cad
tin
insect
##agan
victims
kin
entry
##rim
##icy
southwest
exciting
environmental
depth
clubs
figured
mexican
1958
##iture
##itage
communities
representative
##otte
twin
##engers
##phia
sympt
confeder
##seless
dat
##ran
##vis
functions
listened
dollar
##esome
widely
surrounded
constitu
swedish
##ghan
clin
engineer
lewis
passage
properties
combined
incredible
galax
fond
arranged
##omp
studying
##pir
jury
1957
imperial
##abet
demonstr
##lan
deserve
theater
neut
ending
bunny
##ears
servant
eighteen
oxygen
prisoner
wicked
alcohol
unp
##berry
shoulders
column
jord
##utation
ringing
tub
checked
##ington
##osa
visual
branches
99
##bell
##mony
shouting
thurs
##isms
##asm
hugh
presently
philadel
tang
algor
mosc
collabor
grunts
revenge
##iques
goddam
covers
reviews
punch
leo
horror
escaped
scheme
awesome
fisher
supper
awake
typical
1980s
climb
gordon
57
meanwhile
strip
resistance
59
1947
##ras
wherever
##iley
lamb
rust
models
projects
creek
precise
weigh
chin
##aughters
##inals
beating
1939
ing
stops
1960s
controlled
items
##adesh
95
naked
assign
cu
##tes
subjects
philadelphia
bour
gir
##ele
##low
internal
cops
##leton
sax
hoo
##iece
##kyo
institution
granted
thursday
letting
strict
persu
heavily
opposition
##ext
smiled
confused
85
massive
critics
electricity
jumped
solar
machines
cigaret
dean
puts
claims
shift
adventure
jur
##rane
deeply
architecture
##omed
mighty
injury
reduced
knees
permanent
##una
ceremony
##uable
nowhere
cheers
repeat
##lets
discussion
##alo
soup
##now
inspired
sorrow
bobby
bbc
##jan
##othing
jazz
1959
potato
##mouth
##ami
charged
gary
disord
rear
minds
difficulty
violent
occupied
atlant
votes
daughters
##case
sew
outer
##enna
##sex
alarm
morgan
foolish
indians
sixteen
##etheart
clark
tooth
depos
##atell
1952
reign
boats
surrender
1944
1950
donald
intention
emph
sweetheart
extraord
principle
73
gathered
jake
philip
1st
elephant
carter
dio
##iva
personality
tiger
syd
fare
##pson
uncom
confirmed
drown
wis
injured
provides
wra
controvers
marine
vul
fourteen
decisions
inspector
honestly
catal
##ront
ideal
possibility
patch
fever
phen
journalist
worn
tries
convin
shaped
si
kelly
separated
wrestling
lyn
picking
mercy
nich
disaster
mister
chip
knocked
##och
##kel
formerly
len
tokyo
anthony
cabinet
tests
##rific
##orted
scare
penny
penal
splendid
##eur
liquid
fc
tool
prayer
customers
brazilian
lod
loving
greg
christop
replace
domestic
58
precious
dating
tale
articles
kinda
horiz
wre
cov
rode
rope
patrick
episodes
##box
analy
##bar
boots
universal
begun
metropolitan
bum
grandpa
hut
barry
1954
hip
throwing
reflect
avenue
##ois
##atically
kilomet
##oto
shield
tues
images
grandmother
depression
1942
wednes
91
dogg
##eper
negoti
jacob
absor
musician
occas
lucy
tuesday
howard
academic
leadership
##urd
worship
semi
satisfact
iraq
sty
reckon
sie
strate
southeast
reply
intellect
##ardo
param
cape
moscow
72
##rep
##onym
gene
identified
##gi
##fish
bin
miller
physics
frequently
fract
aston
##hh
##lah
existing
villages
##etime
helen
1940
jar
user
classical
operated
##eable
guards
liz
ashamed
category
writers
enorm
tennis
typically
hart
osc
##ked
##ifer
necessarily
##uge
##uled
carr
dynasty
##onents
heritage
testing
genius
positions
sacred
stim
anxious
66
haz
1949
hits
strategy
foss
gib
tai
1941
delicious
bacter
sevent
disg
invented
composer
glory
thorough
wednesday
attached
treas
minnes
##ushed
spider
lately
1955
stable
tickets
cycle
officials
kentucky
dates
lisa
computers
kenned
##lle
keen
##boy
footballer
shakes
goddamn
punishment
poo
##aa
##onscious
oz
sna
dramatic
seed
cliff
context
##cules
seventh
grateful
##met
bike
wend
wheels
gam
underground
organizations
nik
pipe
jin
pole
caesar
transferred
##zech
implement
##uma
clint
extent
throne
illegal
alp
distant
skill
satisfied
utter
##ania
tear
phase
salv
combination
trium
communist
opposed
dougl
definition
##uther
##chi
dynam
faint
railroad
cinem
whale
unhapp
pulling
memories
##urer
educational
##ilton
sheet
hem
strang
confident
##asa
##pton
supporting
##enses
alongside
jordan
##po
bra
engin
holes
appropriate
wondered
lifted
sydney
1946
admitted
hurts
alab
maximum
##lon
austrian
acquired
explanation
incorpor
causing
err
baron
circuit
2nd
strateg
videos
czech
encoun
kate
pel
sandwich
yay
assault
spark
diagn
##alf
swift
shower
selection
convinced
subs
arrondissement
ps
parall
spons
opens
greece
trap
tribe
74
ny
socc
grunting
scarce
cookie
spirits
##agger
##ipper
stores
trace
regarded
##akh
valuable
balt
##avery
kennedy
pros
oliver
ja
restrict
##intend
essentially
arn
mississ
##usal
##kh
minnesota
1990s
developing
cattle
doo
shoe
churches
stroke
##inating
talent
muslim
landing
##tery
greatly
promoted
piz
##itable
treaty
abandoned
soccer
thief
sung
whereas
beings
1953
88
ric
franch
races
##icing
##opes
resident
nickn
97
##net
creatures
thirteen
ack
queens
sally
investment
bapt
ian
manip
rag
##ancing
##via
secondary
passes
passengers
estimated
protected
shin
seal
##usive
counsel
bears
##bec
##onto
chim
enth
63
##ete
upd
exha
isol
rapidly
ruth
incl
neat
gross
nina
portra
louisiana
mons
tas
fake
anch
decre
##rad
atom
speaks
adapt
midnight
possession
divorce
worldwide
##abad
usa
jenny
scand
behavi
sheriff
##iped
##ippi
admiral
fulf
tiss
kam
##bach
##ucker
treasure
canal
arrive
documents
mars
##aving
lan
nord
obst
appointment
dedicated
bree
##ructed
tunnel
bronze
pronoun
sob
indiana
reaching
males
emma
slaves
assass
##ressed
portion
superior
cathed
relation
triumph
patri
amongst
83
lean
acted
smoking
##yard
carriage
expecting
photos
josh
engines
proport
formation
wooden
files
oklah
sire
error
depending
##bage
heading
animated
##ishing
landed
symptoms
accused
hollywood
##pool
bags
68
orth
luke
##edge
toast
##western
##eline
sacrifice
alabama
hoped
oklahoma
inches
appearances
assh
downstairs
divide
##fa
##osl
lawrence
##rix
nathan
##ibly
asks
##agers
facilities
benefits
##iah
judgment
hers
sciences
##bie
##je
spy
##cers
178
largely
dong
electronic
pitt
crimes
clouds
turkish
margin
craft
mitch
conven
lecture
##esc
reduce
extraordinary
users
bruce
lessons
reputation
groans
merged
78
morrow
##ture
soap
slip
douglas
emily
1951
versions
option
toilet
fee
delivered
hood
rip
satell
177
advis
##uri
standards
1943
medium
insult
##ints
recall
##gger
hopefully
diplom
dirt
##olas
threatened
##rose
golf
equation
garage
enterpr
##ogether
instinct
600
##usting
undert
wishes
experienced
kl
tomb
designated
##umbling
gallery
useless
##iable
wanting
combat
hou
license
##zes
residents
outl
stepped
indu
sought
##master
billboard
##ici
##ensions
announce
julia
lob
##asp
abroad
lets
##spect
capture
voy
##sk
##apping
dign
shif
ambass
specifically
frances
assess
ont
refers
1938
retirement
chew
underne
liberty
77
fried
##acles
identify
federation
kay
arc
prefect
hollow
counties
softly
underneath
bavaria
mississippi
kang
mamm
bee
gradually
84
comr
reprodu
relatively
tent
flesh
annoy
dj
adults
phrase
invent
shy
sector
partly
presents
northeast
females
whispered
therap
##icians
session
bump
theore
##ione
boot
scenes
pushing
##gate
hack
##rus
##cript
chef
davis
ruin
latest
laur
obtained
hawai
allen
comic
larry
mes
knee
flows
silk
closing
facing
altogether
stanley
cm
eddie
flav
crossing
blast
monarch
61
interf
youngest
airpl
landsc
franklin
mysterious
alien
charlotte
drinks
maiden
nam
messages
survived
stor
tempt
primarily
focused
##ders
chess
probability
sequence
newspapers
hammer
jum
org
performing
##oration
gram
curtain
freak
##uate
##car
fence
julie
dol
gates
retreat
purposes
rugby
##ription
starred
expressed
naval
fier
sr
serves
negro
nhl
##pass
catherine
1934
apologize
expedition
visitors
fi
differences
jungle
62
##otes
dod
roughly
contrast
dv
##tr
charming
consciousness
conducted
christopher
roots
footn
boxes
paintings
cemet
##fly
aar
equals
ruined
unex
regiment
bands
instruments
interpret
offers
##crete
##inn
slipped
ski
1930
debate
##apore
meetings
kidna
cleaning
taxes
joining
regarding
96
##pent
##bits
##itled
companion
lasted
71
yor
cler
assigned
encourage
warn
1936
##thy
manchester
neverth
##chief
metres
67
##olk
interior
emphas
82
##eare
indist
copper
literary
arkansas
phill
providing
employed
nope
essential
goddess
gulf
hud
fuckin
involve
cemetery
item
##istol
prices
##hu
guid
kissed
cotton
fbi
##thm
neph
represents
vietnam
rival
actors
bug
factors
agriculture
##dam
##kshire
invasion
1933
borough
dunno
conclusion
phenom
##igen
mask
##icit
alliance
servants
nevertheless
battery
##apher
recru
alpha
municipalities
800
##zing
twist
experiences
candy
##opp
murm
singapore
accounts
##aro
sue
ding
stew
boring
parallel
charity
drift
dismiss
surrounding
schedule
cathedral
ald
rhod
##bu
frequency
nah
titles
shakesp
pond
reasonable
##ori
jacket
dull
enormous
deer
adding
##load
exists
everyday
contained
remote
beloved
gest
overl
imagination
movements
dak
ul
76
surge
palm
echo
##mod
passenger
dal
98
desperate
format
ment
##omer
strings
constantly
##orous
norman
dennis
emotional
colony
abst
offering
newly
##ribly
receiving
eval
86
cheering
unconscious
wreck
gear
##itals
deleg
germans
earthqu
gill
bars
beaten
producing
graduate
occasionally
##iko
3rd
thumb
##iner
deaths
destruction
colorado
immediate
hated
equival
excit
substit
sample
##iki
kan
tack
duties
##lock
##tering
returns
scary
calend
87
damaged
robber
biography
barely
spar
##abel
linda
forbid
unhappy
resem
##teenth
bou
##foot
tract
intense
trunk
mistress
hence
agents
syl
shakespeare
celebrate
##itated
electrical
mig
##burn
decent
refuse
wheat
principles
##reh
prominent
ais
##olf
insane
powder
93
##acher
shouted
citizen
dreadful
worker
##iders
##bourne
dot
shining
1935
vocal
cer
pand
chan
##inder
gamb
finn
89
flour
visible
enthus
mild
##lley
infl
blew
vig
robot
strongly
farmers
##real
screams
ib
nel
serb
harris
gardens
courts
swiss
dwell
portugues
arrival
rolled
92
##´t
ip
panel
distur
grounds
tube
demanded
paraly
facility
participated
cure
beard
lip
recognition
requires
bore
ss
staring
1937
bot
dc
xx
reception
lied
rifle
stu
##ieur
synd
secrets
freder
disag
employees
##col
educated
curt
predict
clothing
indistinct
shed
blowing
printed
##irs
sweat
collected
pine
annie
##erto
steady
hanna
##lie
vacation
81
refuge
gently
##agr
democracy
cable
kaz
exception
considerable
dorothy
shep
feat
##cca
infin
##ener
goin
##onsin
expos
innit
creative
gap
programming
nit
bearing
determine
zoo
##aman
allowing
shops
earliest
alexand
influenced
instructions
##icity
lifetime
toss
woke
songwriter
offices
dall
input
lil
reddy
temporary
vehicles
vib
alle
walt
achieved
gle
##umin
parker
monitor
##shit
extensive
sunsh
quarters
wisc
ontario
covering
cares
##uki
ethnic
jenn
algorithm
gut
advoc
equally
minimum
approved
##iveness
##ographer
dash
perce
sneak
attempted
ling
layer
maryland
portuguese
grows
toronto
chemistry
wisconsin
##oli
joan
miracle
footnote
gum
##keeper
representing
brun
sandy
chapel
##orf
##ggy
annivers
measures
wendy
divine
norway
stopping
sensitive
ri
##hr
introduction
acknow
##owing
##imental
sund
downt
monsieur
##ologists
improved
robinson
google
pud
seized
bert
colin
##anth
beet
chir
clust
mack
tables
abd
lend
longest
tennes
antonio
##ogy
alfred
##acement
indones
considering
existed
structures
visiting
boun
##gon
contemporary
wig
manif
moore
fled
behaviour
excitement
rio
prompt
tennessee
institutions
applications
afghan
grac
colored
troubles
pi
romance
economics
blessed
furniture
hatch
nad
##cill
obey
pent
invite
whoops
chile
##elt
120
approaching
rates
##arts
brew
curve
operate
eagle
mathematics
amendment
feast
ultimately
##point
##elia
amate
##udes
relie
index
##mate
farther
oliv
79
sack
thread
shan
optim
delighted
fid
tact
constructed
remarkable
expans
##inction
sod
chances
slavery
##itate
helic
maur
communes
assumed
##ded
mend
ivan
##eenth
resign
terry
sounded
mode
abuse
maine
entitled
searching
##agne
pays
informed
stub
interv
renamed
breaks
subsequently
veter
cleared
egyptian
anniversary
lemon
abo
disappointed
mant
rou
sult
courses
##aga
hitler
buddh
##amental
alert
crab
limits
##weight
absence
grim
counting
scientist
parad
occurs
vain
vik
##oyd
##lessly
kicked
##mates
chee
69
chand
customer
molec
vit
##lying
exposed
awa
fellows
yield
rebu
writes
nearer
innov
relationships
hank
##otyp
tune
voted
mario
hipp
1929
exhibition
##encer
sharing
##uting
##opter
walker
ambassador
sunshine
kit
stiff
seeking
##icks
crystal
titled
##oly
checking
coinc
tremb
prost
pizza
##cience
coron
mock
pee
1931
emotion
teddy
##equ
carn
resolution
hosted
##hal
##din
stern
vienna
affection
philippines
confirm
##oons
nerve
##gent
seeds
elsewhere
juan
bills
councill
compete
loop
motiv
virus
justin
technique
fierce
chor
marian
ariz
argue
assistance
impressed
baker
##iga
##agu
ukraine
arist
penins
calendar
divers
##bal
grat
##attan
universities
hopes
yum
##tt
rocket
proposal
18th
asshole
nephew
ugh
abb
policies
believes
burns
##yan
##orters
glance
tremend
russell
bald
wayne
resigned
forests
##uv
wiz
spaces
bubble
procedure
tro
##nat
bleeding
raising
250
divorced
islamic
bullshit
transportation
molly
peas
leather
pover
faithful
tales
queer
mistakes
94
mini
##offs
adap
guin
shots
blues
##coming
rude
merchant
christians
briefly
spoon
finance
pierre
04
oops
##kind
bucks
musicians
vector
hurried
taiwan
widow
entering
mounted
colleagues
poverty
archae
dwar
##pers
plates
metro
diana
lyr
##cia
deaf
cole
sniff
discussed
karen
samuel
miserable
prospect
frozen
bachel
cul
anderson
aggress
fundamental
yog
adams
eu
##pected
sul
muscle
##ilst
transition
behalf
employment
attempts
stall
preced
devices
composition
##rum
deliber
renew
opportunities
variable
pencil
washed
perspect
feeding
##ctic
efficient
jumping
ignor
franco
tob
calais
nancy
colonial
gravity
pile
bench
flore
benj
statue
##ogen
finals
bangl
triangle
insist
linked
polar
gilbert
choo
springs
##tic
eighth
borders
fert
knocking
##ailed
businessman
kitty
galaxy
intend
rocky
##ussy
##bors
hamp
concrete
frost
penalty
rah
flies
jet
1950s
1932
ern
destiny
wisdom
repair
160
rainbow
density
##keys
squir
arizona
toad
marvel
extend
belonged
magnific
caval
wes
##away
##vere
abe
05
##mun
distract
cambridge
punk
barbara
equivalent
indo
bind
##asha
aired
clown
install
distinguished
infantry
funds
bak
fetch
lag
##rine
##iration
mol
##udi
supplies
toler
output
grah
tons
documentary
shelter
nearest
dee
carlos
thirst
mothers
ni
rejo
stages
embr
##isible
fern
brains
1928
casual
protein
aboard
cun
##dale
favourite
whistle
containing
##ashi
promotion
withdraw
bored
presum
lightning
satellite
funding
ranked
argentina
##icut
pecul
downtown
sean
warren
genetic
peters
hydrogen
1927
synth
dishes
##arn
skull
bout
##wall
neil
reserv
dict
yan
bru
warned
businesses
comments
ethan
revolutionary
bubbles
explosion
mour
tid
privile
philosoph
clo
##chen
##rat
todd
attrib
sammy
ambul
gorge
dang
recovered
palest
peculiar
mp
##hammad
nelson
gau
##ffff
meets
adventures
##eff
1920
valid
rhythm
umb
instantly
disorder
angels
deriv
dakota
jos
acce
fires
##esth
reh
commissioner
directions
##sky
##rels
nod
##rem
touching
pension
shark
praise
bury
translated
##iami
marshall
toes
##riet
package
frogs
unexpected
##oni
sometime
painter
communications
mechanical
whilst
concerns
laurie
ral
manh
artific
tribes
dallas
linear
evidently
acceler
chlor
lev
parking
wipe
execution
miami
orph
unw
tomato
niger
##iller
##zh
yourselves
quack
babe
delta
ridge
yorkshire
poems
##issa
expansion
faculty
vinc
sauce
claire
houston
dug
hub
##gal
##graph
fantasy
constituency
vital
##fire
##ertain
immigr
attractive
qualified
nazi
##aser
pigs
stretch
janet
beng
fifa
##break
lith
##vor
carpet
corp
navig
06
4th
ease
worthy
intelligent
decades
battles
vessels
highness
rage
ww
##ulating
insects
peninsula
175
resulted
1926
gramm
abstract
naught
##rome
##ridge
##aze
08
1918
partnership
dispos
hitting
##olve
##avia
fict
neighbors
connecticut
1925
patterns
kon
obama
turtle
lon
stealing
safely
delivery
belgium
graham
gender
compass
performances
panting
##like
croat
heroes
##abilities
emer
##ikh
1922
finishing
lud
beef
cuba
airlines
##ication
walks
bib
firing
apples
topic
organisation
multi
prosper
render
##borough
dent
seated
datab
storage
lav
##stream
radiation
despair
##weg
masters
provinces
guarantee
satisfaction
03
##mi
brut
stretched
mul
yam
pod
##illery
##abled
studios
cuts
farewell
imprison
hyper
1917
murderer
##ographic
yout
intr
governments
prefecture
dy
##asia
rarely
lakes
residence
reporter
awk
agricultural
dock
hamilton
dere
founding
novels
rit
harold
surviv
diseases
expanded
tissue
##roit
##ocks
surprising
difficulties
mong
##eastern
sections
grief
rushed
adopt
suggests
weakness
enl
pointing
options
tig
shaking
##olis
##rified
portrait
##eed
thorn
hir
plum
##etti
gifts
harbor
##mat
substant
weekly
##ando
176
dreaming
##ements
deeper
##going
roses
##umbled
traveling
matrix
hamb
exit
selfish
awkward
##bird
##uru
convince
airplane
##oust
spots
rebell
1919
taxi
frederick
apost
##aches
climbed
rack
coward
bacteria
shadows
benjamin
##idency
extract
humanity
candidates
##pal
attracted
jamie
sri
kindly
payment
mast
##ruption
condem
accommod
ming
##ailing
souls
criticism
symph
enterprise
##imore
trash
riv
spencer
behave
hire
lanc
##sm
inaud
1924
seventeen
surve
peaceful
advertising
jere
scan
experiments
muslims
plug
stays
globe
registered
shepher
saints
tires
logic
##regon
seas
proven
##pless
hypoth
belly
microphone
contrary
purchase
##eters
traged
loaded
manifest
troph
##uine
##erb
christianity
butterfly
lf
zh
##lli
##verse
feathers
vegas
relatives
techniques
buffalo
harbour
ballet
autumn
nasty
fib
sits
vary
wagon
unem
##quet
crook
consideration
##onne
hug
terribly
portray
solemn
prey
##avo
radical
viv
yang
##10
mim
##icate
barr
practically
dwarf
wives
##hem
exceed
consequences
infer
daisy
emotions
##ortion
parks
describes
rejected
##iti
activist
obser
purchased
holland
##uz
excess
1000
warrior
bachelor
couch
tyr
bloss
presc
glen
charm
descent
##ao
shaw
nov
foster
ji
##vet
##gged
avo
##iii
precisely
outta
oregon
pyr
goat
##ante
##ression
extension
lyrics
orbit
winners
floating
caps
organic
reun
shah
unbel
trapped
concerning
daw
vas
##organ
bark
tested
successfully
sultan
pam
##just
regularly
nobel
historian
##lings
scarcely
rav
nowad
hob
morris
alphabet
moth
personnel
tricks
possessed
amateur
puzzle
sustain
og
volley
judges
cherry
helpful
sticks
promote
devoted
1923
cottage
aspects
##eze
define
drives
##atus
##ados
confront
mickey
nowadays
sailed
drank
warrant
beds
violet
socialist
gust
chel
garbage
##ju
measured
clare
resort
policeman
psychology
landscape
ned
thrust
bio
##aug
denied
welsh
##iry
chairs
allah
peek
accent
jerusal
##mal
kills
translation
travelling
armen
provision
yelling
celebrated
dw
wool
jerusalem
shares
legislative
raven
hunger
laboratory
perspective
dh
serial
cheek
divisions
broadcasting
ratt
clients
painful
clinton
ng
dischar
burden
occupation
monument
axis
intellectual
rs
##mingham
colours
portugal
unemploy
trading
kittie
accompanied
pione
sig
vamp
stink
creep
ensure
uncomfort
##rot
##onde
lords
clan
geoff
blanket
sophie
cage
##yers
deny
demands
gosp
grain
martha
yup
enjoying
oscar
gw
goose
sank
blows
concluded
alaska
detroit
ladder
executed
cameras
brigade
cents
vegetables
700
compare
jonathan
##bul
suggestion
rubber
earthquake
procl
09
lis
nun
disturb
jackie
jell
vin
orle
quad
troll
##itty
engagement
dil
##oven
feather
artillery
designs
malays
ov
mush
approached
substance
earnest
lun
liar
##gel
##auc
##odox
##ogne
##idays
ministers
impressive
voting
revenue
07
conscience
associate
savage
tamil
begged
##soft
resulting
1921
fighter
adjust
##izz
cookies
panic
audio
sympathy
seb
curios
patience
industries
##bly
establishment
featuring
##rin
commonwe
neutral
gee
situations
migr
##orph
craig
occasions
ambulance
cows
hee
##iane
fruits
dough
blown
02
smallest
commonwealth
vl
##omi
cosm
processes
orleans
cleve
dvd
injuries
concentration
scheduled
tremendous
##bro
##with
peoples
louise
charts
accurate
fet
##word
argued
norweg
stead
hindu
cared
debuted
welf
cray
presentation
ceased
arrangement
flex
jill
##oning
ralph
rotten
breed
confusion
statist
##cano
overse
birmingham
dropping
doggie
##apse
scout
derived
beans
external
scor
forehead
bells
##iciency
abra
1914
##uela
witnesses
bulgar
stuart
cyn
genuine
##eing
##fit
eyed
explo
frust
suitable
granny
milit
refere
obsess
karl
veloc
milan
sleepy
denmark
motherf
curse
dialect
aaron
##cs
arena
amen
drops
tide
##ican
verse
##ws
stake
welfare
hail
##ourse
publication
duch
jerk
climbing
5th
inject
1900
infection
eternal
pace
comprom
snap
camps
maintained
manhattan
mason
##utt
spa
wax
##ribed
leonard
pav
uef
##alia
dragged
##xual
designer
wik
##sea
##olo
compreh
suspected
##iary
##rell
steep
cleveland
outstanding
violin
escort
versus
##rating
burnt
adapted
chi
alleg
particles
junction
noon
elector
decade
animation
amounts
aj
bicy
generations
circus
links
microsoft
preparation
jolly
martial
meantime
##uman
disco
packed
backwards
finland
salary
tae
differently
ruler
cigarette
quebec
jewel
cultiv
channels
cort
participate
harvest
##bling
dining
monte
barrel
diver
lions
lrb
##iop
chips
pitts
rrb
##nce
theories
muscles
delicate
joking
mustn
##ifications
##rous
classification
references
cheeks
lawn
##roid
peasant
wounds
ultimate
dus
junk
restored
smells
publishing
##gant
##omot
swept
artistic
harsh
respectively
lists
prophet
locations
jesse
fount
uncertain
exh
coin
utah
ott
provincial
invisible
companions
construct
artificial
bleep
persian
##ovic
insisted
##anted
fitz
networks
invitation
dinosaur
anxiety
cyl
anchor
tenth
##ku
barg
17th
luther
##mit
cargo
baltimore
roo
##agen
monaster
madrid
insc
pressed
wrapped
magnificent
kath
discipline
allies
##shot
battal
ninth
##life
scoring
melbourne
dated
sovere
domain
gathering
uefa
##ainted
joey
submar
increases
berg
subur
arabic
pillow
mercury
##ranean
rape
rays
##lng
##emen
michel
mistaken
ignore
pp
clue
lads
commanded
liv
notion
overt
##quis
consent
##aza
##whel
boundary
incorporated
colomb
profile
electro
afghanistan
rebe
goss
##agg
assure
foods
norwegian
##dles
appet
##ixon
brooklyn
asc
remar
bangladesh
amuse
twins
freeze
guardian
converted
abraham
needle
##ovak
cyp
##aware
lowest
helicopter
harmon
16th
characteristics
nerves
##hand
##oen
##oys
volt
directors
hawaii
##bish
stem
quote
##ilda
ellen
liverpool
stared
monk
effectively
continuing
trusted
lank
une
striking
exerc
##50
planets
youtube
kur
##oa
##imal
fucked
marketing
fictional
surn
##gage
nig
shorter
cartoon
easter
fraud
slope
evac
chattering
ohh
muff
lid
##uan
preparing
misunder
wright
sore
rounds
obliged
jaw
butler
displ
basil
diego
auto
pearl
disgusting
fits
compens
gra
routes
magnetic
paralymp
hampshire
markets
controls
periods
motorcy
atlanta
fathers
prick
balloon
routine
sympath
heath
##aude
raymond
cinema
mice
♪♪
psychiat
chrom
harvard
unbeliev
##eto
##iang
booth
happily
anticip
therapy
##xide
alike
overwhel
bottles
isa
sprang
florence
ware
recorder
##enez
##dded
##isk
socks
membership
bullets
lick
rect
signals
chancell
photographs
uncomfortable
##jack
##enson
singh
representation
banana
reverse
dignity
##aire
##orth
scattered
estimate
montreal
puppy
hint
ic
classified
entrep
gabri
fen
abol
##rene
legit
approval
covid
arnold
maps
recip
orthodox
vincent
donkey
leap
edges
dart
speakers
bever
ank
magazines
communicate
eldest
corporate
##gra
##rik
mining
##grad
##bourg
automatic
rats
##phy
geomet
villa
km²
curiosity
bail
##zi
worm
##ums
##ichi
preserved
##eve
revel
shine
##ieval
manus
purse
consisted
cries
##child
subsc
medieval
volcano
inaudible
pills
yug
##itis
##estyle
##ours
basin
explains
##ishment
addressed
hannah
##zed
reader
dressing
inspiration
resource
kun
assert
heavens
moss
assured
orient
groaning
mechanism
israeli
##mund
mt
pony
edin
authors
physician
traveled
fatal
##aco
##usions
biology
immense
voyage
dared
tragedy
hungary
threatening
jefferson
fm
dolly
amanda
##inda
twil
moreover
carries
harvey
sheets
##aho
farming
murray
territories
pon
admin
survival
thompson
ist
##feld
civilization
##vo
stack
presidency
forming
generous
bisc
drivers
choices
observation
i´
highlight
triple
deadly
campbell
nursing
percentage
##nik
heb
infinite
sailing
broadway
codes
##rations
heh
lloyd
slipp
offensive
blade
indicate
bonds
nintend
##unction
collaps
volleyball
prix
valent
recovery
proportion
closet
##sed
desired
##ocr
continu
infr
involves
remarked
thoroughly
##nell
suits
pla
lovers
waist
##ologies
catching
productions
feared
##aux
owns
candle
assignment
pause
##tin
angela
wwe
##fare
ranch
announcer
situated
##ui
sober
nodded
woody
nay
oven
overcome
collar
negle
griff
councillor
tis
##issions
mines
continuous
kum
##acent
disgr
statements
raid
absurd
constitutional
aster
##issance
produces
practices
reveal
twilight
##aping
brah
laying
nintendo
nfl
ukrain
marcus
phenomen
##mare
doin
seattle
ups
prel
##oked
rangers
dale
vine
##alt
circles
encouraged
##irm
fears
auton
romania
oath
alter
quid
holidays
alpes
franchise
vest
flame
drums
scholars
perpet
fluid
lac
1912
shocked
puff
##mel
##ista
classroom
troubled
cooked
ml
pairs
##ifies
bing
mit
##eem
bugs
footst
##lord
haun
weary
harrison
rubbish
heights
##onna
followers
legislation
##inkle
felix
impat
conspir
defensive
requirements
fossil
cavalry
hend
##oped
##pled
rider
femin
shepherd
engineers
colum
maggie
sentenced
departure
subtit
suspicious
shapes
processing
filling
alleged
mediter
prayers
bernard
meter
vacc
indicated
interpre
brass
pean
lazy
turner
champagne
arguments
kyle
##isha
rober
specim
ceiling
cardinal
paradise
chasing
saudi
sunset
observe
pall
pretending
dancer
dreamed
strangers
helpless
summit
##enz
##bean
chron
napole
robbery
dorm
##vas
pepper
fewer
molecules
pige
rating
cancell
planes
warriors
##nia
chant
nee
array
eats
sends
conservation
coordin
swallow
##opl
##uda
greed
politicians
tat
ceo
ratio
porn
indigen
locomot
kirk
##imony
grin
cups
conductor
bloom
diagnosed
##aks
marble
unfortunate
pronounced
edinburgh
##jud
toe
loads
peep
sunny
normand
nomination
chill
carib
inaug
kindness
athlete
nicholas
gorgeous
##rain
##eel
trag
hungarian
horns
velocity
vague
recy
medals
beeping
##urre
lex
crane
##cese
tib
tops
protecting
panc
database
surname
##elling
elementary
travelled
##osaurs
stalk
enforce
colleges
multiply
beliefs
wret
##hel
romans
trend
vanished
wolves
##inter
perry
frankly
indigenous
sard
##ader
##osing
parade
strategic
unbelievable
manuscript
prohib
wander
wasted
objective
declar
puerto
conj
cafe
imagined
##arus
biological
##town
identical
grove
croc
grammy
dess
##ikes
midst
destro
##ographical
cultures
examination
guitarist
nail
pm
##ayan
##eae
mediterranean
rational
##tical
nev
##gging
automob
ln
trim
##rows
convicted
wealthy
jennifer
instruction
danced
cannon
acquaint
copyright
sebast
tart
toxic
ornam
humor
1916
torture
cater
tens
##otto
popularity
psychological
trucks
eug
enh
terminal
permit
mitchell
##ilation
blake
recre
##eda
stair
quantum
jessica
theod
ink
##illes
signature
losses
gloves
trophy
marty
##inging
alar
moz
criter
##di
170
comedian
patron
##ships
owl
mainten
##aima
judy
visitor
screwed
clerk
guinea
##lines
##11
comics
15th
reconst
subsequent
stewart
##pm
##ulu
pref
counts
certific
tire
contribution
arrangements
electrons
##gb
realise
##nett
decides
behold
1910
1915
propose
ruling
kilometers
##rov
alloc
obsc
transp
pilgr
mammals
##cut
abund
choir
fashioned
dried
pere
##eton
worksh
austin
cind
mold
scales
johann
costume
immort
accomplished
suz
blessing
vulner
##jab
installed
sexy
employee
leslie
legislature
spray
phoen
dependent
naughty
wu
##rical
nomi
exhausted
genes
doug
buttons
belgian
cancel
coins
surgeon
beam
##rig
guer
creates
ki
homework
danish
planted
kab
##acht
##izer
nicely
##eday
##oro
##esy
diff
warner
reaches
cameron
atoms
plains
raf
scandal
maintenance
gem
resolved
parliamentary
##rog
abc
pend
##inth
##acco
regulations
venture
gospel
##hill
coy
vend
contents
polo
posted
coastal
struggling
chancellor
til
minded
hath
stef
relevant
tempor
improvement
##walk
##etics
disgu
##ugu
potter
diag
julian
scores
whispering
ronald
sylvia
pork
thie
hopeless
interrupted
kel
zo
##orton
senses
gren
whip
ferry
caroline
diameter
bombs
sof
##iao
costa
inev
collapse
societ
ancestors
dolph
bows
##erm
##orse
allied
compr
consol
util
meadow
wizard
rebecca
visits
closes
potatoes
kos
rash
phones
pockets
preferred
convenient
pyram
##rah
keith
slam
frequent
jeremy
pittsburgh
6th
ramp
##ti
donna
components
mete
assets
basement
detailed
volunteer
pont
##icia
pirates
pse
##aj
priests
successor
ferr
subsid
gul
##kee
evolved
continent
instrumental
ports
michelle
athens
ginger
maker
vow
##tar
stun
sull
exclud
tatt
nas
ster
prest
terrific
attacking
ducks
athletic
statistical
ukrainian
tut
trials
giants
110
hospitals
punished
bridges
endea
connections
pussy
timber
lawyers
extinct
explore
sequel
betrayed
##uke
abbey
prol
newton
superst
archb
azerb
fitted
##haw
scree
appearing
administer
##nut
finest
someday
symphony
##essa
pruss
blog
formally
departments
##nn
roast
centers
##atra
server
pleas
sketch
suspended
kle
ober
wage
wider
columns
chains
continental
crops
criminals
quantity
transmission
7th
##enburg
wrap
101
diary
contributed
archbishop
azerbai
900
arsen
discrim
mixture
mathematical
inh
##ifully
insert
secured
##state
solitary
natal
venice
manufacturing
rehears
##amas
slim
export
delhi
orb
##udge
lungs
sib
##uy
##kers
##eries
flames
idaho
mills
corners
holmes
juris
amid
naima
palmer
digging
crowded
pupils
tobacco
component
filed
concentrate
##wright
bees
spit
twent
nightmare
heels
anat
subd
13th
characteristic
##ulus
marilla
preserve
solutions
commerce
sap
##inson
whore
manners
174
penet
ranks
gyp
##erie
##illo
likewise
answering
sanct
massac
sic
syndrome
hare
segment
volunt
affili
isolated
vs
crush
lighter
resting
kissing
bil
shade
southwestern
indonesia
sne
regime
distinction
closest
sailor
grammar
deals
jokes
##shi
murders
opinions
upside
devon
stored
fork
pharm
signing
confederate
unity
experts
confession
wears
doctrine
telesc
cs
crashed
lighting
12th
1930s
achievement
ard
counted
travels
celebration
lance
monsters
publ
ashes
bucket
chester
opponent
switched
tram
clut
tastes
katie
venez
dealt
##obi
traditions
tanks
lectures
pseud
nim
##nan
##iere
sulf
moses
##ulum
drill
hull
swamp
##ayer
underw
honored
##incere
symbols
sobbing
##piece
wasting
boil
elabor
##neum
madison
saddle
yugosl
cri
notting
outr
apoll
drain
hurting
##onymous
aun
arose
bach
hound
jee
evans
##ieth
oblast
kw
bew
nebr
daylight
luis
footsteps
##bus
outdo
decline
conquer
glorious
anyhow
backs
muhammad
operator
forbidden
gown
##eta
blah
runner
snakes
olive
organs
##agraph
##dog
remem
ahh
cleaned
bravo
temperatures
bothered
praised
diamonds
bats
eun
nash
mankind
charter
barking
christine
cheaper
gigg
dismissed
hates
##12
bean
##ourt
ench
tourist
1913
interpretation
lump
beats
##rogen
competitive
nebraska
gand
kap
##py
passport
wilder
boundaries
beep
##acon
profound
owen
pirate
pose
wages
messenger
urgent
delightful
cheerful
challenges
eb
##akers
quot
salad
democrat
1911
pulse
vag
emil
orphan
tha
heal
##achi
reporting
camel
controversial
##attering
pengu
discre
telegraph
venus
comparison
##iate
leis
maxim
terrorist
complications
##eon
heck
idol
coloured
progressive
odds
fabric
pian
ties
##beat
paras
skip
involving
sticking
##donald
announcement
exposure
cunning
##hs
mainland
shirley
wandering
tails
##oqu
##otion
organisms
reagan
hallow
physically
stove
burg
sharply
recognised
##colm
130
nickname
cogn
promises
sweep
solved
malcolm
pitched
heir
##rily
unre
suburb
paused
referring
monastery
declaration
reed
recept
moist
paragraph
farms
corrid
freely
belle
belonging
categories
commitment
managing
percy
10th
destination
investigate
permitted
##inking
gasping
jacques
##anne
commons
suggesting
nickel
requested
tad
flip
carrier
expense
qualities
meadows
bicycle
##giving
sock
strain
consequence
jelly
##isen
believing
fights
pitcher
vick
##inery
##ontin
replacement
complain
concerts
vertical
##omous
amster
flung
monthly
crept
stere
manual
persist
164
shells
initiative
hebrew
##station
##aneous
recordings
sincere
amph
eva
ghosts
##dad
##cester
explor
bailey
restaurants
oo
##rist
shone
towers
joyce
pursue
bamb
pneum
grandson
chuckling
batteries
carpent
ranking
minority
reflected
comrade
derivative
caribbean
bry
##avan
philosopher
squeeze
##pur
readers
assuming
styles
ai
##vy
##sels
primitive
rises
##gregation
inherit
mushroom
ost
ply
trous
trav
21st
propag
punjab
olivia
nottingham
##sing
abdu
altitude
curtis
amsterdam
tension
meals
14th
kenny
gim
##omon
humble
defending
brack
claud
intro
lucas
chorus
##itudes
##icial
repro
glac
pastor
researchers
sadly
##chair
testament
hawk
consisting
volunteers
embarrassing
hod
collins
buddha
fountain
##umps
##aku
##mmet
colonies
drummer
hudson
disturbed
stitch
leaning
modest
contributions
ceremon
bacon
ownership
beetle
voltage
roberts
solic
loire
curren
supports
regardless
##itarian
iranian
horizont
breeze
trembling
##hn
recess
firmly
priority
elevator
lodge
overseas
scope
chemicals
tore
##uto
confer
sidney
residential
##cop
##30
secretly
darwin
tyler
consistent
horizon
prostit
dre
maz
surviving
##guard
sessions
compounds
strictly
gerald
demol
loyalty
acknowled
ernest
rebellion
yi
##jin
delet
consec
ft
mow
buses
clears
derby
rhin
malaysia
bunk
##uration
##estone
##augh
monkeys
samples
homer
incredibly
peasants
partial
##ensed
corruption
civilian
##olds
custody
customs
virtue
##isons
mansion
##kar
boards
barcel
hardware
snatch
similarly
separation
nothin
lever
fog
##orship
swan
significance
hats
kend
outcome
democrats
lust
leop
chambers
derek
leisure
##gun
##oes
agencies
##iper
intu
##aneously
towel
texts
squadron
##rates
##hard
##itating
##osexual
producers
##rett
165
automatically
dense
nba
xi
impul
polite
##rella
##rium
mortal
crop
sins
##iri
trigger
arriving
##laus
printing
battalion
crocod
koh
nepal
##ppers
encl
homeless
learnt
sunlight
140
natives
1908
sensible
lesb
##ules
##cio
boxing
##ructure
thirsty
hedge
##non
##anas
revers
168
coverage
nil
##rup
##ensional
syria
retail
ingred
sebastian
##igo
logical
pissed
diction
wallace
mutual
depressed
recommended
relieved
##rons
##neys
patrol
riot
unto
disagre
##rill
##amation
morph
magnet
cooperation
precip
sings
sao
leeds
peru
handling
writings
aggressive
##usen
rogers
smack
folded
responded
napoleon
ion
shelf
facebook
arrives
collecting
suspicion
prosecutor
publisher
mare
yer
##enos
deploy
damned
montana
abandon
borrowed
clinic
sodium
auntie
##ylan
athletes
controversy
wells
clara
competing
definite
savings
embarrassed
ego
seld
backed
guilt
transact
hearted
ruins
##loe
complaint
va
marion
perf
worlds
glanced
transit
pathetic
ruby
dame
##eno
##assy
supporters
ethiop
##cht
exclusive
##inus
##anor
doorway
freud
reduction
##vell
##igible
milton
protests
sham
##achment
disk
email
munich
competitions
begging
motorcycle
jup
guild
jama
##uated
##ieu
burial
rolls
##world
barcelona
convert
##brid
distinguish
tigers
riley
sized
aloud
intim
absent
nathaniel
guessed
banned
wond
squeak
hughes
neckl
proceeded
spinning
mau
brows
purely
chirping
aids
gn
tramp
sak
magician
experimental
strongest
epic
drowned
deed
##ashes
nevada
soo
166
bankrupt
spreading
emerged
reminds
##power
furious
sculpture
bung
jas
poke
distress
harmony
paralympics
cp
##aved
gob
twisted
##angel
vlad
gossip
dylan
pc
##fr
locality
trevor
essay
mick
##yon
##ouver
##aba
upgr
eru
acres
melt
dublin
damp
suite
##olph
1905
reactions
elderly
oy
crus
schm
calv
flee
variables
tornado
jae
##ido
strand
##eva
athletics
unfair
neighbours
fortunately
yah
##ml
hav
slap
##atsu
misery
flowing
tink
whirl
legacy
angles
verd
commissioned
franz
mythology
examined
scrub
settlements
chaos
consecutive
8th
cbs
attending
influential
tribut
coalition
apprent
namely
##ierra
##oosing
sis
tran
sanders
##after
sailors
nursery
absorbed
spotted
beta
irrit
criticized
meteor
bushes
atomic
guidance
remarks
lest
bloke
masses
strikes
fortress
dispute
stubborn
##igration
crust
armies
graduating
bastards
protestant
consumer
##gom
remo
##owski
eliminated
indign
regist
iceland
arguing
societies
flut
increasingly
##mble
##etta
volumes
sharks
##ascal
nails
rous
##cal
monica
singular
##boat
treating
##oshi
substantial
##omin
alger
##anging
contempt
shaft
reminded
luxury
tus
helmet
accum
magical
arabia
selena
leban
grid
grind
examine
##tles
thail
alge
laund
##fle
searched
declare
pedro
cigarettes
##mus
outfit
flick
simpson
172
traded
objection
immun
consumption
gm
mature
11th
filming
##borne
substitute
clif
resurre
dominant
thailand
contracts
kicking
kidnapped
rex
rely
aur
##umed
topics
robbed
worrying
credits
pollution
tul
maya
conviction
vermont
wan
operates
aviation
hosts
digit
kenn
swords
streams
correctly
illustrated
spoil
tapes
##oub
nob
baptist
coincidence
ditch
trench
##eys
##asi
herr
##cock
departed
dresses
argentine
shri
##eston
hier
lightly
maurice
umbrella
##him
memo
spear
hass
indif
cheating
wallet
sect
chad
regards
##iba
shallow
conversations
ein
##tor
##anges
creator
##oval
incom
airline
reads
richmond
adjacent
submarine
conspiracy
ud
##nde
clip
felicity
flights
gesture
vampire
lingu
mck
vanc
flats
invention
cheat
testimony
raining
delayed
timing
##cling
households
tasks
ner
noah
restore
##ovich
layers
rodri
axe
poured
canon
##oda
melody
1909
phoenix
pistol
shiver
##oping
radar
cowboy
anthrop
neighbourhood
eg
lent
##woman
##berries
populations
equations
phenomenon
dessert
alas
publicly
villain
garcia
queensland
electoral
troy
seg
##ags
##ibi
awfully
panama
sighed
coco
barrier
cecil
tragic
sall
tuck
gover
gonz
159
starving
psycho
##flies
##imir
alm
quart
thanksgiving
questioned
duncan
attraction
subtitles
wha
##urers
capit
edwards
dimensional
##eet
1907
greeks
porch
cakes
##jar
isab
britt
##owned
makeup
##phones
stein
filmed
efficiency
forgetting
religions
##otype
seldom
##eland
openly
##uccess
prints
gymn
##natural
hig
metaph
bargain
font
unne
##velope
respected
scholarship
niece
##fin
twitter
convict
physi
##oir
menu
generated
jupiter
vancouver
possibilities
motherfucker
disgrace
rows
##inian
beau
handled
modified
photographer
presumably
happier
moonlight
bonus
chimney
sut
shipping
##aby
enters
##maid
motive
knights
beasts
megan
poster
powered
bagh
unsuccess
mosque
ottoman
gad
##fu
envelope
##ivan
irre
trauma
tribute
seoul
spill
graz
keyboard
blocked
hamlet
somers
fascinating
convey
dinosaurs
##hole
hatred
columbus
pipes
raz
sv
herb
advised
satan
krist
measuring
nazis
impatient
jurisd
##riger
rox
appe
sonny
##rington
advertis
shim
##ouses
disability
particle
madness
1906
elephants
assessment
reass
##antine
##reneur
simult
historians
festiv
reflection
displayed
wagner
inherited
shiva
##adi
##chem
coke
##oded
murphy
threats
gratitude
cancelled
tet
##hall
##stad
wireless
aisne
##active
polly
breeding
halfway
replacing
cluster
##gow
##riers
marit
advise
organised
settlers
torped
dialogue
pumpkin
accomplish
petersburg
certificate
jor
##usa
dealer
failing
collections
3d
horm
rushing
worries
handker
digest
severely
groom
hitch
icon
reich
##iels
expenses
floors
dioxide
squirrel
##inia
##orig
node
outs
##ipher
blaz
reluct
bros
corrupt
drawer
gast
nbc
##uro
chen
voiced
trent
transformation
collaboration
siege
handkerchief
pist
troop
departement
fastest
premiered
alley
tracy
refriger
motors
gym
##onn
tourism
coffin
entrepreneur
strat
genre
bases
blend
feud
##amese
constr
necessity
lynn
encounter
overlook
ace
toll
una
unst
mamma
bened
wides
##not
hein
clam
congressional
exter
intent
temples
##anche
chickens
mechanics
satisfy
unnecess
joel
blacky
historically
rebels
assumption
mathematic
fiance
##mph
altar
concepts
diocese
inex
uss
sorted
cease
discussing
deposit
devast
dominated
##smith
dual
##zburg
backup
indul
rena
ashore
dive
diane
exagger
carved
privacy
approaches
gregory
immigrants
fuss
sly
##was
##arity
borne
##ibilities
leaned
enthusi
algebra
hears
##chio
sealed
##velt
summers
racial
vacu
aimed
gabriel
rally
##imo
##unks
blair
prett
167
honorary
muttered
cope
dys
unple
##cker
roar
landlord
restr
sharon
fortunate
deliberately
##irts
volcan
risks
awareness
##dled
heap
choosing
hotels
grip
pursuit
isle
eagerly
tok
shak
##iasm
glow
posts
claiming
boeing
1800
evan
humili
camb
machinery
peaked
diesel
hed
##ople
dont
##lington
agenda
gaze
inquired
perceived
gav
##sole
louder
drafted
tourists
1902
contrad
sierra
##40
##ribe
publications
traditionally
virtual
interfere
ced
foul
fraser
seth
humming
fools
comrades
##sis
stal
notably
laz
retain
harass
105
soundtr
describing
phillips
vulnerable
currency
oi
hunters
dimension
update
infrast
trousers
fug
pots
##eous
##fth
enqu
freight
ashley
habitat
procedures
utterly
roose
##pack
abbre
themes
overhead
colleague
kett
##fs
logan
##icester
connor
indicates
loudly
marshal
9th
##fight
##riages
aborig
admire
##arse
##section
frankie
compassion
##gomery
ascend
brus
organize
vocals
azerbaijan
apollo
sucks
peer
idi
miranda
montgomery
conquered
lantern
##iors
##oria
bog
marath
##ylum
significantly
infected
bash
jing
rated
##anium
exile
firms
anglo
senor
sticky
batman
lame
remembering
checks
praying
deserted
virtually
nigeria
etern
wald
stating
graves
marrying
skiing
ritual
fist
sizes
##umi
subtle
##minster
mumb
##rod
##olia
casey
loser
1901
accidentally
shirts
##vent
##atively
petition
loses
paths
watt
retained
173
tickle
transformed
supplied
finnish
rico
partially
armor
physic
##iji
bundle
negotiations
resignation
healing
habits
##osity
crushed
earning
warfare
curly
dances
traitor
##oking
technologies
influences
##holm
cly
##ustomed
prejud
merit
##market
##16
##isition
decay
skirt
vii
boarding
involvement
sway
##19
whites
declined
voters
fow
abu
perception
illusion
madonna
1903
sophia
pneumonia
necklace
rup
wires
abilities
footage
bengal
##aca
sey
lighted
freezing
radi
bennett
ltd
recognise
brandon
destroying
criteria
bred
fres
vault
##oric
succession
garrison
tendency
interviews
thieves
lace
sheer
bristol
oxid
freddie
coughing
collapsed
kg
stella
plague
adela
schw
specialist
drawings
##ascar
roosevelt
##etto
sperm
enlight
##ei
wrist
lined
hercules
##pert
intercept
pressing
sensation
composers
targets
enthusiasm
bade
porter
rhe
##oodle
coc
glas
1904
submit
proteins
renaissance
tutor
##emor
scal
caut
width
annoying
endeav
theta
##sson
equality
sovereign
pint
nova
##aboo
russians
roller
mischief
melod
##esco
heating
kidney
puppet
lanka
pence
##pot
boast
prede
meth
lively
diabet
cush
dove
moor
factories
filip
honours
picard
##imb
soda
pradesh
obed
##ppe
placing
enable
beautifully
marched
proposals
wang
thres
##ampton
terrified
missile
countryside
fighters
mik
##zel
##omo
abby
outbreak
##asses
harper
germ
cousins
hypothesis
tips
arctic
blu
elbow
##castle
orchard
iike
barber
102
125
locks
whistling
##stan
deserves
##ugs
sentences
subdiv
corridor
saus
flock
corpse
laundry
awhile
lur
##lain
##pread
beij
sofa
moh
##fty
stam
disl
relate
reliable
defect
mortgage
##fo
##xed
##atics
chord
ampl
willie
delaware
liquor
curtains
tomatoes
##dia
162
bonnie
spelling
passionate
fairies
viewed
careless
sitcom
narrative
persuade
isaac
acquaintance
##mers
reyn
sting
miner
syrian
growling
viewers
aspir
pars
clearing
frontier
presidents
realised
summary
grades
widespread
##sted
chloe
theirs
idle
##aha
transc
railways
qualification
aliens
picnic
salvation
steadily
appetite
aa
ruff
##uh
chow
blur
chronic
##oba
princes
plainly
inquiry
greetings
inclined
automobile
hugo
collective
##tail
##arians
##roe
ammun
specially
thankful
##ovsky
variation
zoe
##wig
peel
abrupt
##iph
storms
##fam
##usively
mull
##iov
circular
attempting
dynamic
noel
unions
carb
profits
technically
couples
##rh
resent
missions
lesser
patty
bowed
celebrity
ivy
haste
disappointment
andrea
##lia
shrew
##oline
smugg
desires
legally
civilians
complaints
colombia
dictionary
unpleasant
nasa
yale
zur
##pin
##gins
singers
apology
tracking
funded
feedback
gloria
molecule
theft
alumin
handy
incon
observations
##ications
traces
anytime
accidents
prevented
candles
connecting
clarke
depths
sau
##irect
supplement
edited
equipped
##oka
paulo
medication
descended
astronaut
hush
##oi
whales
reserved
smash
##ials
reverend
compromise
ig
##anim
##stration
console
grasp
receip
superintend
cantons
watson
marianne
massacre
wink
waking
##bound
##opa
lois
perse
trips
infrastructure
ti
##rice
##ationally
manuel
broo
intimate
emmy
amazon
remainder
websites
corresponding
calvados
gus
##pat
loren
crunch
pretended
ammunition
##say
disabled
155
bulk
hastily
errors
kas
waving
phosph
humid
fixing
dimensions
stefan
inver
ants
sah
mann
##ishi
halt
astronom
swiftly
molecular
beijing
kash
wilt
##aired
stare
discl
163
fella
lobby
##folk
##yt
stout
shud
dos
goth
affects
ore
##aceae
willow
overnight
commod
handful
float
submitted
cair
katherine
##far
deeds
generate
origins
portland
determination
struggled
nurses
##oux
cox
marx
hobb
demonstration
heather
overd
reserves
approve
paddy
intervention
cum
kor
pix
chal
herald
gras
symmet
accordingly
manor
buenos
crist
insight
rebel
essex
binary
ew
##eves
##illance
adequ
equil
victorian
randy
diabetes
##lem
patent
rosa
##riptions
calculate
gambling
pudding
privilege
##thr
hispan
arbit
clap
claude
kisses
occasional
miguel
gracious
##dp
##vol
##ingham
##illion
herbert
append
startled
shovel
gunshot
antib
cereal
defendant
horizontal
##lev
davy
platforms
ee
##liga
sciss
keeper
whispers
calculated
kenneth
wiped
ana
depri
##cycl
edwin
158
photography
admiration
becky
surveillance
autonomous
fitting
##uj
dearest
helm
controlling
unlikely
adaptation
gel
nana
roth
chased
elite
restless
embassy
otto
gazed
##dling
altered
swung
edith
henri
bolt
jessie
alec
diagram
wilderness
dah
fry
comin
marco
sworn
169
camping
viii
sacrific
laser
woof
##´re
longing
subway
rapper
slender
limbs
conception
teenage
fertil
ish
marvell
ribbon
bounce
condemned
rita
weed
##oland
##auer
156
explaining
opponents
pilots
geoffrey
##gio
##zan
comte
herd
uncon
righteous
hash
persec
pops
oriental
discount
##loaded
pierce
chelsea
tol
protocol
participants
fossils
aus
fay
xv
##care
monop
##ahu
moderate
predecess
aii
hoff
forgiveness
turb
romanian
tends
advantages
vacuum
sage
safer
wholly
playstation
councils
swinging
wandered
murmured
lens
##mons
##15
liby
flank
mineral
##mania
##ello
microsc
bundes
cloak
plymouth
rook
vivid
##wyn
##amo
asp
cran
superman
cellar
responsibilities
zen
##rise
##fc
reef
don´t
scre
recoll
credited
participation
embrace
aub
restoration
##boys
reducing
pyren
withdrew
marginal
tibet
wretched
kem
wals
##orable
appar
boris
telescope
enzy
##ahn
##heimer
zomb
##rition
haul
knot
grape
clicks
##aid
claws
midfield
shrine
tense
##eer
##urst
libert
skunk
watches
sickness
renov
twelfth
dumped
cauc
bluff
compliment
crucial
integrated
fragments
bae
spart
magnitude
francois
impulse
bess
loos
rides
perkins
resid
rested
esther
denver
cylinder
rim
##ghai
dew
euro
melissa
immigration
ecu
claus
pyrenees
##ups
varied
ranges
##anthrop
voluntary
arise
releases
shuttle
pilgrim
dud
lub
wen
defended
pawn
messed
hybrid
reinforce
##hat
beaver
recl
##imeter
compact
interface
emphasis
isabel
##apor
regulation
organism
##prints
combine
investigating
variations
theorem
tones
vid
pluck
afterward
interc
deserved
curric
locally
freddy
pregnancy
buzzing
preparations
loo
sphere
peck
headache
1920s
##archy
verb
##hyd
jewels
torch
350
sustained
sans
countess
wildlife
1861
contribute
nixon
sine
tir
spur
hoot
hunted
talented
scarlet
proposition
sponsored
enforcement
aires
penis
liberation
buddhist
dome
##13
reorgan
leicester
spectrum
##enders
accustomed
1896
decorated
cob
##soever
106
originated
screenwriter
maple
descendants
serbian
threshold
guts
##will
poets
wishing
hostile
interaction
clause
prair
config
arrows
rut
vand
##sts
sahib
belarus
stepping
cripp
veil
leagues
alternate
cruise
yummy
scold
carson
##erton
sweets
temp
defeating
ignorance
peekaboo
##helm
gur
##storm
anonymous
##abouts
usage
152
receives
chiefs
circulation
conventional
arrondissements
clinical
innovation
soundtrack
equilib
aux
lope
##gam
martyr
download
poles
sloven
provisions
duo
owing
rebuilt
##14
scoffs
musk
accus
##spring
yeh
revolt
joo
yas
plac
1899
ambition
stevens
diplomatic
palestine
wi
##mail
tray
edmund
swell
apt
heel
seals
noisy
upright
boiling
overs
regul
lightfoot
juliet
assisted
venge
siren
lass
##itus
scent
harp
demons
lifestyle
advisor
elaborate
roc
depict
antar
santi
rene
##onian
##unci
certified
architectural
delegates
ripped
marching
casting
##gil
##iffe
flint
raped
crawford
halloween
realm
##insky
crosses
trailer
ignorant
mered
backpack
adri
leak
discour
specialized
expectations
pursued
legitimate
radius
ignored
predators
pyramid
##esa
shab
abortion
##cium
endless
punct
lesbian
cia
##isp
##ema
reloc
ouch
dimin
wrestler
conquest
skeleton
glasgow
whim
prud
##ubs
elin
editing
nicknamed
ds
##cery
northwestern
filthy
releg
correl
1865
cited
##iya
##card
ongoing
dose
##alling
alc
elegant
grabbed
bren
##yll
fridge
abdom
##abe
questioning
devotion
robots
##ako
clergy
blamed
confessed
warehouse
pom
rams
##rac
##enne
solving
fails
doubts
elevation
theoretical
carpenter
##acious
scorn
##xton
108
rescued
subtract
treasury
##kk
allan
peac
presby
para
104
pouring
##encing
107
153
nicky
fulfill
geometry
##enance
steak
seam
thereby
removal
##fulness
illum
##ducing
respectable
dora
legends
framework
pupil
peanut
jed
moaning
##ppy
##aste
prague
103
##annon
packet
pyth
professionals
##pic
touches
quarrel
journalists
trumpet
wikiped
meredith
diverse
##etically
##ested
southeastern
coral
honors
solomon
##gli
temporarily
ecuador
oval
##rina
##isations
recur
invaded
retiring
additionally
tailor
suburbs
mats
wad
##wer
ahmed
westminster
unlock
vladimir
wah
inval
crypt
furthermore
bowling
##osaurus
flavor
chromos
haunted
##cat
##enberg
##ishna
157
casino
challenged
jurisdiction
##icus
brow
triang
diving
sporting
connects
vegetable
luxem
rebuild
##ovakia
ceci
fortnight
dispatch
duchess
amusement
ole
static
##that
grapes
offense
##ieties
shorts
slightest
kilometres
##llie
##acular
trot
amber
##anga
##boards
packing
wheelchair
shanghai
equilibrium
cane
publicity
diaper
graduation
teaches
galaxies
hale
loans
##cials
##coat
quicker
cupboard
computing
multipl
qualifying
tribal
serbia
www
revelation
natalie
iz
##inge
weld
##roc
intentions
backing
petty
stanford
legendary
fraction
restricted
maced
##uka
##llo
forcing
harriet
heter
adrian
readily
blacks
republicans
respects
thri
rept
paula
urged
structural
ellis
measurement
swallowed
mates
heated
carp
typh
bradford
saxon
unemployment
lopez
whatsoever
neo
canyon
revival
functional
homosexual
eugene
pianist
ich
##iens
roaring
carlo
amazed
suitcase
qualify
tunis
erected
sufficiently
travis
fis
kung
##18
##acc
##pling
##okes
authent
urs
twentieth
##leen
fees
distances
brent
draws
cornwall
darn
promptly
managers
thriller
intersection
thanked
adds
silently
immune
applies
bombing
cracked
crawl
forum
squares
superintendent
tamp
tier
##fol
##anders
preserv
sunk
torment
jeffrey
schemes
imprisoned
coordinates
beeps
shane
##thia
gull
eleanor
##ibal
promising
magist
touchdown
concentrated
bong
##atar
rehab
suited
recipe
calc
premises
nineteenth
discharge
valentine
inevitable
registration
simultaneously
osw
rains
kneel
alber
canoe
retro
clement
audition
1890
assembled
##writing
citizenship
hazel
bea
grandchild
libraries
sophistic
croatia
marvellous
##oise
anime
plaint
humph
excav
##caa
erect
workshop
thai
##chy
allison
warwick
calf
inspection
exhibit
therm
##ulsion
ful
erin
scouts
##ods
boyd
humour
biz
gin
kot
##apped
plung
recalled
governors
undoub
estimates
##iott
shiv
##igs
marin
geneva
glimp
evangel
supervis
inspect
lifting
velvet
inflation
diversity
glimpse
md
##eh
##stick
chalk
##etera
burgl
139
risen
santiago
##onge
rend
northeastern
##oca
cros
romeo
integral
istan
venezuela
unnecessary
##rs
filter
##sworth
prayed
consequently
ricky
scissors
jang
##namese
stool
quoted
fellas
auction
decrease
comprehensive
edu
kra
liu
aber
##arted
##strong
calmly
cuban
hydra
sewing
snapped
blossom
discrimination
##icular
asylum
deem
expressions
vietnamese
persuaded
astonished
exhaust
i´m
istanbul
heid
spike
someplace
secondly
rounded
migration
veteran
undoubted
##rr
canvas
##arded
##elines
resumed
mainstream
sentiment
admired
desperately
survivors
festivals
cic
ech
brac
somethin
refresh
stuffed
wilhelm
##nost
treasures
tac
subc
barney
sells
academ
anthem
encountered
appeals
pea
inland
congo
intermedi
snack
operational
ultra
spoiled
jaws
kol
butcher
outc
accl
acute
##izzy
elena
hardy
confusing
exclusively
andrews
recruit
crooked
scots
154
explicit
rulers
graphics
kettle
cud
gale
kane
resolve
legion
##itorial
discussions
spelled
wikipedia
theology
##arre
spont
flush
lowered
essence
stockholm
improvements
volcanic
ncaa
offspring
hardest
1898
tackle
beverly
pigeon
kara
tina
##stock
interfer
slaughter
metall
iris
irreg
acceptable
empress
nitrogen
advocate
prelim
jab
jav
##caster
expend
patric
epid
banking
defender
neighbouring
portrayed
dia
norton
##keley
metals
##otta
petrol
hanged
dawson
hul
wade
##inee
128
potentially
nanny
##17
##inum
worms
serpent
115
sandra
360
mint
nab
##inence
mane
envy
1870
scenario
rigid
compensation
brussels
wept
doz
##rolled
##actic
retrie
prizes
messing
riders
accessible
lawsuit
eagles
ferg
hos
lime
##des
backward
internationally
banner
flags
java
ses
bypass
prox
slav
lighthouse
guessing
employer
rhine
stabbed
kangar
disagree
navigation
irregular
gaining
##isph
##ifier
dolls
eliminate
lugg
endang
password
receiver
brandy
warsaw
hamburg
bulgaria
nak
##ndo
compelled
instances
turks
sexually
1895
errand
mumbai
goodnight
##icking
glue
skate
commanding
acknowledge
bain
##rors
noises
steph
repeatedly
##graduate
aboriginal
mou
brom
phoe
##oku
expanding
immortal
zurich
##iated
tox
chun
##avian
lax
149
accepting
ferdin
adelaide
nipp
pains
ally
##uba
limb
translate
bothering
armenian
wailing
comune
saves
coven
intensity
monks
numbered
reds
forecast
salmon
rosy
challenging
gironde
tattoo
gothic
interstate
understands
membrane
tossed
rans
##furt
alz
##arten
trinity
##agi
phant
swore
cursed
gladly
ethics
1888
witnessed
permanently
overwhelming
yv
##illon
1940s
balanced
elinor
baked
##inks
admission
##dington
##ettes
##uana
##pit
##kov
##idad
##lder
##osy
travers
bricks
croatian
clyde
jag
klaus
zip
##onso
anten
##rys
calcium
##anni
postp
separately
considerably
athe
spokes
rumors
##igel
shifted
capitol
relating
improving
administrator
ingen
wrath
anto
strangely
utility
survivor
fury
groo
mouths
1889
teenager
clifford
##atis
seize
repay
badge
constable
versa
identification
oun
yun
alv
rover
interrog
continually
courtesy
participating
clicking
brooks
gazing
oink
##enh
toby
##aru
unse
carrie
slice
winters
constance
incumb
picks
cardiac
exams
focusing
instructor
outrage
##ln
coaching
aggreg
peril
countenance
##oga
swam
##occhio
probable
invested
suggestions
##affe
banging
promoting
container
hazard
rendered
mitt
stark
##adle
spee
merced
petro
scrap
relaxed
puzzled
parameters
mound
##nity
herm
109
strait
melanch
integrity
pioneer
groan
1897
premium
gloom
accompany
indoor
outdoor
benedict
picardie
shudder
##mill
interval
centres
philanthrop
cot
##arin
throws
##ormal
coaches
warmth
predicted
##bone
##itic
rey
##uli
novelist
splash
encouraging
poisoned
underwear
bam
tt
vom
##hart
##uity
##quin
needn
waiter
doubles
1860
sussex
mentally
mowgli
##eld
##stead
lib
plaster
indies
holder
practicing
1864
attendance
sinking
ingredients
cork
zig
homeland
baba
paw
urugu
##boro
manufacturer
contempl
buster
bewild
dup
fou
stur
claren
remix
cleaner
conversion
appreh
manufactured
applying
exhales
aunty
yen
##bank
chore
plaza
agony
caring
carla
emigr
programmes
assassination
buddhism
luxembourg
vince
brim
agnes
breach
filmm
refuses
portfol
titan
julius
crimson
stripes
administered
yugoslavia
torpedo
jem
pomp
##osition
phon
lasting
shores
presenter
turtles
mixing
execute
pinocchio
licence
bourg
diplomat
das
faded
##iqu
##bath
##inement
encycl
commemor
glam
archie
tours
rifles
sullivan
wonders
kaw
payments
thirds
greedy
removing
##mir
donated
subsp
##uffy
screamed
acquire
celest
recommendation
speeches
kurt
whir
cans
barnes
##afa
bitterly
enlar
##ologically
rosie
dissolved
militia
##bin
##bat
##lee
##entive
scroll
crumb
hover
rais
tallest
tortured
fragment
cale
umm
##maker
##amine
predom
warming
babylon
completion
boxer
##ancies
complained
lindsay
patt
lovel
cheated
edgar
verses
cyber
1893
##forced
arsenal
rumbling
##sch
conrad
courty
endure
superv
luckily
commands
rhode
sony
annually
salzburg
journalism
wyoming
bruno
cynthia
preservation
##cin
amusing
desir
privately
otter
rotation
jumps
brooke
gan
ranger
##aton
##esia
##ometer
learns
screenplay
corporal
presbyter
##iard
##buck
##kir
##ighty
##olar
flown
flute
1500
traits
148
debts
dand
pab
crashing
ahmad
starr
saxony
vengeance
ecl
lumber
##wind
guided
interven
positively
undoubtedly
htt
yosh
##mie
##aceous
##quer
##moon
martine
ninja
requirement
cinc
##icon
caution
sacram
rabbi
disturbing
sustainable
exercises
cc
proves
offended
vera
brands
##ructive
graphic
bik
dice
giov
homet
chu
upward
veins
employers
bordered
licensed
abdul
aristocr
luggage
phoned
merger
darker
contacts
dair
sz
bliss
slower
##brand
pakistani
crocodile
vod
weas
weep
stained
quint
interference
repent
lottery
135
angu
cube
nutri
conducting
jealousy
inheritance
cf
cors
##hed
##cott
exert
robe
remed
archer
hopkins
territorial
verte
##run
##oz
##eted
engra
realistic
gerard
1862
shawn
heavier
lizard
alpine
cocaine
fuk
##sten
nora
booked
broom
acquainted
tummy
tractor
byz
logo
carm
1863
fabulous
guaranteed
philosophical
ix
notor
joins
millenn
juven
exploration
shoots
##ovan
senators
reveals
beggar
idiots
raced
yoon
##ctive
##igious
interch
esteem
rainfall
maintaining
ancestry
makers
avoided
hann
vil
##oton
timid
boiled
templ
hostage
tricky
sherman
suspects
demonstrate
casualties
hometown
kathy
##robe
##akened
parted
talkin
##ficial
choi
melan
agrees
demanding
spells
correspondence
josie
sophisticated
doom
##ilis
##upon
interviewed
alexandria
##isphere
pave
##uter
##ishes
drake
releasing
##anca
practiced
celebrating
stirred
##grave
clarence
##ithms
skies
deceased
innings
elders
crowned
mosqu
jasper
wong
##fold
##crow
seiz
##inkled
triv
steering
dana
145
elliott
tactics
mtv
coyote
meow
conve
miracles
focuses
complaining
scotch
sto
##atha
underwater
addict
summoned
beaches
intervals
refrigerator
eternity
chau
trout
stray
skipper
confined
sleeve
poorly
powell
aquit
imprisonment
miy
stability
##about
##ounded
enabled
trigg
procession
yawn
ik
mg
##kal
gol
superher
associations
shooter
kenya
substances
tightly
breasts
lebanon
cay
haired
sponge
##ptions
devils
jules
heavenly
semin
cruz
tubes
verdict
abel
oral
bask
audrey
consultant
dizzy
vor
reid
deuts
outline
norfolk
centim
costumes
taller
##forward
flora
boliv
wyatt
##asse
cone
acoust
consort
generator
grande
112
berry
berkeley
mcdonald
1885
neighboring
honourable
cyclone
diagnosis
aquitaine
irene
##wald
soy
goats
##ilo
knives
##gee
unch
baden
##ussion
incor
developments
worthless
terrorism
confidential
bowser
dors
##antha
hect
##ooped
helena
childish
popped
harness
ordering
snar
valve
associates
grocery
rubbed
shouts
##books
midfielder
cincinn
pets
##tz
##pi
glove
##ggs
butterflies
disorders
reunion
obsessed
governing
ave
wim
cance
peggy
organisations
pulls
touring
analog
multiplic
elevated
strawberry
dangers
##asis
stain
align
quin
##assic
hog
premiere
repeating
##ijuana
stretching
introducing
einstein
caves
##ingo
1894
occupy
renewed
hens
##liness
thats
sudan
rabbits
specimen
ferdinand
mercedes
##sar
##jun
thud
##anto
coma
basse
awoke
detected
respective
unsuccessful
reynolds
jest
jak
##ben
##eros
gettin
daytime
waved
editions
judged
perfection
committees
antiqu
celtic
surrendered
unemployed
dozens
##puts
heed
dex
thereafter
abn
##acts
thoughtful
mona
constell
armstrong
economist
maxwell
calculations
yogurt
dentist
incumbent
##mia
thames
stap
ambit
brakes
glenn
curved
##incorpor
beatles
racist
##cony
##anks
##osc
lookin
thrill
smashed
##ropical
gardner
falcon
bosom
piper
strategies
temptation
brutal
##tion
##agh
##uta
##anton
plateau
rhone
protested
feminine
hose
##jay
##isan
##abol
poker
threaten
fitness
smoked
stimulus
##oppy
siber
shack
acre
foam
bully
carey
greens
providence
burton
discoveries
chapters
facil
attributed
flexible
endangered
cincinnati
rilla
ropes
##nings
whar
##olith
willy
parano
skilled
explode
treason
##print
husbands
halls
disguise
aims
toot
##arte
justify
##uffs
kerala
lonel
slippers
preliminary
##bons
##cular
##ardy
spine
coch
indirect
skating
winston
lauren
spiral
civic
innocence
patriot
phenomena
jewelry
prussia
##urai
##iche
relay
extr
authorized
demonstrated
marathon
##incorporated
ht
##pro
claw
grants
maf
corrected
santos
yonder
hooked
refugees
binding
jamaica
daring
lgb
mia
##llers
nost
##umble
intest
minim
breakdown
connie
terrace
1880
carrots
pooh
arbitr
fergus
kre
##occ
traced
##elet
##apolis
loaf
extending
caf
presenting
labels
hairy
##backs
measurements
stamps
acknowledged
##family
cecily
pike
##rics
##erella
##ensis
##clude
eyeb
scramb
museums
homo
nutrition
##worthy
normandie
maritime
##opy
worsh
unincorporated
##astroph
inviting
incidents
acceptance
oceans
hesitated
lorry
curriculum
token
trin
default
rocking
richest
judging
##ecies
##chez
distinctive
professionally
reproduction
prosperity
cyprus
gag
plas
lease
imposed
lasts
median
varies
doubs
147
stephan
europeans
spacecraft
missionary
joshua
guru
yok
##eus
uncover
##pering
flashed
##plus
asset
landmark
##occo
240
sands
simpler
induced
pest
##rint
alg
compat
##cled
meditation
trio
conflicts
implementation
bj
kai
pag
##face
conform
unesco
mang
varieties
bananas
cathol
naples
cigar
updated
bly
sas
sik
##roads
##ersed
proc
##cliffe
testify
homicide
nucleus
flooding
alberta
ez
##uu
##front
##llah
##elf
smiles
monroe
liking
##comed
mccl
owed
ancestor
reconstruction
gandhi
somerset
ambitious
##parent
wholes
##ooping
monet
characterized
fellowship
1891
publishers
hemisphere
rodrigue
##amer
modu
highland
governed
avon
venue
ivory
shelby
kad
prod
clas
sadness
1892
lionel
##unciation
naming
ome
pd
rented
##iu
##isch
##itative
knob
abused
eligible
fireworks
portal
armour
doubled
logs
inferior
ankle
almighty
masc
stroll
shiny
longed
cooling
narc
negroes
displays
neglect
##ski
##icism
##andez
abi
transmitter
prairie
##houses
weeping
##advant
scoot
syll
telegram
suspension
oxide
1881
1887
hawks
monitoring
scorp
mathematician
##osystem
ions
nib
ting
toured
overth
blunt
blonde
thrilled
highways
geographical
127
118
suffolk
striped
nominations
exclaim
drunken
ariel
merchants
annoyed
barracks
tucker
it´s
moons
##gender
marines
transpl
##ovo
translator
ooo
##obe
##daughter
##enko
canter
grams
apron
oriented
productive
anxiously
gibson
screeching
courtyard
rodriguez
bax
hil
rin
##lar
##andra
clad
newport
cruc
strick
depot
catastroph
fanci
ratings
appreciation
czechosl
eco
jug
##ecy
notation
brat
compute
carmen
disadvant
lordship
gardener
surroundings
neglected
yacht
allerg
##astics
foundations
##ierre
tenure
123
honeymoon
protective
embark
weakened
commented
predomin
hust
iw
ping
##rance
##ateral
discontin
denis
directing
accordance
gasp
paramount
manipur
alzheimer
bha
zach
##arter
shave
playoffs
113
yells
sandwiches
marvelous
bamboo
physicist
##sburg
##erving
nobles
leaped
129
welcomed
reforms
##asmus
weighed
allig
spat
ernie
blond
dominican
prophecy
conceived
mcl
pats
hex
adolf
addressing
whiskey
mysteries
veterans
motivation
avoiding
zones
##lif
congregation
timothy
reasoning
##heard
addresses
dusty
crafts
inventor
module
##jor
stig
##ilian
flushed
estates
awaken
villagers
anglic
halluc
melted
pinch
establishing
electronics
concealed
inducted
observing
sympathetic
bundesliga
lug
##gne
##pill
##idt
styl
manga
crank
subord
imaginary
accounting
doubtless
monarchy
cement
git
whee
onwards
##aders
disrupt
eden
sunrise
supposedly
##hausen
panels
fearful
theatrical
fulfilled
evaluation
explorer
lgbt
##lene
sheff
carroll
marky
exceptions
achievements
crayons
cairo
lak
munch
tian
yel
ammon
mug
careers
expose
metre
lego
messiah
catches
locker
##strom
lydia
naomi
manufacture
withdrawn
prosecution
mosquito
##nels
##respect
demi
hyung
##rifying
ranging
ribs
demolished
dazz
fiber
tah
inhib
##ophy
repairs
extrem
ballot
devote
affecting
excellency
peach
quiz
glitter
##restrial
goalkeeper
stamped
kazakh
tranqu
phoebe
catholics
ae
dots
morm
##rets
herbs
energ
downs
resume
parked
quantities
chewing
archaeological
pry
ripp
##rock
succ
whence
saturn
117
hairs
independently
campaigns
consumers
phillip
evaluate
dairy
huck
##dal
##inton
barrels
sleeps
harmless
appreciated
tablets
counterp
locomotive
melancholy
motto
##60
##izations
charging
assurance
geographic
importantly
infinity
organizing
fastened
##ambig
uttered
hindi
fisherman
accommodation
referee
bungal
gong
mv
##pie
traps
newcastle
##oding
124
supernatural
paste
hymn
italians
chicks
stabil
abruptly
bm
benson
##fen
thump
##utors
doe
##eller
cleop
elliot
dragging
accuracy
botan
distracted
nodes
henderson
cinderella
penguin
##cence
spared
tearing
parrot
dancers
bulls
balcony
1868
visions
initiated
roland
shove
ecosystem
friedrich
perfume
portfolio
piet
sene
tug
yuk
##top
##isive
peg
##ahed
doorbell
sanchez
talents
1871
observatory
ff
fritz
arse
embed
monuments
convinc
heroic
skinny
architects
forbes
dental
rik
##alus
founders
slopes
missiles
curves
steward
professors
lengths
ronnie
shields
cliffs
implemented
fernando
##nu
##adder
##elles
morality
objectives
reactor
platinum
advisory
observer
ike
##asian
disband
genesis
##she
tasted
1884
cartoons
teachings
bridget
blooming
squeez
carrot
nate
oop
##igi
compart
perc
genera
cooler
activists
propaganda
balk
fusion
hector
shag
##apur
##oodles
##oughs
underlying
emir
behaved
incap
crest
comfortably
wesley
creepy
dusk
recycling
ethiopia
##mag
hah
arous
##ousy
completing
messy
closure
1875
lyon
naive
algorithms
mourning
rivals
muffled
mozart
mould
tes
amused
barack
irr
propriet
otta
nadu
ursula
eph
##eo
##bes
stakes
##rians
loading
preston
listing
extinction
foreman
dividing
valued
salon
fret
improv
medicines
nicer
atlantiques
indonesian
orientation
bard
busted
nets
inmates
rewr
swap
respir
telecom
judith
shotgun
crayon
biscuits
grandchildren
sheffield
gases
alma
##olin
spears
spiders
burger
berries
heavyweight
crowds
emerging
explosive
pes
qing
justified
forens
battlefield
blessings
patricia
wakes
##cile
generals
apartments
guarded
honesty
terrorists
consumed
##ulsive
vaccine
nigel
whoop
stamm
exquis
drought
superb
pasture
jewell
spectacular
cdp
uncommon
astonishment
caterpill
segments
##acity
moham
##ulates
amelia
centered
##atters
##grade
treacher
excuses
requests
layout
dragons
bulb
gravely
jonas
misunderstanding
apparatus
bourgogne
thigh
##icable
##ulary
hangs
dishon
manufacturers
deputies
salvador
vitamin
coronation
inscription
butch
dislike
reporters
deciding
visc
allowance
educator
exceptional
hunts
opposing
alcoh
lsb
catalog
##ocaust
loneliness
ottawa
pagan
##loo
##idated
##irus
tweet
quiver
editors
judicial
immunity
##omagn
lill
afc
mustard
glowing
##ounge
redd
edit
132
morocco
ellie
constantine
boulev
adequate
##nom
##wing
shaken
eli
copied
cret
banker
proceedings
kuwa
rusty
sponsor
jumper
disposal
gains
hark
oat
##xx
sten
offence
lave
runners
brenda
locate
irving
shortest
excellence
chateau
siblings
intuition
sausage
yak
coats
preach
##shots
greene
insol
eleventh
baldwin
gauge
acceleration
rsb
frustrated
hv
##vation
shattered
addiction
fishes
degener
cathy
1867
lacking
bishops
bradley
franche
kendall
receipt
gly
rascal
°c
playwright
##fortune
autobi
ordin
collector
gloomy
yoga
pau
hau
##imed
plural
pears
cheque
supermarket
reviewed
aerial
mantle
sulfur
jets
noun
##dorf
wellington
commenced
##brook
danie
investigations
tournaments
bidding
deposits
dodge
abundant
brittany
cleopatra
aesth
tant
##ghetti
stump
##oso
preference
sermon
sweeping
burd
kingdoms
honorable
ethical
##ophone
disappearance
specimens
auck
##hum
anders
##adier
##abi
##rav
straightforward
audiences
ecst
##belt
##uchi
hambur
bulgarian
jal
pens
##eaux
slay
sonic
126
##ouched
bait
randall
furnished
reckless
kidnapping
kumar
zoom
predecessor
ek
lomb
ripe
##person
##include
##ilia
nept
transf
burke
investors
1877
sparrow
cognitive
ceremonies
##pre
itv
shi
brood
rightly
cohen
crude
eloqu
122
squire
angrily
urge
holocaust
renowned
ethel
1873
hastened
warden
recreation
cull
fah
wien
contam
americas
133
138
trainer
##ogram
trades
torah
1886
quarterback
vicar
dwelling
dolphins
conferences
cured
oc
reel
##elope
expelled
violently
utmost
blankets
kangaroo
auckland
vish
##hor
neal
upcoming
reson
equity
prototype
119
137
misfortune
feminist
fatig
acquisition
proclaimed
jeez
##post
##enote
dement
erase
spends
1866
1882
targeted
sabbath
exhibited
##ennial
bosnia
satisfactory
sanctuary
cue
dashed
gid
jub
ras
tits
outward
##ilyn
milky
##tenham
stationed
melting
##zzo
1878
solely
hl
##dings
##dler
lig
onlyinclude
slate
glou
glim
calvin
deepest
gasped
a3
##rove
overtime
poetic
phd
repet
attach
controller
hyster
shocking
injection
eust
fax
##fi
##lay
##erman
##anus
##ilion
biting
gregor
generating
advancing
eighteenth
developers
samantha
competitors
secular
coached
nicole
sync
witches
antony
##umberland
negotiate
##step
intel
compilation
##ensen
minimal
pleaded
microw
hayes
integration
lamps
tempted
oswald
giovanni
yar
##core
##amy
getty
bohem
cradle
2000s
jeans
debbie
delivering
pedest
pandemic
ibn
pokemon
gian
##bern
blink
operas
##annie
fishermen
restrictions
lisbon
remembers
nashville
##ono
##eny
downward
##resses
potty
injust
bending
##beth
willis
cove
##cible
entity
destined
crawling
abbrevi
##zzy
##atum
##ilde
##yson
##ocation
exploring
developer
englishman
statues
paperwork
chemist
embry
batting
implies
evolutionary
agh
bake
vale
actively
elis
##span
hospitality
environments
composite
leonardo
francesco
wip
##zon
sails
unite
##phis
gloss
sounding
politically
incons
cowboys
valleys
eliza
oakland
isolation
stalin
pins
sind
##found
doomed
levi
coeff
attic
killers
210
conclude
mabel
pied
pamp
liam
cocon
rogue
pert
##gerald
woe
freeman
settling
shrimp
explosives
catalogue
lobster
extends
lorenzo
portions
turf
benny
malay
1869
stocks
inhabited
interactive
tidy
adoption
hides
kom
nc
##rator
##cus
##rect
spies
enact
erasmus
disambig
gallant
contacted
1872
fitzgerald
abolished
##enzie
johannes
presbyterian
##parents
hs
lama
lounge
qur
rattle
##bol
theor
comet
loft
warmer
slut
collision
valerie
salam
victories
limestone
potass
suspense
speeds
ideals
piggy
krishna
eccles
duration
astronomy
obeyed
hobby
rue
##kan
##orne
mustafa
populated
queue
gasoline
osaka
granite
greeted
interpreted
antibiot
intermediate
kurd
##onica
##arms
##itational
flaming
elaine
##shaw
invari
motel
hosting
brighter
illustrations
georgie
shifting
ct
lapt
moust
xbox
##aters
##oral
sta
##opic
##othe
beheld
sidenote
weekends
referend
apprentice
sg
theo
brisk
slides
fries
exploded
termin
duel
rainy
spaghetti
theodore
indiffer
deemed
dd
gael
##tra
##your
##rogate
##opsy
manila
marijuana
findings
sliding
nationalist
romanized
undo
transported
boost
palestinian
provence
suburban
calculation
reop
upwards
twinkle
apoc
##ounced
paj
laurence
certainty
reasonably
informal
220
corporations
pursuing
consultation
minerals
pater
wei
plank
brake
momentum
essays
vicious
matthews
precision
greeting
gloucester
disambiguation
potassium
##zig
##itious
##imer
choke
nationality
heartily
revised
maternal
motorway
windsor
alcoholic
##recht
android
fris
frames
trunks
##eryl
scrib
playground
##coy
flaw
chariot
occurring
1850
nobility
plaintiff
##gard
##inas
beads
evenings
slipping
musket
artif
babys
cycles
##zzle
sighing
whisky
plasma
bount
ler
mph
##amoto
marcel
slot
##ashire
damages
beatrice
1883
arabs
continuously
prolong
resurrection
hd
tert
##anian
##alam
##ooge
debr
##abulary
slog
regent
tenants
146
summar
##flower
cooperate
clusters
lancashire
pang
##nar
##upp
##bag
chffff
sheila
orland
trud
bras
clum
intact
lah
kinderg
runway
sentimental
114
gunfire
convent
distinctly
decoration
inflamm
griffith
alarmed
sacrament
lava
mash
nast
unanim
acids
flanders
miners
waterfall
flynn
activated
fooled
##forth
1879
poisoning
infections
sculptor
ceram
screens
kitten
rica
##sl
shank
saul
manages
winding
stripped
disgust
rehearsal
filipino
whirring
##entric
undergraduate
decomp
sket
dealers
garments
##agonal
conceal
phrases
perceive
chandler
enlighten
hr
wrench
##gence
tod
##iler
##unct
bryan
realizing
##brush
billions
memphis
quarry
ache
1876
cubs
entertaining
settings
reformed
steamer
conclusions
libya
python
##iman
resol
hearth
143
brighton
indication
editorial
gigantic
zeus
lorr
varying
uncertainty
asteroid
enhance
mushrooms
plunged
guang
##araj
evelyn
treasurer
prescription
pancakes
convincing
##ingen
##chin
unrel
muck
teresa
papp
easiest
116
25th
robbie
galile
1859
bould
goof
kry
kham
pia
shrie
dupl
jerome
carnival
##fred
##lov
wont
surpass
parlor
flooded
labeled
fiery
trembled
precipitation
lousy
vaud
wits
##rand
##ente
meek
unsp
clues
irrig
rubbing
olivier
carniv
orbital
antenna
mafia
bip
##oft
##──
anita
##uni
tristan
##arez
disabilities
cleans
granddaughter
kicks
vacant
exchanged
pools
coordinate
gamma
beetles
reservoir
sd
ida
brock
horrid
refusing
archives
vertex
philippine
instincts
lancaster
##uil
beak
##stown
adul
assy
madem
plantation
pearls
dic
erik
intensive
consens
reflex
ruf
revived
lester
webster
##harmon
constantin
reconcil
simplicity
inconven
rookie
aggregate
omega
kite
nass
choking
##rio
unified
anyways
telly
accred
inflict
churchill
aval
vanity
philippe
vigil
canterbury
mohammed
cres
cuc
lal
poop
alicia
##weed
remin
eyel
curry
horace
##atorial
forgiven
synch
poisonous
hesitate
clarin
chloride
confronted
sicily
gp
kau
pies
##gau
##cup
shuff
unb
folly
##urned
ahab
raff
flowering
tablet
skept
decreased
hawaiian
staircase
##eb
##bows
##eses
##atel
perp
meanings
##azar
entries
speculation
vernon
integer
teenagers
cycling
portraits
gwen
clumsy
mademois
hilda
peaks
ineff
frown
framed
##ulin
joon
ponder
regener
traum
romney
##obia
archive
antagon
responses
contradict
yvonne
dye
lull
nought
viz
zion
shred
##olini
brist
marvin
marquis
whereabouts
supporter
dada
cornish
semester
tunnels
indicating
documented
apologies
mourn
lund
moose
##girl
##ileen
##atta
##inski
communion
bedford
trustees
##uko
digits
##manship
disciples
uniforms
installation
chanting
fancied
sided
##atin
##roft
complement
##cius
##ienne
mcm
kyung
expertise
uruguay
##armed
##etcher
hoor
##inae
growls
shrink
optical
exhibitions
reservation
amphib
##stadt
bris
envelop
##agua
##cession
confinement
##appa
performer
##borg
springfield
heroin
lyric
nikol
scandin
awaiting
kok
litter
zag
##uf
##apa
blades
surrey
depicted
squash
balloons
dearly
psychologist
sights
complexity
georgian
floods
excessive
sardinia
mink
##cu
##idy
##anti
##emption
quinn
##athi
phara
cornelia
##held
bleed
congressman
sabha
experiencing
locomotives
klein
coul
gert
##fried
##ldon
##irical
##elong
prisons
marina
crater
emerson
##zzie
nominee
tended
alberto
discharged
null
xia
##orus
##vergne
hered
usher
wavel
artic
144
designing
matching
researcher
princeton
crews
frightening
streaming
biden
limitations
dummy
convenience
tributary
bhaer
mademoiselle
aquar
eri
tiles
spice
spinal
buys
conson
variance
rockets
contributing
nicolas
cricketer
shifts
unstable
sacrificed
weasel
boulevard
##ozo
##mies
##eration
hab
polished
##ahan
methodist
winged
confederation
solemnly
##hawks
fain
lanes
##inos
beech
pledge
seeks
remn
transgender
raja
caff
massage
psychic
santo
stirring
livest
respiratory
##iries
chol
##unes
undercover
draught
elastic
gameplay
##atories
hideous
proudly
graceful
vegetation
recommendations
preceding
##birds
perez
desirable
vodka
gail
yong
##hog
##lies
##made
##azi
streak
merge
literacy
confirmation
gustav
orlando
lp
pou
pott
##hot
whipped
##olate
smarter
bites
bitches
##oya
deficit
euros
deceived
birdie
floated
cardinals
bonnet
cracker
switching
vicinity
bingo
boul
fang
##nip
ante
seok
moll
scound
housekeeper
decree
##balls
freaking
##ospher
turbo
bounded
3000
dismay
drowning
hano
##irth
viruses
protector
##aurus
fanny
tunes
1848
celia
cuz
slippery
baking
jong
kens
sip
##onies
inverse
neb
deity
depl
amal
fletcher
redund
steer
painters
moron
violation
wildly
armenia
normandy
glacier
whack
beware
stunt
shill
yearly
buch
advances
bombard
mobil
bronx
anticipated
affiliated
referendum
ci
lia
congest
##abl
brute
needles
marking
136
berm
rainfore
affirm
stressed
obligation
scratched
uneasy
pharaoh
gide
wurt
haute
theresa
herman
plato
caravan
needing
##issy
warp
##emberg
augustus
yelled
##holders
revealing
unusually
guidelines
enthusiastic
incorrect
aph
eisen
wii
moan
housew
winchester
builder
postal
laden
rattling
covenant
patsy
lorraine
omn
##osure
##odia
surplus
baa
frighten
gateway
rodney
wardrobe
vulgar
intrud
subsidiary
geez
richards
directory
gibbs
metaphor
dab
nt
wist
beeth
slain
slack
##ieres
##alez
probation
objections
macar
ragged
vocalist
##omorph
##chool
sug
seemingly
salute
weights
##heads
lecturer
transmit
##build
bankruptcy
trivial
anglican
tint
zar
zam
inward
##itations
chrys
plough
prow
boll
ada
##cloth
parcel
sweater
variant
##adox
1857
thermal
bungalow
##rust
##vic
thesis
unin
grains
presume
geological
cutter
creed
blocking
printer
embroid
unders
relieve
dolphin
constellation
hilar
kare
mits
wreat
##rising
##mith
##opus
##elin
##ifa
marilyn
tril
trek
starve
palat
scenery
submission
enchant
gimme
recession
dagger
pans
##rt
sag
marriages
scam
tread
escaping
expressing
reportedly
concerto
electromagn
##uating
gov
pluto
proving
##ibald
healthcare
grocer
tasty
concur
foreigners
riots
accommodate
beethoven
dixon
obe
zinc
##hop
##oor
ingr
##itas
frater
##ellar
subl
##psons
telev
indefin
amazement
episcop
surfaces
1874
withdrawal
excluded
gonzalez
prejudice
bis
laps
##vable
##anny
##opol
contented
explored
brien
housed
celebrities
fashionable
transmitted
rhyme
richer
chilean
##dan
##asive
##ioned
##geon
realizes
investments
khal
mechanisms
mascul
ghana
auvergne
recruited
murmur
fiercely
spaceship
supervisor
lena
##lett
christina
prevention
expectation
sarge
consulting
indistinctly
caleb
acoustic
gina
tl
vase
##nea
spank
teh
brady
##ipse
##ounted
##shore
oppose
hyde
currents
judgement
somme
dramatically
iraqi
parsons
auxili
relegated
phantom
baxter
injustice
jagu
lup
pt
##wy
##worm
weaker
meh
pled
monten
genetics
lays
pottery
strengthen
investigated
struggles
conservatives
sabot
lynch
sundays
discovers
sill
##hist
##orp
beers
shipped
knit
backst
conting
commence
creeping
berth
implications
analyze
disposition
transparent
byzantine
hoof
doyle
##ulously
##pps
ener
adorn
elmo
communists
denom
cyrus
francs
hammond
seminary
tongues
tsar
preventing
##zhou
hispanic
martinez
cote
yank
##idal
##illin
##iliation
knox
unic
enrolled
overview
overfl
buk
pounding
unclear
captive
scotia
janeiro
pinkie
crisp
reflects
aisle
mentions
omar
##enstein
elvis
lotus
##obic
racism
sprint
condemn
sigma
trolley
lunar
pablo
hith
##rano
##hurst
##last
##entin
##chn
overboard
skins
encry
richardson
1854
##marks
prophets
whitney
sparks
motivated
anatomy
vagina
reproach
superhero
kindergarten
awe
kish
rna
splin
airs
nato
socially
chiefly
stockings
fuj
reversed
lut
##iceless
reapp
ense
##ulture
instruct
shortened
rupert
climax
risky
450
etcetera
approxim
recipient
giggling
schmidt
abnormal
eros
nou
haut
##agar
perth
flatter
attain
relat
retorted
differential
mornings
dripping
##ovna
breakthr
##queen
labs
alexis
arabian
coughs
737
drifted
mute
##yo
thatcher
dost
sued
alumn
legged
howling
comparing
ads
preacher
paradox
colspan
##meal
favorable
owes
venom
faults
simplest
interactions
absorb
counselor
undertaken
cb
ecc
mw
chug
exotic
peb
##nton
advers
##amba
cabbage
planting
tavern
cracking
reproduce
abbot
racket
ponies
remembr
watts
juvenile
abbreviated
hitherto
hither
##tw
##esters
topped
##otam
deh
brink
uhh
silva
portable
robbers
frankfurt
bias
mcg
##ariat
racco
wrestle
rewarded
abundance
multiplication
livestock
gaming
mikh
tud
lethal
parting
parach
mermaid
antique
horsie
contested
biscuit
vance
##isle
nok
laf
parr
fourteenth
misses
transcend
fuller
grandparents
##oki
##appropri
scrooge
pigeons
baek
stephanie
hooray
dul
ramb
rasp
vect
donation
##apest
twitch
strap
##derick
momma
cooperative
bolsh
gifted
patriarch
fiddle
ef
jol
miz
panda
##yu
##wi
##jour
hak
##otherap
passages
albany
squaw
134
designation
indianapolis
radioactive
cracks
bathing
rags
obstacles
transaction
bracelet
eyebrows
gideon
batch
nud
##aran
weaver
shalt
arter
vein
operators
scarf
linux
aristot
emerald
exquisite
neptune
bates
iq
sach
##acies
spilled
##nty
mule
fung
denise
budapest
##guer
jenkins
1858
commentary
sucking
elimination
griffin
embedded
fade
kod
##uania
##isi
seo
trillion
committing
mao
builds
##annah
marker
urine
##monary
symbolic
dynamite
mammal
psychiatric
sectors
canceled
debris
##eme
##odies
##bee
mustache
syrup
policemen
strengthened
broadcasts
tissues
philosophers
apostles
rooster
enchanted
##rag
##nas
##vae
##urities
sums
newfound
##igny
consume
damon
fifteenth
performers
imagin
charleston
possessions
theaters
blythe
energet
noodles
tik
onion
shun
liga
intri
##pty
##bek
artwork
##quez
cardiff
accurately
giraffe
cosmic
allegations
nutrients
hew
##keeping
fearing
##izers
repaired
hearty
blacksmith
honking
pauline
uttar
lacked
volunteered
lithuania
diaz
##enhagen
millennium
kuwait
microwave
dime
loch
blaze
disrespect
crom
freestyle
autism
rosen
distribute
graduates
esper
##brahim
xxx
mocking
synthetic
earnestly
solicitor
rama
##iards
##dar
fors
probe
engaging
curiously
142
supervision
##proof
cosine
demograph
journ
protects
sequences
masks
gravitational
nymph
psychiatrist
prostitute
encycloped
eileen
mps
tapping
##rans
##bane
##kees
friction
intens
##ovision
technological
maths
ambush
1856
detectives
scripture
mentor
jennings
persistent
mish
healed
deform
plag
grill
lett
newark
regency
trifle
calder
daoud
denny
statute
merchand
fragile
tumor
exceedingly
shriek
xiii
##gance
##temberg
##long
ching
##abs
lok
mrt
attained
incoming
burt
woodpe
sediment
cuis
fidel
penguins
vet
##matic
unm
manny
foremost
jeop
rosem
barton
fascinated
pronounce
chooses
surprisingly
cindy
leopard
##ahedron
lumin
mop
nile
##atz
cramp
godfather
swine
colt
convoy
examining
feeds
oscill
abbott
duchy
guerr
configuration
##had
##alysis
intoxic
birch
ordained
chuckle
functioning
wheeler
scarecrow
alexandra
delete
hectares
fag
##itory
roared
##pered
consul
communism
critically
argues
##yeh
hammers
abolition
hassan
invalid
subspecies
ej
##krit
ofthe
##alm
##idian
spru
flap
muk
attitudes
lateral
fucker
develops
antid
accountant
annex
oslo
hooker
911
enzyme
##olithic
wurttemberg
##onal
stems
##acio
##urable
brag
flashing
phe
parole
highlands
builders
destructive
peterson
finishes
cocktail
revolver
browser
nd
##bard
##mour
dole
##emaker
coaster
depended
hump
paws
sleeves
eurovision
considers
doctorate
hampton
appealed
tributaries
appendix
tate
##cos
thine
##opath
whereby
emm
refined
matched
enjoyment
despatch
texture
frequencies
bombay
atmospher
kyoto
skelet
sirens
sulph
giggles
ransom
bian
cæ
nests
pals
conse
##acey
simpsons
passive
awakened
escal
agreeable
##yeong
mechanic
arrogant
benton
institutional
hutch
sterling
magistrate
dion
nac
##oque
##function
##bil
thi
thither
##omic
maniac
##icky
handc
imported
midd
gunshots
motives
banquet
facial
disposed
nationwide
gorilla
cruelty
sacrifices
delegation
extensively
mongol
blossoms
ornament
snatched
algeria
walsh
##vag
unac
adorable
remake
nightcl
palms
malt
sensit
mutant
resembl
allocated
portsmouth
discretion
tup
toul
bellow
shik
##rob
cong
agl
newman
salem
woodland
panther
meaningful
cheerfully
tuber
sucked
bibl
stricken
consensus
journals
mb
zimb
##nuts
##pc
##iso
##isance
##idan
mohammad
prose
broth
compiled
helium
finite
capabilities
redeem
accepts
agreements
mirac
subtropical
scrambled
gour
xiv
##gang
##leum
##chw
unoff
pratt
deport
chev
##iked
fireplace
greenbelt
robes
rosal
breathed
ramon
feeble
dictators
quadr
advertisement
crib
het
nude
anarch
alison
##text
insign
josephine
morton
wrecked
cultivated
alligator
vectors
rochester
bets
visa
philharmon
modes
surprises
miser
nationally
##oxide
spectators
joints
surgical
assassin
therapist
razor
kopp
ved
wart
##oan
shu
##opotam
carving
happiest
brotherhood
solitude
veronica
circuits
broadcaster
individually
instructed
rhodes
euph
deployed
intercourse
sanskrit
cz
jade
oss
##itably
unjust
##ounds
grub
backyard
adher
countless
##sha
runaway
raises
void
burr
devi
identifying
gros
rhet
wagons
##enza
haj
##amous
##ardi
arithm
ley
##iances
remorse
vanessa
olga
willingly
myths
rustling
synthesis
chronicle
hott
##urf
knots
quotes
raft
pasta
titans
projection
packages
swimmer
##ipei
spectacle
vocabulary
tenderness
privileges
gravel
vowel
higgins
typhoon
transplant
dementia
tory
nos
alibi
orn
flir
maori
terrifying
setup
cola
viewing
correction
atlas
incompl
fren
##gov
##kill
inequ
inappropri
##lea
chil
scum
##avi
mapping
barrett
badger
irres
copenhagen
broader
fooling
traveller
vertices
outlaw
threads
ferrari
kashmir
pavement
rosemary
##chet
cocks
apps
larvae
designers
##hoe
benz
muddy
demonstrations
cedar
allergic
dl
sama
##pen
##sein
sheldon
##inky
encom
newer
guides
southampton
classics
sweetest
auditor
mirrors
diploma
enclosed
fresco
fatigue
dhar
interim
locals
midlands
specialty
treatments
denomin
capitalism
bella
mcqueen
virtues
circumstance
emeritus
prestigious
##nostic
cretaceous
moustache
lining
##math
##asaki
olds
airfield
##zey
disconn
requiring
buyer
traders
kimber
linen
salesman
crawled
outcomes
notorious
constantinople
##bral
chilly
byron
mulder
barbec
defines
##deen
riches
dino
limp
attractions
5000
pentagon
emerge
fiancee
spontaneous
dag
dunk
hiv
##corn
##enary
##orum
newcom
eman
specified
richie
griev
bravely
1812
brigadier
snail
cautious
wich
##ajo
##dr
##100
##iton
onions
uprising
spun
pleasing
funk
raiders
terminus
230
occurrence
unlucky
randolph
peanuts
bizarre
demographics
hp
nes
paren
##wau
##idable
weaken
chunk
gond
##abwe
plea
##azed
socialism
escapes
unfold
##ollen
reproductive
lagoon
ludwig
sesame
discontinued
disbanded
kul
och
##polis
shades
chung
marl
wherein
perple
foe
weighs
airplanes
nigerian
sovereig
authentic
compartment
coconut
gaelic
cory
sain
hag
##aday
clapping
##onson
recurs
waterloo
europa
jackal
insuff
samurai
splitting
boldly
isabella
monopoly
pilgrimage
hulk
remembrance
chak
spook
manit
##ipel
##athe
populous
millionaire
descriptions
virgil
uranium
##lights
1855
fortunes
murmuring
fertile
overwhelmed
inaugural
humphrey
baskets
wiser
staged
whats
##illas
##orts
flatt
persia
relates
honoured
shutting
terrain
decidedly
facade
clocks
taipei
napkin
chamberlain
strawberries
viktor
biblical
zimbabwe
dory
theological
##stood
enroll
distorted
readings
deadline
angola
##uku
knocks
compositions
shelley
allegedly
hvf
aig
ips
yoo
##lyss
meyer
##asts
leigh
perch
##swick
middles
samar
##ynes
thirteenth
natured
taxon
graveyard
correspondent
nour
vouch
xii
##lest
isles
weeds
clair
contri
hond
genome
nationals
strokes
rumor
avenge
##hrer
tampa
indifferent
aristotle
nant
raph
##vich
expon
##oken
##undy
ridden
vegetarian
congratulate
obscure
pleasures
interchange
html
##etus
unaware
intol
landfall
##ippers
discovering
contracted
antoine
mormon
kale
##bot
mega
knuck
unqu
##ineas
partition
regained
creativity
wonderfully
merrily
pressures
treats
pedal
proceeding
sculptures
nikki
insulted
reluctant
unseen
laptop
eul
##inished
##irk
donovan
plump
perimeter
garment
personalities
wolver
commercials
harmful
shelves
kirby
proceeds
decorative
crystall
assignments
unreason
exterior
ns
##horn
##lined
bose
boone
serena
profitable
patches
harassment
breakthrough
kak
##kka
##25
##ainty
floyd
undergo
schiz
famine
supposing
cavern
ballad
grie
prediction
disappearing
neighborhoods
parameter
arbitrary
monetary
bere
ree
als
ungr
##berger
roster
firstly
guate
##uthor
holdings
morrison
combining
colonists
fundament
torres
ideology
karate
habitats
mlb
zombie
http
bermuda
casc
kah
sven
yemen
##gone
##dri
##orrh
##stop
seab
ches
##ilated
manly
manuela
boar
discer
hoarse
handing
milwau
crem
brightly
maidens
barbar
commentator
furnace
prosperous
enlisted
graft
conjunction
relocated
incapable
aroused
eccentric
lones
##user
perish
schwar
tracked
imperfect
epidemic
bann
nie
sask
##cake
forge
dope
oranges
##ango
handles
barlow
##creen
sixteenth
typing
castro
conventions
bombers
tame
##aris
marqu
blanche
wrought
##iban
poppy
curled
parkinson
juda
costly
verde
urgh
roberto
concord
320
dominion
mystic
consistently
grinned
expenditure
paranoid
auxiliary
mating
##list
##wed
spher
clash
dayton
##lander
plead
mahar
ahem
metric
airways
snoring
30th
fills
combinations
hostess
hurrying
deterior
lynde
categor
puppies
councillors
yankee
rehabil
melanie
aube
cask
##anity
you´re
##ulator
leip
##avier
##ogical
harlow
##lessness
##etheless
educate
cello
##zzi
tempered
astrol
uganda
discreet
isabelle
lure
lenn
pto
sq
##lda
##acs
abort
genoc
popping
halted
midway
sociology
garland
sensors
appointments
drying
##ija
mikey
booze
breezes
ernst
fencing
heinrich
anguish
ferguson
naut
tess
##path
##alan
stumbled
##amel
dell
clung
playd
##fta
youngsters
calories
starved
luigi
davies
hym
verge
grover
##respons
vigor
manuscripts
trinidad
irrigation
incomplete
sovereignty
milwaukee
nois
##ensible
emble
laurent
nonetheless
doubtful
foxes
fuzzy
adjusted
whistles
mandate
zhang
gavin
astronomical
whimpering
mikhail
tumbled
vapor
wl
xvi
##dock
##ław
##itives
unrest
query
##queline
##yss
formul
regiments
barric
blackmail
detention
garlic
disappears
encouragement
deliberate
sincerely
transactions
aluminium
kling
##cz
nolan
prank
##acha
##ressing
finale
genres
geese
sideways
##version
aviv
260
hostages
##odeon
achieving
gangs
responding
pamela
prussian
bitten
hue
kou
##bad
##munk
almond
##acker
coarse
womb
accuse
decisive
stevie
##eney
peacefully
modeling
tricked
katy
pulmonary
headquartered
induction
miniature
affiliate
dine
dile
ely
oph
vau
beams
shen
##thest
peers
blas
percept
prehist
greatness
##tingu
waver
waff
##gets
funn
deton
straighten
malta
baggage
280
conservatory
dreadfully
resemble
tolerance
chlorine
physiology
pits
tying
##arthy
##urated
sunder
marse
greenhouse
odys
##otypes
hooty
reptiles
chffffff
uter
##adic
##ithe
sopr
knitting
continents
burl
clearer
rails
cables
destroyer
##inyl
dunn
reduces
remarkably
ricardo
preceded
dialects
ussr
hydraul
hunch
hiring
lum
sikh
##gart
reind
enrich
##adequ
##iza
maids
elf
skys
steed
gerry
starter
hopeful
##ascular
azte
contestants
yuan
obligations
amendments
enterprises
brunswick
attributes
rituals
piedmont
sketches
vatic
##atas
##eni
cheng
##aceut
carne
elm
##irling
capability
cologne
airbus
transcript
granddad
privat
macdonald
fingerprints
corresponds
mammy
earthquakes
pandora
rectang
dres
##leigh
liable
##uster
noses
alps
handwriting
georges
shutter
freshwater
compliments
mortar
durham
collaborated
cinemat
rican
leopold
obedience
clarinet
resemblance
arithmetic
70s
astr
bauer
litt
wards
##nap
##dies
##vine
##amble
brace
##awi
weston
tradem
strips
verbal
losers
##ugging
determining
impressions
semif
ella
crackers
recovering
rivalry
drainage
inadequ
##stones
anj
choked
neill
suic
plumb
offend
bladder
##sover
bett
##elli
impose
politely
##byn
firefight
typew
saloon
enjoys
ignoring
##kinson
tyrol
##know
consuming
sucker
obstacle
shillings
##cats
##court
##ctica
suk
mond
spicy
roderick
aging
erica
offs
aftermath
untr
midland
protagon
purity
archipel
murderers
stafford
tsun
patriotic
evacuation
sofia
eruption
abdomen
mascot
caterpillar
giles
##nin
##uously
##wara
##lements
dover
##keep
socr
##ands
##endicular
guit
slid
attachment
endow
gluc
stealth
roma
civilized
smelling
victorious
hawkins
bassist
ulster
vivian
wavelength
episcopal
ges
ile
##gia
onward
##iona
sobs
geology
incarn
incentive
sweating
jeep
processor
##loading
definitions
inspire
##asca
thickness
proposing
cylind
moisture
philharmonic
encompass
parenth
fie
iod
witt
##pow
##alom
##lect
rewards
haiti
waits
skirts
airing
processed
00ffff
urg
screening
shrug
egyptians
1853
kaiser
mandatory
chatting
twinned
viking
unexpectedly
ravens
upgraded
constraints
nause
nascar
##egr
##ande
impe
monstr
regain
##isters
dares
hyder
osborne
maintains
lament
lenny
elisabeth
perpendicular
lich
uz
##rak
##star
##rious
tease
cobb
tenant
adviser
##unders
autopsy
fatmag
owls
ticking
polynom
ventured
neurons
chipmunk
gamble
tolerate
baghdad
rupees
metallic
cæsar
##orah
noticing
shear
extingu
lofty
##uded
underworld
ahhh
violated
autograph
multitude
psyched
sighted
buckingham
tuned
tribun
patterson
consulted
brushed
comparatively
dynamics
innovative
kathleen
indifference
cocoa
fugitive
czechoslovakia
vatican
fatmagul
ake
samp
##hes
##var
##this
noting
barriers
performs
conditioning
theatres
motionless
prompted
tactical
nickelodeon
jorge
overthrow
ecclesi
ness
piv
puck
tj
##alis
##ceph
##ulative
##manuel
swollen
sidewalk
certification
dammit
weddings
empower
assumptions
apologise
pillars
baltic
wigg
immigrant
tucked
cuisine
inappropriate
gps
kub
##etr
beacon
##imar
unim
carriers
persisted
##shed
curls
possum
entreat
chuckled
financially
gangster
astonishing
sparkling
petroleum
hilarious
skyscr
ostr
mei
brides
##akov
roch
quentin
adele
stately
tomas
delph
freezer
camden
involunt
sarcast
pushes
scrut
extravag
##regard
carlisle
pyg
bomber
peeped
oxidation
antarctica
tunisia
##aceutical
bolog
eps
mn
rc
##has
baroque
passions
roommate
locke
burrow
creaking
seaf
epist
drawers
aluminum
microscope
clasped
leipzig
cesar
lus
##etian
shing
underm
##odynam
edmon
systematic
volks
denial
garner
physicians
deposited
proportional
sundown
kart
vroom
zap
##mant
chesh
notic
clive
mae
slapped
trif
snuff
estonia
bowls
mcd
bounds
bodily
hastings
750
oxfordshire
aquatic
dignified
cushion
maneu
dix
rarity
sox
enables
coon
downhill
##orman
##uga
simmons
confisc
lineup
refusal
bulldog
holt
kerry
unfinished
hesitation
inventory
multiplied
celestial
##otherapy
cromwell
zel
##fal
mog
abig
lore
coloss
redes
starbuck
tempo
##erville
##linary
disputes
paddle
cassie
bureaucr
newfoundland
aglaya
cuck
wester
##80
##isal
##than
##coal
belgrade
impart
charley
barren
##ocene
projected
misch
pathway
customary
piles
roofs
##encia
toyota
odor
tenderly
chopped
drifting
disturbance
irresist
cary
rie
ria
##rl
##vre
sep
aft
##angu
metabol
subdu
1600
dreamt
failures
doubted
vanish
accompanying
lonesome
kow
omer
zool
##iantly
##23
##atan
##reb
##aye
hermann
##ifiers
blot
bugger
##bruck
trusting
taxation
reacting
1851
savior
lacks
resistant
##lihood
cecilia
alumni
pines
tipped
zack
##gary
##aul
##kas
##cam
hague
conced
##iston
marguer
invade
grease
visually
commanders
travelers
governorate
nuisance
behaving
defenders
satellites
##wal
underest
lastly
doorstep
penit
westward
greenland
cornell
sinister
mortality
cameroon
kazakhstan
reindeer
archipelago
aaa
##len
##imity
chis
##geois
trails
upro
likelihood
timer
intersect
generic
caret
swind
hara
cait
protesters
111
suffers
doris
alternatives
1849
witchcraft
folding
faintly
clutch
recurring
consecr
kron
tau
tents
##icious
##imi
arises
overr
##beck
sled
charitable
verify
robertson
rotate
seventeenth
delegate
bertie
blazing
reinforcements
hysterical
baw
dund
gdp
##atu
neural
##uns
##areth
##pted
commend
##ignon
detached
caste
ferment
hasty
tortoise
luxur
unwilling
motherfuck
baines
filmmaker
masculine
vip
##inqu
inputs
##alay
##sta
##pple
disqu
madele
belfast
ape
##brates
hillary
malaria
yeon
brightness
cubic
tsk
hurricanes
descending
bitterness
echoed
exploit
tinker
shrewd
deprived
energetic
##nick
##oting
shines
unint
##inki
whichever
comeback
##cla
##ogo
slash
121
turin
announcing
latitude
decorations
hoover
bumped
eugen
pharmaceutical
ceremonial
hormones
bic
bhar
kob
##lore
##liest
alight
amino
scoop
newest
shortage
preval
negl
picturesque
whiskers
investigator
taj
sherry
earnings
pillar
lambert
chopper
weighing
coleman
rattles
proclamation
macedonia
enlightenment
glands
stif
adren
orderly
hallel
subjected
moody
bahamas
aeropl
pronunciation
dwight
enhanced
jeeves
tadp
autobiography
genocide
gud
hin
tic
##bet
isot
##send
alto
teasing
##ouring
barred
corinth
listeners
##rils
summon
##haven
packs
heroine
rushes
solidarity
simplified
crabs
hierarchy
##kok
##anz
dob
##rops
##cels
unle
phyll
preschool
evol
barge
grouped
horribly
memorable
aiming
buffy
lemonade
prescribed
cortex
feudal
energies
merchandise
playdoh
monstrous
puss
sasha
vind
vans
xavier
##watch
forwards
shady
##church
seung
frau
alk
smashing
strained
desmond
headlines
##atted
irony
archibald
competent
birthplace
23rd
sarthe
latvia
ethn
tailed
cerebral
furnish
containers
mimic
vaguely
antiquity
abigail
hing
rw
##wang
weber
##then
##alla
goku
defer
della
donations
arlington
##bery
clover
##agus
scares
floppy
consented
calib
bedtime
viral
benign
securing
patiently
attendant
travellers
vikings
hedgehog
flutter
subdivisions
stamford
electromagnetic
edmonton
hive
pasha
##hra
goa
neu
##emia
saga
teens
grunt
boer
phases
monaco
slumber
##ibu
provider
posthum
defining
ecology
screwing
smoothly
prohibited
outrageous
ensemble
yarn
##soon
flirt
induce
minnea
formidable
endors
swelling
posters
sweetness
km2
fluor
embraced
apostolic
stinks
dilig
intuitive
bewildered
dexter
antibiotics
minneapolis
falk
gaw
##ht
myr
orgas
margar
adoles
adverse
##anson
serie
parson
subfamily
##tech
gret
270
miriam
knockout
inspiring
notebook
muttering
documentation
gaul
##viol
yankees
##broken
comprises
enlarged
wharf
hondur
io
nih
rach
##iq
artery
betting
seren
halo
sniper
quicks
earthly
forged
##uctions
freshman
disputed
tuna
kerim
sexuality
comparative
reflecting
philanthropist
raisins
dilemm
cnn
dings
fart
hick
jig
piled
##sie
##cies
##utable
anter
##ivable
marjor
buggy
crows
paragu
curling
windy
morals
antip
periodic
cyt
##oshima
toilets
ogre
nuns
nigger
seizure
algae
aure
ferv
gaps
kamp
nigh
pail
sacks
xen
whither
##icz
mell
worcester
plots
playoff
##clair
##ogene
endemic
charcoal
asses
capp
##oko
successive
arche
cataly
##nox
ecological
exhibits
nervously
precinct
rhoda
mackenzie
##ujah
atmospheric
madeleine
cep
dainty
sow
tung
##utory
stip
oracle
usd
relics
discom
castles
sarc
vanilla
parlour
galleries
semic
premature
emperors
obtaining
folds
embarrassment
explanations
covent
baptism
namib
glee
prospects
volcanoes
allocation
inserted
lavender
dictatorship
judaism
guitars
omin
alad
norse
accusing
bothers
##ounce
humanitarian
strauss
italia
entertained
admirable
dissip
tibetan
slogan
naw
wak
##las
##pants
##acer
ans
##estown
##coe
belize
regrets
suppressed
rung
fungi
firearms
cellular
striker
mcn
##holder
1840
appealing
undertake
reunited
fetched
stereo
gmina
aurora
aberdeen
oatmeal
j1
ub
##bug
that´s
##assis
handic
##vester
thoughtfully
schoolmaster
captains
snowy
textbook
linking
dedication
puzzles
scratching
underwent
trenches
pamph
marguerite
fuse
rt
rory
tb
##atile
##iters
docks
sheikh
205
amn
blaming
servers
crushing
curl
whitefoot
silicon
##bold
prevents
bribe
structured
1837
mattress
tangled
insulting
accusations
bounty
gome
ying
reele
##acter
chub
congreg
guill
##000
rao
markers
pett
##zza
##flix
pinned
kira
scriptures
coupled
clayton
rouge
mingled
immensely
devastated
siberia
ptole
hic
wired
##gler
iso
anom
gos
##astically
clank
quaint
hijack
speck
breeds
assim
laurel
bodyguard
##mares
hyun
necks
illustrate
succeeding
astronomer
ibm
flexibility
recreational
boiler
cn
jou
pors
pah
##hov
##24
##ongh
whitt
wein
noct
truman
stepmother
motions
seller
broadly
quarre
predator
tuition
dubbed
sedu
suspicions
fulfil
jingle
resentment
symmetry
compatible
scoundrel
koppen
trademark
2x
bai
dens
dred
dung
iphone
##mala
##eri
##llan
hei
##ulent
spouse
clamp
raids
robb
explosions
bourbon
braille
biochem
cuff
rites
##hun
andes
##itre
##imited
segregation
gore
upbeat
203
pew
##izu
regulated
terrestrial
insists
courtney
colder
##lores
sticker
disappro
dependence
flowed
1844
outlook
await
yielded
pavilion
rafael
tuscan
glittering
##uber
##bread
##joy
##omatic
nemo
plun
roars
teller
calgary
refres
successes
lima
avery
baths
bosses
availability
communicating
##ijah
homest
translations
fantas
bulletin
emotionally
mimi
inauguration
centimeters
tehran
ejac
marjorie
fiji
jp
niels
rak
##bid
##store
shannon
degr
deacon
##anta
disast
statesman
deceive
parental
athen
pennies
screws
kernel
comparable
bourgeois
ruthless
proportions
dwelt
hms
rearr
##andro
unve
tee
##ells
edison
madag
frenchman
robust
##heit
similarities
meaningless
venues
rowing
optimistic
prickly
trends
hormone
crescent
yuck
spurs
unreal
##ishly
everlast
##icked
preaching
flattered
sledge
micha
cooks
recognizing
declaring
1830
reformation
pitiful
chatterer
kuzey
sparkle
synthes
wwf
misunderstood
bolivia
pajamas
unaccept
baz
hort
hbo
sous
herze
spying
##ifax
beforehand
showers
fins
skipped
rests
salis
infants
##unda
sami
imagining
netflix
productivity
mccoy
speedway
pageant
ambig
launching
##check
esk
savages
arcade
resembles
fy
pumps
tou
##adan
sapp
adjo
carth
relent
cheered
cald
##hof
masterpiece
bernie
panzer
contractor
thinner
encounters
sullen
gypsy
bunker
indignation
predominantly
invariably
80s
dau
lc
tann
vass
##rush
##tv
##oster
##mitt
##eria
hert
peripher
resolute
barks
giuse
faithfully
shrill
dismal
affectionate
trilogy
kyr
pensions
##fil
##yah
stacy
seating
thrilling
##intosh
hiya
nightmares
##mberg
capitals
differentiate
halifax
paige
potent
browning
##nesia
blockade
owens
accidental
magnum
missionaries
savoy
ventric
prostate
provisional
claudia
intimid
perseus
recollect
kost
ulyss
vinyl
##rec
##chu
deception
outsk
compress
finances
angie
hallway
automated
lifes
folklore
aggression
crumbs
manitoba
fus
ibrahim
lana
weaving
canals
prolet
##inkling
clinging
integ
compressed
##assing
kee
glancing
tapped
pierced
1845
differs
irrele
chromosome
groove
extrater
rewrite
synchron
barbecue
ulysses
dante
vive
##hea
##won
hauled
herds
##osi
brett
johnston
governmental
trait
##zek
octopus
detained
riddle
trusts
reacts
1846
oaks
sioux
retreated
gillian
workshops
maureen
impatiently
madagascar
dai
gou
tiff
stut
##alli
notre
donate
plunder
unav
overh
##coll
belts
##beh
headmaster
surm
denying
225
airports
thicker
switches
pilgrims
cambodia
persecution
socrates
fs
jugg
oars
tard
tresp
heaps
shap
anesth
chenna
knelt
saur
##igation
flop
formations
elbows
addicted
##ushima
treaties
rapids
mutation
sprung
lymph
webb
crashes
surveys
ravi
asserted
inevitably
stunning
sneez
correlation
fischer
ecstasy
irrelevant
dm
##rude
##ım
##onaut
##enheim
##thouse
nec
##andi
rogo
##cier
billie
supern
camille
competitor
debates
latino
analogy
aleks
bengali
quartet
hobbes
yuri
##onte
lilly
bravery
workplace
imperson
charms
generosity
delays
infirm
toto
considerations
fleming
fuels
liner
carbonate
dissolve
porridge
bedrooms
lunatic
tulsa
encyclopedia
herzegov
feng
##groom
truce
indie
##igne
mahm
winnip
nationalism
steals
signatures
merr
hospitalized
cyrano
activate
##ophon
shrubs
##waite
reminder
piercing
cyclist
coordination
jumbo
emphasize
dingo
surgeons
dwellings
refugee
tidal
rectangle
antarctic
uncovered
glucose
##lot
##cad
##itution
haird
##estan
coca
compression
slur
addison
blackhawks
incomp
supportive
cooled
matty
1847
spectacles
squealing
optimal
podcast
colombian
orphanage
##music
prolonged
aquarium
outskirts
ios
kav
loops
mord
pus
thur
##uti
##kell
hissing
marge
blush
scully
emissions
waitress
##ograms
sams
darcy
assassinated
cautiously
eduardo
cis
igor
nailed
pf
##leness
##mination
loll
gotcha
prone
##ogl
hels
kell
imposing
eyew
harding
porto
securities
beneficial
julien
princesses
##egro
unde
implied
buddies
ghetto
coroner
mongolia
coordinator
brackets
anthropology
enquiry
hoffman
percussion
hamburger
unacceptable
salisbury
chennai
winnipeg
cunt
gird
nir
pim
za
##isers
##itates
hai
##thal
amar
gott
everett
mund
##atham
tryin
##angelo
muscular
faction
beginnings
thomson
determines
variants
linea
mccarthy
incidentally
bridegroom
unpre
lj
##eong
##cot
hauts
notices
huff
startling
slit
##anka
suns
collegi
directive
spreads
1852
tanya
numerical
lutheran
screech
darts
noo
##etz
anast
hern
##apo
##acking
tweed
mari
elijah
expired
mentioning
arranging
reverence
pulitzer
##asmine
brewery
bergen
prestige
versailles
interrogation
lillian
schwarz
fisc
jura
nure
sass
##his
##job
##sty
##rip
thence
rooted
marm
erotic
caw
paints
discourse
figuring
growled
gardening
guarding
commissioners
rankings
hindus
rugs
pillows
vigorous
sneaking
scorer
perpetual
penetrate
advertisements
prettiest
astronomers
eustace
hallelujah
herzegovina
hips
lola
mesh
##anu
##idences
forfe
seine
agu
##odor
crut
kingston
skim
louie
gallons
axes
tanz
hooks
bursting
##umbered
neatly
ethiopian
roused
incompet
grazing
obedient
raging
vy
prover
overheard
guiding
hof
emin
redemption
##ricate
continuation
hussein
murdering
despise
synag
1838
echoes
taiwanese
proclaim
prettier
peacock
montenegro
woodpecker
gomez
ning
rake
tara
##aram
liability
moans
upt
arising
adject
##orns
bucc
synt
barley
assists
extrad
1700
##ondo
recognizes
rods
contestant
converse
neuros
recruiting
tyrant
vinegar
triangles
retrieve
telecommun
ungrate
guatemala
fainted
lakh
##gren
##bas
##bys
tho
reigned
##chus
##umont
grudge
flipping
britann
squish
scrape
offerings
taun
polls
clapped
ancestral
hurriedly
inconsist
ether
gland
jaff
nk
ola
##got
##jev
schooling
invin
apes
voiv
infilt
teleph
austen
diner
domingo
bearer
26th
combust
##saic
moths
humiliated
worshipped
danielle
typewr
bikes
mous
vista
wyn
##jee
##elius
scars
muller
ahj
inventions
realization
hardcore
filing
protons
22nd
brightest
capturing
comforted
doctr
catalan
tasmania
unconsciously
waltz
awaited
fernandez
##hardt
boulder
bie
ket
lenses
##allah
chili
donor
orator
##fell
huber
barrow
annih
deviation
darren
louisa
unlimited
candidacy
calculus
calculator
crystals
jurassic
dictator
consolation
##picuous
xin
##oids
##erting
##arp
stacey
##amins
##opters
##aparte
joanna
##aney
confuse
millim
discont
paler
diab
capitalist
gradient
accounted
shrub
aerosp
gleam
seminar
sunderland
fences
lb
vint
##cor
dop
fringe
spices
lookout
caller
barker
artem
heartbeat
proton
operative
dae
representations
sanction
eventual
suffoc
imagery
bullying
coloring
bangkok
karma
1839
orchestral
disappointing
initiatives
lemonis
bakery
hinduism
obsession
pyramids
remedy
##occup
ezra
traumatic
tribunal
giuseppe
helsinki
bce
bant
cet
icy
sash
vr
vows
whining
##estro
spade
guad
irrespons
jackets
prevailed
cellphone
angelic
respectful
benevol
royalty
permits
nicar
loosely
codice
rhymes
surveyed
infinitely
archaeology
chromosomes
ounce
eclipse
##powder
mab
niss
##nian
##comb
##nds
##istically
##empl
unfor
##ounding
graff
offshore
flask
souven
##shan
##hya
fatty
youthful
kramer
mansfield
analyst
fractions
patriots
apprentices
restraint
slovenia
hanover
raphael
hyderabad
nino
##vik
##stal
stag
sakes
drilling
##ksh
evolve
footprint
broker
murat
programmed
cardboard
librarian
affordable
satisfying
dubai
awakening
wichita
citing
ketch
vines
befall
amir
boon
scaring
hogan
phi
schult
glist
##ewan
bret
detection
chapman
mixt
borg
commercially
cheroke
cheerle
landscapes
shawl
frustrating
cultivation
plaque
pharmac
upgrade
exaggerated
hereditary
flirting
pact
zamb
##uations
##lake
##lins
##45
livel
coax
cobra
pey
marcell
scab
##pta
imply
parody
norwich
untie
simulation
broch
snoop
entities
practise
bangs
wisely
reconna
sewer
assaulted
tombs
fowler
chords
proximity
squeezed
nastasia
aladdin
eater
eject
fists
gild
##nake
##fy
##21
fra
placement
cody
##agna
##ucks
fours
hotter
antig
objected
captivity
ambitions
carlton
baha
bruins
vampires
exploitation
interpreter
grasped
relativity
spruce
homestead
huss
rite
tand
##iability
##jara
wills
howe
##athed
hike
emmanuel
slang
regina
bestowed
eddy
standpoint
footprints
paolo
daniels
gunpowder
statutory
bahrain
selective
toothp
chimpan
admiralty
predictions
pioneers
hounds
overlooked
recollection
brisbane
rainforest
tubercul
hydraulic
fiona
kaf
zim
##uer
##adh
##oper
exeter
manning
coil
bois
indy
schum
regulate
##ahi
incur
pickup
condens
towels
betrayal
interrupting
kaye
dodgers
warnings
sacked
helicopters
suzuki
bolshev
90s
daph
##orgh
resisted
##wey
seeming
sorting
organist
petals
ferrier
temperate
analys
bhag
corpses
sobbed
rejoice
immortality
disastrous
aided
##xy
##ør
##reck
##owell
hailed
##alle
chum
##rigg
##rika
##arta
outlets
endurance
popcorn
humorous
harlem
woven
paved
detector
advancement
mandy
undertaking
lithuan
prefix
yugoslav
outdoors
giddy
ungrateful
riff
rental
rye
##alyp
##aina
sushi
canary
intending
jockey
carriages
buoy
recons
teammate
papal
literal
dickens
breathless
hawth
stretches
1836
bombed
royce
andreas
reigning
##ogenic
highlights
prohibition
scalp
denominator
prehistoric
nl
nip
stagger
##anty
sumer
##artz
spout
leh
pell
goodman
minnie
apar
##otti
papua
##umbria
oceanic
purchasing
corpus
spawn
entreprene
jedi
dilemma
integers
sf
xiao
##yards
theolog
##gham
stables
##ilus
compuls
foll
eminent
starvation
131
pictured
devised
luca
costing
arches
epoch
favored
rollo
audit
multiplying
soviets
criticised
bibli
evacuated
dudley
bologna
entrepreneurs
bt
##xi
agitated
compose
fluct
drac
glare
apex
burma
horseback
qualifications
rankin
tribune
azur
chestnut
entrusted
cigars
1815
rejection
punched
disgusted
squirrels
reconnaissance
##rings
##nep
##frey
orion
howdy
maze
info
fauna
hillside
favors
gradual
facult
targeting
kirch
cadet
sniffing
battleship
allegiance
evacuate
bick
cact
##iator
##jing
##anza
insec
##elo
gramp
carmel
throng
honda
reggie
milo
kidnap
poorer
branded
tao
blinded
##chaft
indoors
genuinely
stranded
grinding
disliked
shabby
triggered
embarked
lahore
unofficial
ia
posed
vort
##mu
##67
##omen
justification
amor
##orte
agitation
elias
charmed
christie
sandstone
hopped
jamal
kittens
challenger
rotating
folder
taping
disasters
gestures
levy
roasted
methane
erosion
cels
nug
uv
revision
##emi
##quel
##odont
schne
##beit
faire
malik
maturity
attracts
breadth
shaved
jeanne
deserts
1841
1832
jacobs
triumphant
dashwood
disguised
shameless
abbrev
turbine
wimbled
sainte
lennon
dt
hints
##tie
##yang
##esian
##amura
soaked
peeping
aggra
afl
blizz
imitation
betr
slovakia
swings
##oupe
popul
commandments
24th
colorful
coastline
julio
sensor
stormy
pinea
somalia
proofs
integrate
borrowing
culpr
evangelical
shankar
sabotage
unreasonable
wimbledon
##lich
nep
abbe
##astical
roh
bland
##ffer
flound
##atchewan
elk
friar
methy
holders
##ikovsky
##ussi
economically
ledge
inns
traveler
wolfgang
1831
initials
wraith
aunts
slavic
ounces
nokia
lettuce
kand
yad
##iw
##etical
shitty
unnatural
##ryn
endorse
numb
listens
skier
##lingen
powerless
drip
squid
villains
secrecy
georget
grounded
separating
asth
platoon
##ridges
graphs
cruiser
tumble
substitution
paralyzed
rejoined
inaugurated
rendez
pearson
insufficient
fiscal
coss
tamb
reins
##thur
lebed
quer
leaked
worldly
pleading
##ledo
humanities
augusta
postc
rupt
fortified
combines
winger
priorities
depressing
tremble
atlantis
misunderstand
subscription
tempest
parachute
hicks
pess
##si
##oom
##fied
##isans
soils
exiled
flam
interl
keel
financing
decimal
insurg
insanity
practition
dominate
expects
##fields
tarzan
premise
330
cavity
unpop
sorrows
nadia
devastating
artifacts
bres
cau
jared
taff
##mind
##zac
##into
courthouse
##ibus
##combe
lowering
applaud
grizz
blindness
sheridan
sabrina
infectious
plotting
inquiries
loaned
braun
rahul
psychoan
humiliating
regulatory
forensic
sacramento
saskatchewan
boughs
qa
##tub
##fits
##inates
##atio
##utz
##stra
seizing
exempl
204
grump
warmed
blooded
radiant
browns
activation
possesses
obliv
jacqueline
trafficking
sheltered
inquire
reinforced
assholes
submarines
geometric
catastrophe
buccane
hether
scept
sane
ugl
##flu
##inho
##etown
seag
conject
feas
comply
adore
##angled
carver
finer
swab
hellen
cannab
##iffy
wilbur
taliban
laboratories
advertised
mandarin
toothbrush
fracture
nigga
infrared
burgundy
disagreeable
saucer
humidity
hottest
abbreviation
bb
gat
jj
ols
qatar
rump
##erk
##enas
##owitz
reper
##adia
chie
chaps
enr
feld
cram
indis
schl
humbly
storyt
trader
viola
cyril
mirth
foreigner
saturdays
barbados
dedu
lifelong
pulp
descendant
zebra
gibral
crusade
cafeter
scorpion
haught
aesthetic
baff
osh
##making
##anmar
##ingale
##otine
haha
##imon
asi
ort
willough
clips
afar
strata
relied
sorcer
##aphy
augment
insulin
authored
chaplain
renee
medications
##ophren
mandela
submerg
disciplines
kinetic
baptized
attribute
aaah
crippled
rogojin
nuremberg
luna
vous
wield
##jet
##vous
threes
##arge
##asium
##ickers
preview
disin
keller
muss
##ieri
##iera
natasha
armored
macro
smelled
ryu
watford
hydroxide
pumped
fascist
manipulate
dalton
lipstick
receptor
explicitly
deutsche
counterpart
inflammation
goofy
insignific
inadequate
dary
fas
tile
##rud
##bub
hagg
##estion
gravy
##izable
smother
schoon
elves
providers
tenor
detachment
posting
##alda
josef
speedy
liberals
joyful
luncheon
assemble
rugged
clarify
ipad
feminism
pending
stratford
slyne
pixel
zombies
muskrat
abdominal
miraculous
rectangular
bise
##sbury
##22
forts
mellow
alias
abode
conway
cling
jock
fluffy
leaping
monty
syrac
distressed
edie
equator
valiant
fearless
dissolution
thunderstorm
1821
bumble
updates
adjustment
sutton
interfering
schizophren
everlasting
willoughby
60s
pik
taped
vars
##rap
##eera
##pox
##wolf
##vance
hae
neville
##eli
unatt
brav
sayin
disple
thrash
harps
priesth
penelope
ruining
straits
williamson
garfield
economies
negot
misle
warmly
youths
voter
narrowly
panties
pipeline
wrapping
christophe
ngc
uneas
comprising
stunned
roxane
brennan
kneeling
emigrated
coefficient
bollocks
ipswich
dresden
porsche
refreshing
faw
##year
##jana
##arl
wast
stooped
hermit
exempt
##emon
##inkles
appra
headaches
riverside
##aires
tonic
petrov
oneself
pinn
nicola
briefing
parishes
symptom
confederacy
incorporate
dwarfs
continuity
vicki
ingredient
kurdish
nikolai
jaguar
nightclub
caretaker
adrenal
cerv
fath
jus
jasmine
##cie
##sth
myanmar
enforced
timeline
howl
##atti
patro
albanian
admits
gunn
duh
rapt
walton
requesting
girlfriends
cemre
confederates
lizards
havana
memoirs
bagheera
ramsay
reopened
fungus
sensitivity
carnegie
hetherwick
eel
wank
##lane
##jima
inert
mango
serene
watering
ample
squat
##ippy
flyers
misty
235
survives
temperament
bafta
threatens
stanis
fluids
pumping
decreasing
smuggling
prodig
priesthood
latt
##aise
##kie
##ombo
leve
##akan
strains
magdal
refrain
occitan
seasonal
shipw
commandant
diarr
ironic
emptied
1842
cinnam
stevenson
inclusion
francesca
cholera
honduras
plunge
collegiate
giro
np
##qi
thal
##atore
shea
anci
notwith
teammates
calam
buyers
truths
belongings
plantations
assistants
falc
flagship
jonah
promotional
lucia
randomly
constituencies
vitamins
gymnastics
reluctantly
bmw
quran
fundamentally
lute
##uble
##lit
##yla
##jon
isis
##urous
whereupon
compelling
##ometric
gujar
crum
albania
copying
garrett
afflict
celebrations
bonn
cartridge
swearing
ribbons
unpred
behaviors
ponds
lilies
advocates
extraction
fibers
exports
sublime
adjoining
tuberculosis
syracuse
##ocy
##obey
##atri
##atism
whew
shire
aloft
##ulia
clou
##agawa
thinkin
slovak
obel
airborne
defiance
midwest
constru
infamous
jenna
krak
rumours
desktop
rajah
vulcan
frustration
unlocked
unpopular
grop
##pence
##zilla
##oten
meite
##chel
##them
herod
ung
vegan
##iren
imitate
1820
norris
glances
humiliation
delir
roundabout
este
voiceover
sinner
gaily
cockro
rotter
teeny
puppets
fragrance
##uvian
inscribed
##aggered
prefers
discouraged
poult
irresistible
tanzania
aerospace
##alypse
negotiation
notwithstanding
kahn
latch
shaving
##thren
semen
chimes
unkind
johan
halves
sleigh
fireman
pickle
diapers
separates
##baum
thornton
calculating
undertook
tossing
grenade
receptors
groaned
##oscope
jewellery
remnants
groceries
cherokee
linger
tensions
xl
##wil
##stro
deme
timmy
dru
##space
johns
darkest
civilisation
locking
yeast
empirical
investigators
grasses
synod
selen
overlap
henceforth
capsule
bryant
gymnasium
acclaimed
ingenious
tertiary
ces
duff
zu
outlet
coher
quay
##avirus
godmother
metam
filipp
sentin
##onda
##haus
mouthful
fundra
walnut
gallon
silvery
assumes
hancock
strode
bartender
omaha
constituent
neutron
renewable
reservations
darted
mischiev
unpredict
fagg
ust
##jal
stoke
##ppings
willard
loom
clans
scur
##cedented
farn
lara
goldman
clearance
greenwich
##rette
sensory
mountainous
tanner
fuji
advertise
thumbs
substantially
michelangelo
abdullah
accumulated
lebanese
approximation
lafay
ominous
invincible
cafeteria
cess
ero
nave
sith
tcha
##dio
##lio
chit
notions
209
##itta
##ivo
##ignant
evapor
brethren
sixties
geisha
severed
campuses
detain
dinners
epile
worthwhile
similarity
trailing
1835
dominic
nobleman
rudy
sponsorship
automobiles
temporal
linguistic
shivering
loosen
##agher
exponential
hymns
unprecedented
gibraltar
gania
rale
stance
##adian
nelly
##umen
##plan
##ensing
hoyt
##pherson
salty
slowed
cyan
marketed
1843
adjour
taboo
hansen
lenin
vendee
pistols
mohamed
atheist
wiping
tudor
endowment
georgetown
asthma
lebedeff
oils
yonne
##nies
hep
plight
clattering
contag
headline
opium
accents
faraday
cheung
snacks
messengers
dais
modification
212
buckle
homage
transferring
throats
rudolf
bavarian
lodging
hutton
sieg
snails
anchored
outlined
twisting
awaits
exercised
vicky
deleted
plucked
ecole
disadvantage
ammonia
embroidered
inequality
doodle
kop
pv
tumbling
yates
##makers
##οu
##oufl
##idel
##olves
clot
##ipation
marries
hui
formats
rapp
oppression
domest
stickers
derive
macbeth
##arios
composing
buckets
boobs
courier
##iatric
catalonia
highlighted
bracket
vandal
contaminated
lafayette
mito
##wart
arb
rovers
scy
fling
carc
buchan
##nington
snort
shoved
westph
goldberg
sweetly
hopper
fleeing
sincer
capacitor
bosnian
echoing
gleaming
commodore
aigoo
emblem
tsunami
endorsed
michaels
gc
hess
vile
vowed
##hou
##kre
##atur
chet
saff
sci
##achy
killings
termed
harrogate
##unga
##ribes
protoc
damaging
bandage
stripe
crock
textile
favourable
##ritic
alfonso
nordic
cripple
daphne
##aus
##fax
##adors
##illac
##unc
fores
##urnal
suppress
sonia
basics
copa
##aldo
potion
canadiens
railroads
horsemen
banished
besie
contractors
mutations
gauss
suprem
scripts
regretted
hartford
dalmat
sniffles
efficiently
nodding
displaced
kosovo
indirectly
cuckoo
namibia
lithuanian
rendezvous
aka
mert
pads
wll
##mish
##vest
##aland
exult
whores
leone
terra
snug
danube
salome
telephones
samson
escorted
storey
optional
dorian
abstraction
postponed
khamba
dra
f1
jude
pious
uc
wrigg
yus
##mot
tosh
shorth
##there
soothing
boers
flipped
##ilee
##gett
lark
edo
rae
madly
risking
werner
bathtub
tuning
selby
inclination
lending
troublesome
tyrann
subscribe
destroys
memoir
rehabilitation
dracula
cw
kes
lain
rained
##eers
##mart
##86
##owe
bein
##abling
roz
pointer
slater
clem
johnnie
storyline
excurs
faust
labyr
jehov
briggs
dipped
diagonal
projecting
ferns
agreeing
shaun
tyres
screwdri
wicket
650
winslow
bacterial
bearded
hippo
chronicles
pancreat
transcription
libertarian
heidi
stephens
maneuver
schultz
cache
gis
kris
ritch
##jiang
##ede
toledo
shamp
lizzie
moe
uploaded
brushing
coding
drained
slick
barth
##renched
modify
affir
bayon
surfing
galactic
occupying
casa
rumble
reckoned
ornaments
pseudonym
convictions
astronauts
congestion
irresponsible
varsity
labyrinth
gna
kant
vu
yon
inability
##asso
trough
plata
adobe
##orno
##odel
endowed
swans
defenses
kidneys
summons
robbing
positioned
investor
violations
blinds
progressed
nicest
dissatis
disciple
organizational
gilles
archaeologists
rendering
fetus
compromised
anticipation
icelandic
mckin
diminished
engraved
avonlea
exclaiming
psychedel
voivodes
doctrines
cen
kann
mcle
nath
veto
stony
nect
coined
indict
##othed
empl
impaired
mai
endured
charities
wines
germanic
fifties
imaging
sensational
arrests
sinclair
crackling
sherlock
whooping
vibration
ornamental
amidst
resurrected
zagreb
wreath
cinnamon
dotted
##rals
##uyeh
##course
knack
##agel
scoo
##assed
disse
disregard
crouch
elsa
addons
cao
payne
divinity
141
deborah
##ecd
28th
censorship
oxen
speeding
uncont
shroud
shameful
mystical
odin
merciful
1789
flavour
##oplasm
seymour
triangular
carpets
burglar
fraternity
hertford
voivodeship
##mere
##idas
##erel
exits
unequ
206
##arel
disobey
straining
genetically
##uney
edna
snout
majestic
clothed
##strate
risked
gaunt
sophom
spoons
expeditions
sponsors
hacked
hacking
sniffs
precedent
recipes
gyps
inverted
irrational
polynomial
cipher
cumberland
fatt
horton
sark
##overs
withstand
##antz
workforce
indisp
##ceptible
curb
landown
angus
parente
duet
holiness
boarded
respectfully
balancing
matilda
spaniards
wolfe
bulbs
revenues
ventures
wickets
tumult
adaptations
instinctively
bouncing
repetition
unanimous
tadpoles
paraguay
a1
duct
gould
iber
pascal
£2
gogg
##ifix
yesh
carbo
slips
valencia
##ynth
##loads
tarn
constitute
conceptual
bassomp
mosques
ruddy
fascination
intensely
distraction
lithium
thorny
passports
parasites
stitches
prostitution
placid
homosexuality
senegal
pledged
raspberry
sulphur
tuscany
cannabis
baza
dill
kins
##cases
##mic
frowned
trotted
##abh
roe
blaring
blunder
##qui
downloaded
carelessly
chey
openings
governance
burgh
256
archa
archdio
spirited
angelo
bangal
embod
citation
padre
attendants
exposition
puddle
##imedia
paternal
discomfort
faculties
submerged
bassompierre
ucla
##ifiable
##agin
aden
pervert
preached
pointless
rede
##boats
daft
cannibal
urging
investing
domination
50th
frightful
##married
gigi
superiority
basilica
hannibal
emirates
apocalypse
splinter
shrugged
hoss
rall
##olla
##jas
##erp
forl
forks
chast
##rique
deities
brab
cozy
afore
blouse
footh
hiking
##ontinent
##bob
attacker
striving
expressive
premiers
ramsey
1834
simplify
sorrowful
stimulation
freaks
wretch
righteousness
pappus
housewife
nacional
bp
pbs
##etres
##otics
asy
##este
outright
unter
manfred
commissions
##ogens
strongh
slams
tripped
salaries
specify
madman
palae
morally
turbul
packaging
29th
bottoms
minorities
1833
beggars
illegally
brewing
hippoly
hiroshima
unchanged
kensington
discern
seafood
raleigh
kv
zee
##press
##staff
notify
frail
outn
newt
mayo
##fellow
##ikon
snip
divides
vargas
silas
traject
journeys
karachi
collectors
protesting
jointly
lucie
kalie
casualty
##graphy
battalions
pseudo
liberties
aggrav
meitei
iove
kep
tc
##city
he´s
chih
plut
ohhh
##iage
quitting
perched
regin
barre
germs
wonderland
mounting
hopping
##adeshi
execut
ellip
kilo
backgrounds
tammy
clarity
bhut
illnesses
masturb
exercising
pleasantly
squeaking
spokesman
briskly
##building
protagonist
cloudy
rotterdam
banc
fading
##lis
##wari
##34
##99
shoo
meade
spitting
poe
appalling
conspicuous
##group
prominence
burgers
ville
practising
terminated
espn
fortifications
marketplace
identities
savannah
admiring
kirsten
maharaj
porcel
cordial
conceive
lori
concludes
cadets
wessex
##ontinental
pastoral
dreary
facilitate
reddish
kauf
ged
jamm
pouch
tz
whimp
##stre
prisc
agon
disks
eminence
slayer
basel
starch
commonplace
221
enjoyable
skinner
lifts
##iformes
litre
bridal
##elect
scanning
quotation
enzymes
adorned
quadratic
middlesex
penitent
celsius
pancreatic
##cap
##atical
##ardon
logar
blinking
preca
##onshire
curs
babu
pavel
juicy
stepfather
tonnes
courtroom
judas
haircut
practised
buds
africans
declining
baum
compliance
sinners
##habi
flashes
courageous
weaknesses
plaus
indignant
staple
nostrils
enacted
avalanche
gertrude
skyscraper
sarcastic
tchaikovsky
whimpers
rer
##yar
##wings
##vana
staggered
##aments
chained
orde
cones
upload
##earing
peruvian
slug
missus
behead
##autions
snaps
satin
squirt
figur
morse
paulie
violinist
biologist
packets
assisting
tendencies
wheeled
crowns
paddington
telugu
nichol
penalties
pharmacy
parasite
crocodiles
resolutions
inflicted
formulas
metamorph
ritchie
fitt
lys
piers
yin
##rage
##kat
chassis
##rigan
##antically
grotes
overc
flot
hoch
slipper
steele
janice
horrified
morale
shuts
batted
##burst
slowing
bowing
searches
caption
swims
pinched
battered
koll
1829
negotiating
baronet
decreases
orphans
malaysian
displacement
aristocratic
##hopper
telecommunications
mischievous
protocols
gable
nair
sina
##fig
##pid
##jord
##ench
##enbach
ith
chapp
outst
##agram
hasan
intake
##ptic
##odus
salts
antwer
limiting
examinations
karth
koch
hypn
lambs
bhai
precautions
747
fertility
rejoiced
softer
inhales
bewitch
unsuccessfully
alignment
crucifix
assyrian
disqual
nissan
compulsory
precaution
gaga
kali
lans
ruther
##kop
##itri
haunt
shog
##imated
##imented
##riot
argh
carac
hubert
humility
creators
valves
auguste
craz
camels
norma
viewer
armoured
bearings
renault
##auri
despised
improper
annexed
implicit
intentionally
booty
xxv
trod
bangladeshi
rhythmic
derivatives
sustainability
compensate
impatience
consolid
soprano
carbohyd
bids
gables
hilton
iot
noodle
zak
##hound
##remes
shre
shay
unarmed
##ogly
believers
menace
gregg
traitors
oppa
merits
tottenham
palaces
##umbles
antio
##hampton
epith
urdu
torrent
derives
venetian
magnus
talbot
365
##azzo
approximate
pantry
tuft
landsl
1814
bridle
makin
resembling
##frame
defects
pebbles
ecclesiastical
bisexual
cag
cds
lash
mh
pem
##iad
##wash
##jani
androm
atp
orbits
##arde
marrow
##odon
defences
landmarks
damasc
vijay
daff
epit
briar
fasten
canadians
destroyers
throb
polymer
dismant
cassette
snapping
clowns
stalking
punjabi
metaphys
1800s
renovated
caffe
mollus
nebula
cuth
##iol
inge
albeit
##arton
capric
oppress
##uctive
activism
strengths
repeats
exclamation
contributor
shelters
hemorrh
abbas
classrooms
leverage
acclaim
consonant
cheshire
jehovah
dans
gears
holog
omen
pomer
##eka
##wagen
##anos
##asus
rector
stero
##isto
quo
##ashtra
readiness
painfully
##maids
jeb
216
dias
welcoming
bertha
strive
duly
panch
yeo
pitching
dumbo
tags
sylvester
extracted
acquaintances
intimacy
wartime
typewriter
unpredictable
uf
wally
##green
##reuth
##itian
itunes
##utations
withered
interd
##integr
believer
listener
madras
superficial
effectiveness
volts
bennet
utc
banged
frederic
collectively
otis
francon
whistled
##sexual
bruised
exclude
subconscious
ptolemy
zed
##eck
##nor
##kl
##zin
##isman
##akis
graf
twe
pep
##ivated
bled
acr
disob
sergio
finch
retract
provoked
presentations
freaked
questionna
bandits
motif
garret
melon
favorites
cowards
reviewing
bolton
interpol
ghast
contempor
chopin
inherent
##iferous
overlapping
auburn
metabolism
blizzard
porcelain
doth
pug
pimp
yee
##drop
##fur
##jer
##zee
reilly
weiss
stale
abyss
spock
ammo
joker
mupp
phar
basal
testified
##umbers
doctoral
##loid
biographical
27th
speedily
empires
tighter
##theid
dramas
rajas
restriction
yields
thorns
kohgil
dazzling
kohgiluyeh
a™
dudes
mather
##ndra
##chond
##iland
##ipur
scow
hugging
boyle
kiddo
##parable
sellers
audible
digger
##icapped
mutiny
interviewer
dreaded
selecting
ripley
resembled
rejoicing
electroly
♪♪♪
exhaustion
galileo
nouve
skeletons
##chwitz
buchanan
rd
xml
##eim
##llum
##itness
onset
thereupon
##abo
wrinkled
desolate
##ulle
medall
cora
1200
issuing
revive
imminent
liberated
grabbing
cockpit
bolts
privileged
shivered
sindh
methyl
westphalia
bangalore
antwerp
a™ª
lina
mott
nero
oasis
pipp
##lc
##vil
##vian
##erated
chitty
nell
aligned
herring
spaced
vega
imitating
flann
handicapped
courte
seconded
sonata
facto
augustine
discs
berk
bankers
farmhouse
embar
undone
photographed
trumpets
columnist
conveyed
##rodite
cushions
rebuilding
chauff
mvp
apartheid
sincerity
screwdriver
shampoo
damascus
guney
##base
##etes
##stant
reeves
##season
stutt
##inka
twas
backbone
scra
workmen
##cox
muzzle
paired
tenn
internally
marches
growl
seaweed
shipment
softball
scraps
nico
promotes
hester
1790
preparatory
keenly
diplomacy
##points
dusky
ascended
aspirations
scooter
liaison
archdiocese
eerie
lager
mio
oats
##lass
whiz
weir
chul
unhe
manhood
countdown
##ultural
lao
stillness
funer
skipping
lightweight
raul
sweeter
sleeper
oppressed
modifications
forgets
likeness
bleak
##boarding
racer
dispose
defendants
gazette
guarantees
lamborgh
wiggle
databases
yamato
voluntarily
irritating
##ozoic
aleksand
combustion
pineapple
executives
boop
coop
erie
mails
suther
vander
yucky
##zt
##enham
##enton
##urbed
##acked
priceless
marne
blanch
scatter
mayflower
##oder
longtime
slob
histories
##iku
continual
sentiments
##iterate
mastered
futile
jesuit
matric
clockwise
olig
translates
nicol
alternating
tougher
buffer
monarchs
guinness
inscriptions
conjug
burgess
rhinoc
sturdy
rhetoric
uterus
mith
##fox
##ych
##eroy
##oras
toads
##ayed
##idd
##chal
frying
ifyou
spac
quaker
##weather
drone
stride
wai
mono
##mob
meds
211
domes
oui
relaxing
excitedly
dominance
dialog
lingard
diversion
lexington
profoundly
sausages
##ahuasca
720
dx
kut
##ın
##atos
wasp
frantic
##oscop
leased
peps
offender
perv
helene
slalom
chartered
syph
##gina
simone
airy
ump
merlin
viable
##conn
cannons
245
215
definitive
apologized
ayahuasca
photographic
480
sewage
alder
vibrations
tremendously
bristles
fidelity
robbins
shipwreck
poultry
gom
nong
ssh
tuc
##yd
##ische
##itone
dewey
sule
byr
unworthy
##iani
marbles
##aryn
handball
monot
slaught
nightingale
##itsu
caliph
markings
weekday
goldfish
specialists
secretaries
craven
propeller
institutes
coasts
contraction
gallop
gallows
attracting
barbie
hanım
shadowy
imperative
sergei
cyclones
bumper
wheaton
tyranny
ascension
overlooking
rheum
reconciliation
mitochond
ail
mage
nish
tides
##from
##mering
##itism
##otch
chival
neander
frz
canv
##olete
spraw
braw
emi
helper
warships
smallpox
townsend
sentai
summat
futur
davidson
constituted
guardians
gallagher
skinned
concussion
goalt
lunchtime
naj
550
metropolis
validity
intrins
mozamb
superstition
smackdown
nerd
recruitment
toxin
intervene
patriotism
accredited
envelopes
noticeable
loth
oth
##33
##asu
doses
dend
##elberg
sped
spong
grimes
##itte
bok
##class
repeal
earrings
paramed
hardened
##asters
boycott
freeway
illusions
vern
bowie
mcgee
behavioral
seventies
voyager
apostle
cullen
handcuffs
##kreis
lamborghini
eck
fum
tres
##zone
##lean
stanton
notch
notified
decks
unsc
prat
vex
emanc
thanking
geek
gior
151
171
estonian
popularly
##ombre
##yev
dunes
scotty
horny
criticize
oddly
liquids
fragrant
1824
tracey
flourished
cynical
oyster
herbiv
snarling
wholesome
samsung
lineage
insignificant
nectar
priscilla
slaughtered
aort
ebert
kiev
lol
nh
##rade
##good
##otent
fras
alam
##olome
saunders
##oodoo
unn
208
##ichord
coer
prag
maris
comma
strung
preserving
frig
##ahon
additions
winnie
##otechn
heartless
understandable
pickles
damien
strife
martian
straightened
developmental
stupidity
crowley
accessed
taluk
dunbar
pinky
reminding
concentrating
passionately
buzzer
##seeing
rigged
manipulation
enlist
hinted
waistcoat
enlightened
hovering
shrieks
surpassed
ghastly
jars
##fir
##edo
oft
##itud
heirs
mecca
maroon
erased
mayer
missy
mattered
maddie
domains
obsolete
benefact
torque
teapot
acquitted
##flow
carts
tipto
marcos
dumping
rodeo
absorbing
stimulate
masked
dismissal
amateurs
rebellious
seaside
autonomy
##cutta
twenties
abducted
disagreement
overdose
eisenh
jeopardy
##keepers
nicaragua
sutherland
fals
##bering
##agara
gru
bloc
##raj
discrete
crue
##ignment
consp
##condition
goldsmith
frontal
coldly
periodical
expresses
jims
derbys
rumour
1825
tempting
hudders
guido
syndicate
vibrating
gutter
paradig
trojan
yogi
superstar
reminisc
pivot
occitanie
bair
vogue
##iks
##tails
##page
##wear
##minate
##otive
##idon
stains
##adu
doves
##unn
amiable
lobe
gruff
peppers
disd
scher
homeward
slant
##sham
ahl
##ype
starboard
admitting
cannes
stationary
tito
civilizations
310
##guards
occupies
tyre
strikeouts
1810
publishes
640
negotiated
tackles
powdered
stalls
pornography
conqueror
cristina
belarusian
jubilee
schneider
disobed
huddersfield
bower
paced
vap
##birth
##sticks
canopy
plent
arson
aragon
intra
registry
rocked
benches
berkshire
malicious
joseon
interviewing
protestants
cherish
pulpit
aquatics
bumps
sternly
divert
harmonic
explorers
demolition
wondrous
touchdowns
hazardous
aeroplane
grotesque
derbyshire
2d
cac
huts
pis
##mings
##ος
##esi
##iden
##acia
spind
##rae
playful
barons
greasy
edible
northward
calcutta
hurrah
blackburn
shoemaker
visibility
departing
freck
eastward
pastry
replies
engineered
subjective
introduces
encir
specification
magnets
stocking
joyous
kilograms
inquiring
illegit
nitrate
migrated
licked
recycled
bryce
commodity
clergyman
vomiting
nassau
unbear
antidote
subdued
synagogue
seagull
kov
wack
##lde
stokes
arid
llc
clone
pras
perished
flax
hibern
emails
stras
##identified
collier
posh
##hmet
computation
darth
##luence
nonpro
sadd
hostility
aching
achilles
liberia
dickon
complexion
reflections
accomplishment
lsd
absorption
strangled
roulet
navigate
cheltenham
scolded
##millan
ziggler
subordinate
mosquitoes
newcomer
syntax
vintage
forlorn
akin
ck
dashing
gai
kits
¢u
rez
stung
mosaic
tric
twinkling
becca
mustang
thankyou
sims
footed
refurb
covert
darkened
debated
charted
mobility
buns
psal
bouquet
presumed
brutus
heathen
tornadoes
pedestrian
middleton
reconsider
bs
lulu
oste
vat
##pes
##paper
##zas
##adas
roam
##ittin
flux
carrington
huang
paralysis
financed
owning
nightfall
hardship
sawyer
prevail
castile
lowly
cardi
arresting
dimly
carton
jammed
afforded
hypoc
whoosh
revolutions
cowardly
exceeded
stinking
paralympic
vaccines
kelvin
venezuel
constraint
accusation
prudent
javier
treacherous
guerrilla
orgasm
bazaar
kula
nand
tilt
zor
thaw
heil
##alls
chas
como
plow
outpost
sper
unear
unmarried
mugh
skil
hardships
edged
##ushi
breakup
avatar
deceit
troubling
froze
frodo
iceberg
macau
##ascript
louisville
karan
planetary
bombings
progression
orchestras
impacts
persuasion
emphasized
boroughs
rahman
rattled
criterion
nasal
##picious
javascript
titanic
##brandt
suicidal
neglig
stuttgart
eisenhower
aude
bony
##nem
##fires
whims
gop
exodus
hereafter
twigs
dispar
##athlon
##shell
brocc
aww
morgue
frankenstein
navajo
anthology
supplying
hypnot
cords
enormously
recruits
lingered
exceeding
illuminated
template
dorsal
blasph
ostrich
anterior
chieft
fad
icc
jiang
mitz
vitt
xix
##enched
bei
sput
manic
clog
newborn
jog
pertain
resides
swar
booking
caul
antis
antlers
petra
dukes
banu
290
etienne
foliage
ukridge
kyiv
wagga
scholarly
ipod
dyke
consolidated
hernandez
hating
sord
##66
##asim
##alach
##rof
caro
popp
watchman
snook
delusion
morbid
economical
rapture
grasshopper
polling
bidiane
crickets
advocated
advocacy
cosmos
accomplishments
mathematicians
treachery
resonance
raccoon
volkswagen
lact
mace
oj
pue
tally
wanda
zhu
##bred
inco
stellar
trance
uplif
##mental
twos
offset
theseus
bugg
parable
slab
recital
watermel
humane
##apper
postcard
tasting
dungeon
baton
340
cherished
virtuous
budgets
piracy
bundles
tangent
deposition
pooja
pencils
excluding
##hawk
glamour
schooner
ancients
nicholson
aki
cider
cuch
gs
jah
rath
##´ll
thugs
##orthy
##itous
##uria
nellie
myers
exor
##berra
poking
guise
universally
churchyard
catfish
socialists
coolest
innate
lengthy
splits
koreans
mechanically
delicacy
1819
eagerness
grimly
innovations
anticipate
algebraic
toulouse
patrols
aª
bk
fancies
gems
jh
nied
ripping
##iola
##bay
##70
heater
weave
##iliar
shelly
uninter
amended
clatter
okina
cron
funnel
capped
##ribution
finely
##iterated
##apeut
toni
camoufl
saddam
psychologists
##olester
ratified
aspirin
auschwitz
mgm
bettina
venezuelan
fiv
jot
kolk
##log
##atist
##omac
##seau
nem
degrad
##uling
##olulu
abide
##umerable
goody
downwards
wrists
maestro
sling
godzilla
defarge
foref
severity
ava
connell
craving
catcher
jimmie
networking
tedious
ensuring
aeronaut
1828
bursts
analyzed
doggy
insults
clerks
exploited
discography
lankan
endeavor
seych
persever
wholesale
botanical
unrelated
wrestlemania
eyewitness
proverb
ordeal
biod
fumes
gumb
niet
pong
sart
tiber
##enta
##enter
sek
##ighton
suv
loy
commuter
fined
invitations
retaining
generators
corro
majors
honolulu
lucer
shutters
hygi
##aldi
malone
bathe
defeats
karnat
cartridges
participant
shrinking
encourages
upsetting
vocational
viceroy
extraordin
1776
indulge
reefs
rocke
shaggy
dundee
coventry
culprit
sophomore
dz
hc
lm
paces
x1
##dah
##yen
##90
##iscover
haze
##ooper
##tham
allier
enabling
themed
peering
##ende
overre
playboy
reset
##feller
##cliff
parv
##ologic
provoke
merrill
richter
275
accountable
mira
##afi
determin
dryer
hansel
##breaking
mythical
desperation
seeded
manipuri
counseling
portrayal
vinci
constructive
preface
arsenic
##fleet
receipts
haley
auditorium
broccoli
karnataka
bd
cack
df
fau
iro
nue
riz
##mall
##vall
##ldorf
can´t
canberra
thereof
qui
##reated
strangle
##ulla
medley
geograph
laure
midw
posing
freel
ballroom
felipe
posture
favoured
trustee
224
moderator
psychopath
dickinson
astro
fingerna
susie
wrestlers
##iyan
reconcile
precurs
commitments
##agrams
licking
haunting
marxist
relegation
quincy
plausible
sb
wur
zipper
zulu
##wave
##ndish
##celyn
therein
tromb
##emb
amos
loot
evenly
##ulton
genie
passer
hari
lawson
filth
##iken
relevance
midday
condom
discarded
destinations
angular
sanctions
mali
dispens
applejack
preferences
##ritis
##iciary
flourish
lagos
hubble
overturned
alarms
ascending
academics
supervised
piazza
affirmative
encryption
cain
kern
maud
nal
##iak
##vity
stint
atroc
##antes
shek
##estry
byrd
hereby
serum
invaders
calves
woodlands
fairness
hyst
localities
seniors
247
utilities
medici
bordeaux
brandenburg
mortals
tsuk
margot
inquis
lamar
1793
hacker
muffin
legitim
algerian
shrewsbury
phosphate
fahren
terminology
shrieking
bucharest
flattened
unveiled
tiffany
taffy
trajectory
kro
kud
td
##rama
##ihood
##tically
##vals
##rost
cheryl
abla
##abolic
##nae
distrust
busiest
assail
harley
sita
holden
blackpool
horrors
sanitation
famously
nominal
communicated
boob
briefcase
ensign
tranquil
esperanto
pessim
sentinel
illegitimate
feds
oro
zac
##houn
##minated
##eson
inse
whal
hemp
##they
##opia
##eably
##ulo
##aub
arbor
aryan
leuke
enrique
twa
veer
poin
underway
drows
strad
recite
ops
swish
invading
delivers
firefox
inca
##obel
strapped
narin
bihar
breathes
1803
yuh
neutrons
styled
interpretations
injected
anchorage
uneven
assertion
embryo
indefinitely
rutherford
eaves
mk
wc
##hah
##lav
ons
##seen
shaman
lov
rog
offenders
doings
swarm
metac
untouched
payroll
##awar
161
demise
sampling
crossroads
243
##working
pathan
declares
reno
accessories
nicki
catholicism
consistency
1818
watershed
bentley
mantel
podium
suzanne
reminis
vigorously
redesign
bim
gurg
ichi
mens
oise
zy
##blo
##vill
hepat
relying
shang
dey
congen
unacc
everest
blushed
estuary
patton
irons
islanders
modesty
technician
duc
encoded
quarterly
##iyo
1795
prospective
subscrib
hodg
symmetric
helmets
martyrs
thrive
minimize
hallucinations
eloquent
regeneration
scrutiny
hoop
jih
mba
pter
##nc
andi
we´re
##aden
##chev
peered
##iae
slo
invites
skirm
northumberland
defy
classmates
launder
burrows
judiciary
laddie
url
doubling
##enthal
##glomer
##banks
motorb
thyself
billionaire
niche
exceptionally
observers
recycle
fluttering
landlords
errands
cranky
luxurious
ketchup
reginald
hygiene
ciao
£1
##27
anew
##itha
